{
  "version": "1.0",
  "truncation": null,
  "padding": null,
  "added_tokens": [
    {
      "id": 0,
      "content": "<|bos|>",
      "single_word": false,
      "lstrip": false,
      "rstrip": false,
      "normalized": false,
      "special": true
    },
    {
      "id": 1,
      "content": "<|eos|>",
      "single_word": false,
      "lstrip": false,
      "rstrip": false,
      "normalized": false,
      "special": true
    },
    {
      "id": 2,
      "content": "<|unk|>",
      "single_word": false,
      "lstrip": false,
      "rstrip": false,
      "normalized": false,
      "special": true
    },
    {
      "id": 3,
      "content": "<|pad|>",
      "single_word": false,
      "lstrip": false,
      "rstrip": false,
      "normalized": false,
      "special": true
    },
    {
      "id": 4,
      "content": "<|mask|>",
      "single_word": false,
      "lstrip": false,
      "rstrip": false,
      "normalized": false,
      "special": true
    },
    {
      "id": 5,
      "content": "<|s|>",
      "single_word": false,
      "lstrip": false,
      "rstrip": false,
      "normalized": false,
      "special": true
    },
    {
      "id": 6,
      "content": "<|/s|>",
      "single_word": false,
      "lstrip": false,
      "rstrip": false,
      "normalized": false,
      "special": true
    },
    {
      "id": 48000,
      "content": "<|sep|>",
      "single_word": false,
      "lstrip": false,
      "rstrip": false,
      "normalized": false,
      "special": true
    },
    {
      "id": 48001,
      "content": "<|cls|>",
      "single_word": false,
      "lstrip": false,
      "rstrip": false,
      "normalized": false,
      "special": true
    }
  ],
  "normalizer": null,
  "pre_tokenizer": {
    "type": "Metaspace",
    "replacement": "▁",
    "prepend_scheme": "always",
    "split": true
  },
  "post_processor": {
    "type": "TemplateProcessing",
    "single": [
      {
        "SpecialToken": {
          "id": "<|bos|>",
          "type_id": 0
        }
      },
      {
        "Sequence": {
          "id": "A",
          "type_id": 0
        }
      },
      {
        "SpecialToken": {
          "id": "<|eos|>",
          "type_id": 0
        }
      }
    ],
    "pair": [
      {
        "SpecialToken": {
          "id": "<|bos|>",
          "type_id": 0
        }
      },
      {
        "Sequence": {
          "id": "A",
          "type_id": 0
        }
      },
      {
        "SpecialToken": {
          "id": "<|eos|>",
          "type_id": 0
        }
      },
      {
        "SpecialToken": {
          "id": "<|bos|>",
          "type_id": 1
        }
      },
      {
        "Sequence": {
          "id": "B",
          "type_id": 1
        }
      },
      {
        "SpecialToken": {
          "id": "<|eos|>",
          "type_id": 1
        }
      }
    ],
    "special_tokens": {
      "<|bos|>": {
        "id": "<|bos|>",
        "ids": [
          0
        ],
        "tokens": [
          "<|bos|>"
        ]
      },
      "<|eos|>": {
        "id": "<|eos|>",
        "ids": [
          1
        ],
        "tokens": [
          "<|eos|>"
        ]
      }
    }
  },
  "decoder": {
    "type": "Metaspace",
    "replacement": "▁",
    "prepend_scheme": "always",
    "split": true
  },
  "model": {
    "type": "Unigram",
    "unk_id": 2,
    "vocab": [
      [
        "<|bos|>",
        0.0
      ],
      [
        "<|eos|>",
        0.0
      ],
      [
        "<|unk|>",
        0.0
      ],
      [
        "<|pad|>",
        0.0
      ],
      [
        "<|mask|>",
        0.0
      ],
      [
        "<|s|>",
        0.0
      ],
      [
        "<|/s|>",
        0.0
      ],
      [
        "▁",
        -3.192086445950455
      ],
      [
        ",",
        -3.202926379860749
      ],
      [
        "▁the",
        -3.880840076299446
      ],
      [
        ".",
        -3.9167225989062615
      ],
      [
        "▁of",
        -4.377166004745341
      ],
      [
        "▁в",
        -4.642773640824927
      ],
      [
        "s",
        -4.683621494119361
      ],
      [
        "▁и",
        -4.7161276747131
      ],
      [
        "▁and",
        -4.73753424022274
      ],
      [
        "▁to",
        -4.752327413499884
      ],
      [
        "▁a",
        -4.9212180391758515
      ],
      [
        "▁in",
        -4.97431406663619
      ],
      [
        "а",
        -5.043928373450239
      ],
      [
        "е",
        -5.29080546184483
      ],
      [
        "▁на",
        -5.318468808499478
      ],
      [
        "и",
        -5.337504699705502
      ],
      [
        "▁с",
        -5.407842264129535
      ],
      [
        "▁is",
        -5.471852997945799
      ],
      [
        "▁не",
        -5.56426857311633
      ],
      [
        "у",
        -5.660584510553708
      ],
      [
        "о",
        -5.757967090128641
      ],
      [
        ":",
        -5.78137736154498
      ],
      [
        "▁for",
        -5.858169322329779
      ],
      [
        "ing",
        -5.866464926253151
      ],
      [
        "▁что",
        -5.930708820882039
      ],
      [
        "▁with",
        -5.935413782460316
      ],
      [
        "я",
        -5.935656428305531
      ],
      [
        "-",
        -5.939837240355999
      ],
      [
        "▁that",
        -5.9424451513703325
      ],
      [
        "м",
        -5.94603324550658
      ],
      [
        "▁по",
        -5.957480030949494
      ],
      [
        "▁on",
        -6.057765602584901
      ],
      [
        "ed",
        -6.0799519309220145
      ],
      [
        "ы",
        -6.102389948733752
      ],
      [
        ".\n",
        -6.111441053493323
      ],
      [
        "▁you",
        -6.140334644445545
      ],
      [
        "▁(",
        -6.1590110110630505
      ],
      [
        "х",
        -6.205711038330833
      ],
      [
        "▁-",
        -6.215397513666112
      ],
      [
        ")",
        -6.2286431433879805
      ],
      [
        "▁it",
        -6.233368164613868
      ],
      [
        "\n",
        -6.24172184336464
      ],
      [
        "▁was",
        -6.288801864841819
      ],
      [
        "й",
        -6.3483190501688505
      ],
      [
        "▁from",
        -6.351859679072724
      ],
      [
        "▁this",
        -6.364750158050768
      ],
      [
        "▁are",
        -6.367060173692341
      ],
      [
        "▁к",
        -6.3746982388142435
      ],
      [
        "▁be",
        -6.37886140033126
      ],
      [
        "▁I",
        -6.397510327524154
      ],
      [
        "▁за",
        -6.40491822763169
      ],
      [
        "▁as",
        -6.41868731855155
      ],
      [
        "▁от",
        -6.422788675943744
      ],
      [
        "▁как",
        -6.465140865513561
      ],
      [
        "▁для",
        -6.4668776231695055
      ],
      [
        "▁not",
        -6.473455423322578
      ],
      [
        "ом",
        -6.493550975822709
      ],
      [
        "e",
        -6.508419798227095
      ],
      [
        "▁The",
        -6.5110520154871026
      ],
      [
        "▁из",
        -6.515755454500519
      ],
      [
        "▁–",
        -6.54357392028456
      ],
      [
        "▁by",
        -6.56091153664436
      ],
      [
        "▁вы",
        -6.588856107333861
      ],
      [
        "d",
        -6.5971491739637855
      ],
      [
        "▁or",
        -6.639407754190039
      ],
      [
        "ных",
        -6.668394561554333
      ],
      [
        "▁—",
        -6.670112628548523
      ],
      [
        "?",
        -6.682736943829587
      ],
      [
        "▁will",
        -6.685568298510669
      ],
      [
        "▁В",
        -6.686920753496052
      ],
      [
        "a",
        -6.690184886184534
      ],
      [
        "ной",
        -6.696388479396681
      ],
      [
        "▁an",
        -6.702341486642476
      ],
      [
        "ов",
        -6.71007934584174
      ],
      [
        "▁at",
        -6.712805971066706
      ],
      [
        "ой",
        -6.730269111914909
      ],
      [
        "\"",
        -6.73286450842712
      ],
      [
        "▁can",
        -6.740898683293697
      ],
      [
        "▁или",
        -6.746457110025974
      ],
      [
        "▁это",
        -6.758237298877219
      ],
      [
        "ly",
        -6.766321268930328
      ],
      [
        "y",
        -6.805920404511594
      ],
      [
        "ные",
        -6.832554727441151
      ],
      [
        "▁\"",
        -6.857327883293205
      ],
      [
        "▁he",
        -6.869821667727619
      ],
      [
        "▁при",
        -6.874042230384967
      ],
      [
        "в",
        -6.901075591787103
      ],
      [
        "▁his",
        -6.901893136373877
      ],
      [
        "ю",
        -6.914113264727014
      ],
      [
        "▁его",
        -6.915465113128285
      ],
      [
        "ть",
        -6.920256859343301
      ],
      [
        "с",
        -6.942281687815834
      ],
      [
        "ного",
        -6.959520630874001
      ],
      [
        "▁which",
        -6.97566810064499
      ],
      [
        "л",
        -6.98852210018654
      ],
      [
        "▁have",
        -6.995032021335147
      ],
      [
        "'s",
        -7.009517246162021
      ],
      [
        "ный",
        -7.012737068137854
      ],
      [
        ";",
        -7.0278581761309855
      ],
      [
        ".\n-",
        -7.029468093040196
      ],
      [
        "▁but",
        -7.037620712529858
      ],
      [
        "▁он",
        -7.039908805557591
      ],
      [
        "\n-",
        -7.047204871940551
      ],
      [
        "ли",
        -7.05679450374749
      ],
      [
        "▁your",
        -7.058888850487497
      ],
      [
        "ет",
        -7.068518792201893
      ],
      [
        "▁до",
        -7.097820682583343
      ],
      [
        "er",
        -7.133074143358815
      ],
      [
        "t",
        -7.147397866238906
      ],
      [
        "al",
        -7.157672053845957
      ],
      [
        "▁но",
        -7.165034967549888
      ],
      [
        "▁«",
        -7.165121276101644
      ],
      [
        "”",
        -7.177736716912728
      ],
      [
        "▁“",
        -7.1777827479980925
      ],
      [
        "o",
        -7.188139279019348
      ],
      [
        "▁about",
        -7.213077121601055
      ],
      [
        "▁they",
        -7.215668225388409
      ],
      [
        "▁In",
        -7.225266812688249
      ],
      [
        "»",
        -7.229379362586306
      ],
      [
        "▁were",
        -7.245643007185011
      ],
      [
        "▁all",
        -7.2461867325191935
      ],
      [
        "ми",
        -7.247693117681395
      ],
      [
        "▁one",
        -7.25421844977263
      ],
      [
        "▁their",
        -7.261520251966584
      ],
      [
        "▁чтобы",
        -7.262188820350353
      ],
      [
        "▁то",
        -7.266590511489904
      ],
      [
        "▁A",
        -7.269054248291251
      ],
      [
        "т",
        -7.271268934154369
      ],
      [
        "!",
        -7.2988268536072844
      ],
      [
        "n",
        -7.340413079950677
      ],
      [
        "▁also",
        -7.341664778499515
      ],
      [
        "ей",
        -7.34570426967219
      ],
      [
        "▁все",
        -7.347036740948656
      ],
      [
        "/",
        -7.353202020569517
      ],
      [
        "▁под",
        -7.360610142861061
      ],
      [
        "но",
        -7.362719353194414
      ],
      [
        "▁так",
        -7.3871239316111215
      ],
      [
        "▁может",
        -7.3875251515047395
      ],
      [
        "ная",
        -7.396879004210815
      ],
      [
        "),",
        -7.400073672324172
      ],
      [
        "▁more",
        -7.428648669743994
      ],
      [
        "▁who",
        -7.429553974745183
      ],
      [
        "i",
        -7.429758060578331
      ],
      [
        "▁we",
        -7.436765544108772
      ],
      [
        "▁has",
        -7.439882070284662
      ],
      [
        "es",
        -7.446251110553099
      ],
      [
        "▁there",
        -7.456680741826142
      ],
      [
        "ла",
        -7.457454237190355
      ],
      [
        "▁же",
        -7.464393169459669
      ],
      [
        "▁С",
        -7.47341320946866
      ],
      [
        "го",
        -7.481013472697597
      ],
      [
        "ным",
        -7.485296901241881
      ],
      [
        ").",
        -7.491344040253654
      ],
      [
        "ого",
        -7.500649954722821
      ],
      [
        "▁их",
        -7.502119929916063
      ],
      [
        "▁про",
        -7.505233824417989
      ],
      [
        "▁into",
        -7.514504701758961
      ],
      [
        "▁был",
        -7.518994592479988
      ],
      [
        "▁only",
        -7.519183746967114
      ],
      [
        "а,",
        -7.526612806332205
      ],
      [
        "▁out",
        -7.532393938369736
      ],
      [
        "ем",
        -7.533585758296676
      ],
      [
        "▁которые",
        -7.534223226899572
      ],
      [
        "in",
        -7.545116192927221
      ],
      [
        "ами",
        -7.548734965426185
      ],
      [
        "▁its",
        -7.551291678753984
      ],
      [
        "▁if",
        -7.563423148918538
      ],
      [
        "ка",
        -7.568300997178854
      ],
      [
        "s.",
        -7.570836978874752
      ],
      [
        "f",
        -7.573504636759877
      ],
      [
        "▁также",
        -7.578185290169506
      ],
      [
        "r",
        -7.590357633639643
      ],
      [
        "ную",
        -7.592898390042393
      ],
      [
        "▁other",
        -7.596864739115942
      ],
      [
        "ное",
        -7.600159030451545
      ],
      [
        "▁when",
        -7.602306005974148
      ],
      [
        "▁время",
        -7.602468534785531
      ],
      [
        "н",
        -7.603329917974635
      ],
      [
        "▁so",
        -7.604067301862985
      ],
      [
        "▁со",
        -7.610332736102434
      ],
      [
        "ую",
        -7.628975724759021
      ],
      [
        "▁они",
        -7.631690215034562
      ],
      [
        "▁было",
        -7.641222406649431
      ],
      [
        "▁first",
        -7.644324551815355
      ],
      [
        "ют",
        -7.646061448181303
      ],
      [
        "▁только",
        -7.651922883422939
      ],
      [
        "▁what",
        -7.651999241622507
      ],
      [
        "▁her",
        -7.654838469636857
      ],
      [
        "▁быть",
        -7.658376889629555
      ],
      [
        "▁раз",
        -7.661695361906341
      ],
      [
        "▁do",
        -7.667900067867491
      ],
      [
        "▁It",
        -7.668902254641656
      ],
      [
        "ки",
        -7.672527925295219
      ],
      [
        "▁them",
        -7.685356015204771
      ],
      [
        "ая",
        -7.688976564020761
      ],
      [
        "к",
        -7.690759670149896
      ],
      [
        "▁such",
        -7.695641436284861
      ],
      [
        "▁если",
        -7.696208576956973
      ],
      [
        "▁1",
        -7.710017368947291
      ],
      [
        "▁И",
        -7.71451954934723
      ],
      [
        ".\nThe",
        -7.716572462668234
      ],
      [
        "▁S",
        -7.7165941360348125
      ],
      [
        "ь",
        -7.736391037324426
      ],
      [
        "▁бы",
        -7.739750493365348
      ],
      [
        "▁2",
        -7.752569869665358
      ],
      [
        "▁This",
        -7.753325125749088
      ],
      [
        "▁people",
        -7.755309948537
      ],
      [
        "▁time",
        -7.763142423627165
      ],
      [
        "▁мы",
        -7.767407643628527
      ],
      [
        ";\n-",
        -7.781281411170793
      ],
      [
        "▁no",
        -7.79110946638974
      ],
      [
        "▁когда",
        -7.7935608482707135
      ],
      [
        "ся",
        -7.796576397408463
      ],
      [
        "▁во",
        -7.805890746932413
      ],
      [
        "▁А",
        -7.813700142779821
      ],
      [
        "▁should",
        -7.815693290013364
      ],
      [
        "▁had",
        -7.816706707717136
      ],
      [
        "▁более",
        -7.827791050023619
      ],
      [
        "на",
        -7.836621188864461
      ],
      [
        "▁And",
        -7.837786855280983
      ],
      [
        "▁my",
        -7.842962068849566
      ],
      [
        "▁most",
        -7.850584313554458
      ],
      [
        "▁then",
        -7.854539880618654
      ],
      [
        "▁можно",
        -7.855630302317584
      ],
      [
        "▁him",
        -7.861636418546201
      ],
      [
        "▁like",
        -7.862042934687995
      ],
      [
        "c",
        -7.878954709194286
      ],
      [
        "▁будет",
        -7.880438554739859
      ],
      [
        "▁than",
        -7.887046112202642
      ],
      [
        "▁об",
        -7.888229235009149
      ],
      [
        "▁after",
        -7.90570503901079
      ],
      [
        "▁He",
        -7.906492580880908
      ],
      [
        "▁very",
        -7.910091648700002
      ],
      [
        "▁который",
        -7.913440362620934
      ],
      [
        "…",
        -7.918932259389619
      ],
      [
        "ном",
        -7.92306737654617
      ],
      [
        "g",
        -7.924853157199063
      ],
      [
        "д",
        -7.926374576747996
      ],
      [
        "▁есть",
        -7.930402798563357
      ],
      [
        "▁up",
        -7.931493386241552
      ],
      [
        "k",
        -7.93754265050956
      ],
      [
        "▁пере",
        -7.944688428220166
      ],
      [
        "▁how",
        -7.946635898107878
      ],
      [
        "▁после",
        -7.9484553174852834
      ],
      [
        "▁были",
        -7.951256127599464
      ],
      [
        "▁C",
        -7.951541656240799
      ],
      [
        "ах",
        -7.952822592376524
      ],
      [
        "▁Я",
        -7.955958093339
      ],
      [
        "▁new",
        -7.956036390149494
      ],
      [
        ".\nВ",
        -7.957677401071377
      ],
      [
        "▁Это",
        -7.96317318359746
      ],
      [
        "▁some",
        -7.96521528528614
      ],
      [
        "ых",
        -7.968400330740304
      ],
      [
        "or",
        -7.969270614554617
      ],
      [
        "ам",
        -7.969844140774461
      ],
      [
        "▁она",
        -7.976062683235396
      ],
      [
        "▁ее",
        -7.980520547835725
      ],
      [
        "▁two",
        -7.986613272263742
      ],
      [
        "ными",
        -7.987579690088779
      ],
      [
        "▁would",
        -7.989374843640533
      ],
      [
        "▁may",
        -7.993080440427512
      ],
      [
        "ий",
        -7.998795171236139
      ],
      [
        "▁На",
        -8.002117054530538
      ],
      [
        "ion",
        -8.005694010943097
      ],
      [
        "▁По",
        -8.005806869243445
      ],
      [
        "▁том",
        -8.010180981814894
      ],
      [
        "ы,",
        -8.017686253564953
      ],
      [
        "их",
        -8.023932980214573
      ],
      [
        "▁need",
        -8.027200061933707
      ],
      [
        "▁these",
        -8.02845616513828
      ],
      [
        "ется",
        -8.032742841312634
      ],
      [
        "▁where",
        -8.036316567848859
      ],
      [
        "▁work",
        -8.037065789516253
      ],
      [
        "▁этого",
        -8.042405899160782
      ],
      [
        "h",
        -8.046108767645118
      ],
      [
        "ic",
        -8.047878946415013
      ],
      [
        "▁me",
        -8.049467133528662
      ],
      [
        "▁этом",
        -8.052982161029178
      ],
      [
        "l",
        -8.057116799898074
      ],
      [
        "▁over",
        -8.057980191333549
      ],
      [
        "▁того,",
        -8.0652989479775
      ],
      [
        "||",
        -8.06625628647275
      ],
      [
        "▁У",
        -8.067777197057127
      ],
      [
        "▁чем",
        -8.067984482314797
      ],
      [
        "ия",
        -8.069550320511357
      ],
      [
        "им",
        -8.069660494589499
      ],
      [
        "▁even",
        -8.071518645124419
      ],
      [
        "▁use",
        -8.077628094789882
      ],
      [
        "▁she",
        -8.079781637750296
      ],
      [
        "▁года",
        -8.095620344176059
      ],
      [
        "▁году",
        -8.096719208005652
      ],
      [
        "▁been",
        -8.098217333562737
      ],
      [
        "▁могут",
        -8.102917525905866
      ],
      [
        "m",
        -8.106275683173795
      ],
      [
        "▁была",
        -8.110547090723925
      ],
      [
        "▁3",
        -8.111600119037565
      ],
      [
        ":\n-",
        -8.112458591491027
      ],
      [
        "а.",
        -8.114323638487358
      ],
      [
        "▁18",
        -8.114879565485397
      ],
      [
        "▁Но",
        -8.115665291656807
      ],
      [
        "▁our",
        -8.115930478050844
      ],
      [
        "▁является",
        -8.117309404620508
      ],
      [
        "ить",
        -8.117342530420935
      ],
      [
        "г",
        -8.119896628258719
      ],
      [
        "▁очень",
        -8.12660148078579
      ],
      [
        "able",
        -8.126729413964265
      ],
      [
        "p",
        -8.131387862418672
      ],
      [
        "▁But",
        -8.136554577019368
      ],
      [
        "ло",
        -8.14060771504461
      ],
      [
        "...",
        -8.141921069865262
      ],
      [
        "on",
        -8.151057598766721
      ],
      [
        "▁уже",
        -8.154522914874875
      ],
      [
        "?\n",
        -8.161863957946602
      ],
      [
        "▁B",
        -8.163277806170424
      ],
      [
        "▁used",
        -8.170599310646251
      ],
      [
        "ок",
        -8.172900796369763
      ],
      [
        "▁10",
        -8.173434880639567
      ],
      [
        "▁any",
        -8.179557873752056
      ],
      [
        "▁during",
        -8.180286689789337
      ],
      [
        "▁same",
        -8.181557470299277
      ],
      [
        "it",
        -8.185865590231906
      ],
      [
        "b",
        -8.19108015598667
      ],
      [
        "▁ли",
        -8.192273337165707
      ],
      [
        "▁under",
        -8.197321117180449
      ],
      [
        "▁еще",
        -8.201393509048815
      ],
      [
        "▁К",
        -8.206398907637949
      ],
      [
        "th",
        -8.210155437874985
      ],
      [
        "▁без",
        -8.210349271445331
      ],
      [
        "x",
        -8.214116436834631
      ],
      [
        "▁many",
        -8.21564235582437
      ],
      [
        "▁years",
        -8.219497517501582
      ],
      [
        "ются",
        -8.22057746080677
      ],
      [
        "▁did",
        -8.221626260191226
      ],
      [
        "ку",
        -8.22283141159001
      ],
      [
        "▁If",
        -8.22677651602393
      ],
      [
        "▁5",
        -8.233711970350223
      ],
      [
        "’s",
        -8.234034867733435
      ],
      [
        "▁Он",
        -8.236145792937648
      ],
      [
        "▁could",
        -8.24030146555413
      ],
      [
        "лись",
        -8.244941581344174
      ],
      [
        "▁E",
        -8.245387170664205
      ],
      [
        "ской",
        -8.258052681745417
      ],
      [
        "▁Если",
        -8.259225448945628
      ],
      [
        "en",
        -8.263671681408459
      ],
      [
        "▁make",
        -8.2638004820247
      ],
      [
        "us",
        -8.272905755120288
      ],
      [
        "▁through",
        -8.274477602945431
      ],
      [
        "'",
        -8.275884101593066
      ],
      [
        "▁c",
        -8.279381730538354
      ],
      [
        "an",
        -8.279804881225974
      ],
      [
        "п",
        -8.285602348420545
      ],
      [
        "▁between",
        -8.286824429031384
      ],
      [
        "ов,",
        -8.288388388131343
      ],
      [
        "ться",
        -8.289455908759365
      ],
      [
        "▁does",
        -8.293531956102763
      ],
      [
        "▁well",
        -8.294278598867132
      ],
      [
        "ые",
        -8.295939971413747
      ],
      [
        "▁F",
        -8.296353609038658
      ],
      [
        "▁P",
        -8.298547110435063
      ],
      [
        "▁вам",
        -8.298566987418736
      ],
      [
        "is",
        -8.30058289188819
      ],
      [
        "▁себя",
        -8.303460518793818
      ],
      [
        "]",
        -8.306113414814174
      ],
      [
        "▁D",
        -8.30741678309936
      ],
      [
        "ч",
        -8.307862828144575
      ],
      [
        "ит",
        -8.313316719841746
      ],
      [
        "2",
        -8.314927011937455
      ],
      [
        "▁больше",
        -8.315005845545084
      ],
      [
        "at",
        -8.317618453226668
      ],
      [
        "»,",
        -8.319155472024356
      ],
      [
        "▁лет",
        -8.320179832007032
      ],
      [
        "▁тем",
        -8.327724345286985
      ],
      [
        "▁un",
        -8.329191618478458
      ],
      [
        "▁take",
        -8.332940299042374
      ],
      [
        "ers",
        -8.33333117492668
      ],
      [
        ":\n",
        -8.333446438824291
      ],
      [
        "ского",
        -8.33935824528219
      ],
      [
        "▁Russian",
        -8.341308364591407
      ],
      [
        "ation",
        -8.341593271236794
      ],
      [
        "▁get",
        -8.343041426788337
      ],
      [
        "▁re",
        -8.354182994375735
      ],
      [
        "ый",
        -8.354388323545079
      ],
      [
        "он",
        -8.355663620065116
      ],
      [
        "ение",
        -8.356262768002287
      ],
      [
        "▁даже",
        -8.359968707453032
      ],
      [
        ".\nIn",
        -8.360175246800669
      ],
      [
        "▁help",
        -8.36394967953677
      ],
      [
        "▁4",
        -8.364367762434199
      ],
      [
        "▁меня",
        -8.365595513217439
      ],
      [
        "р",
        -8.366907750195223
      ],
      [
        "—",
        -8.367082010285628
      ],
      [
        "▁life",
        -8.369416005584164
      ],
      [
        "ен",
        -8.369948387477473
      ],
      [
        "▁just",
        -8.377493004312475
      ],
      [
        "ar",
        -8.378561008882029
      ],
      [
        "▁de",
        -8.381239646571151
      ],
      [
        "▁где",
        -8.382713480054383
      ],
      [
        "▁because",
        -8.388895133696941
      ],
      [
        "▁Вы",
        -8.392046578935467
      ],
      [
        "re",
        -8.39455752075454
      ],
      [
        "▁G",
        -8.395992238003359
      ],
      [
        "не",
        -8.398423043972143
      ],
      [
        "▁without",
        -8.402484200418845
      ],
      [
        "1",
        -8.403583289884182
      ],
      [
        "▁main",
        -8.404059430010115
      ],
      [
        "ое",
        -8.404739106787485
      ],
      [
        "лась",
        -8.404902960195637
      ],
      [
        "▁know",
        -8.405209362757805
      ],
      [
        "▁Не",
        -8.409252012462053
      ],
      [
        "та",
        -8.41034572764281
      ],
      [
        "▁You",
        -8.413416388682652
      ],
      [
        "v",
        -8.420023209758686
      ],
      [
        "ive",
        -8.42722762925777
      ],
      [
        "_",
        -8.431367547557969
      ],
      [
        "▁p",
        -8.433357449385253
      ],
      [
        "▁each",
        -8.435927339276876
      ],
      [
        "▁see",
        -8.43778301457111
      ],
      [
        "лся",
        -8.4380987822015
      ],
      [
        "▁person",
        -8.439105111002108
      ],
      [
        "ил",
        -8.439126262306331
      ],
      [
        "ш",
        -8.450940656819801
      ],
      [
        "|\n|",
        -8.451226654488613
      ],
      [
        "▁said",
        -8.451470455887664
      ],
      [
        "▁между",
        -8.45176868284739
      ],
      [
        "▁R",
        -8.458197333485108
      ],
      [
        "▁вас",
        -8.458716622145896
      ],
      [
        "▁For",
        -8.45992778819503
      ],
      [
        "▁want",
        -8.459951444601897
      ],
      [
        "u",
        -8.460335751096869
      ],
      [
        "ние",
        -8.463325798954713
      ],
      [
        "▁всего",
        -8.476179112873375
      ],
      [
        "▁part",
        -8.476662644615928
      ],
      [
        "w",
        -8.477180902577834
      ],
      [
        "▁один",
        -8.478636928279975
      ],
      [
        "▁просто",
        -8.479538720743486
      ],
      [
        "▁system",
        -8.480144085977944
      ],
      [
        "▁[",
        -8.480589799352167
      ],
      [
        "▁этой",
        -8.480773388586824
      ],
      [
        "▁несколько",
        -8.481372664742615
      ],
      [
        "▁number",
        -8.483807163818902
      ],
      [
        "▁before",
        -8.487973646822997
      ],
      [
        "▁О",
        -8.488110328829784
      ],
      [
        "▁нужно",
        -8.491021599866816
      ],
      [
        "▁через",
        -8.496139304080213
      ],
      [
        "▁right",
        -8.496897395824474
      ],
      [
        "з",
        -8.498792754124196
      ],
      [
        "▁place",
        -8.500430530650299
      ],
      [
        "▁этот",
        -8.50508368570353
      ],
      [
        "▁них",
        -8.50658077187614
      ],
      [
        "ность",
        -8.507583066876816
      ],
      [
        ",”",
        -8.512202887886529
      ],
      [
        "est",
        -8.513981359149561
      ],
      [
        "▁которая",
        -8.515165768521017
      ],
      [
        "▁We",
        -8.516807952325276
      ],
      [
        "▁much",
        -8.517347220631283
      ],
      [
        "▁При",
        -8.519119620079506
      ],
      [
        "▁using",
        -8.520671410864546
      ],
      [
        "▁M",
        -8.524763196195623
      ],
      [
        "▁another",
        -8.525370419553687
      ],
      [
        "ry",
        -8.526896179776854
      ],
      [
        "▁find",
        -8.53147829623165
      ],
      [
        "▁ни",
        -8.533209453731603
      ],
      [
        "z",
        -8.533873359474224
      ],
      [
        "ения",
        -8.535300465620248
      ],
      [
        "ж",
        -8.537957194920597
      ],
      [
        "▁/",
        -8.54462128706761
      ],
      [
        "▁those",
        -8.54637368959062
      ],
      [
        "▁important",
        -8.549049923633932
      ],
      [
        "▁мне",
        -8.552382346295918
      ],
      [
        "(",
        -8.55329995833752
      ],
      [
        "▁можете",
        -8.553359566330712
      ],
      [
        "ин",
        -8.553712685753808
      ],
      [
        "ский",
        -8.554468926036073
      ],
      [
        "».",
        -8.556229023198762
      ],
      [
        "▁water",
        -8.556254010236431
      ],
      [
        "▁information",
        -8.56298519235672
      ],
      [
        "б",
        -8.567637883230692
      ],
      [
        "ни",
        -8.567965504534996
      ],
      [
        "▁already",
        -8.573591261470435
      ],
      [
        "▁against",
        -8.574162717244963
      ],
      [
        "▁T",
        -8.57511686970438
      ],
      [
        "ности",
        -8.577558747346467
      ],
      [
        "▁всех",
        -8.577978970185946
      ],
      [
        "ских",
        -8.578810027188494
      ],
      [
        "3",
        -8.579047087301664
      ],
      [
        "му",
        -8.58153227909008
      ],
      [
        "▁To",
        -8.58153934541866
      ],
      [
        "или",
        -8.582561244083056
      ],
      [
        "▁Как",
        -8.58290663319385
      ],
      [
        "▁world",
        -8.58446573603662
      ],
      [
        "▁state",
        -8.586168475992416
      ],
      [
        "▁много",
        -8.586443637334144
      ],
      [
        "ым",
        -8.58768779127786
      ],
      [
        "▁made",
        -8.589312235997332
      ],
      [
        "\",",
        -8.595707849309422
      ],
      [
        "il",
        -8.596059032073201
      ],
      [
        "▁now",
        -8.59841299128752
      ],
      [
        "▁three",
        -8.604977653792336
      ],
      [
        "ке",
        -8.60773347209798
      ],
      [
        "ist",
        -8.614348106451118
      ],
      [
        "▁рас",
        -8.614452833794983
      ],
      [
        "е.",
        -8.615964929223283
      ],
      [
        "le",
        -8.619792675947474
      ],
      [
        "▁эти",
        -8.621345364139577
      ],
      [
        "?\n-",
        -8.622391639904196
      ],
      [
        "▁За",
        -8.627667608030098
      ],
      [
        "▁good",
        -8.629631664677866
      ],
      [
        "▁K",
        -8.630542527126426
      ],
      [
        "▁several",
        -8.630848437315354
      ],
      [
        "ти",
        -8.632484314758385
      ],
      [
        "\nThe",
        -8.633343277567594
      ],
      [
        "▁ему",
        -8.633638314072812
      ],
      [
        "у,",
        -8.638264720096833
      ],
      [
        "ния",
        -8.64229930648356
      ],
      [
        "st",
        -8.64389215746313
      ],
      [
        "▁us",
        -8.645337519173971
      ],
      [
        "▁long",
        -8.645890672194712
      ],
      [
        "▁still",
        -8.646313964726808
      ],
      [
        "▁often",
        -8.648607730262357
      ],
      [
        "▁different",
        -8.655173422579319
      ],
      [
        "сти",
        -8.657571683587172
      ],
      [
        "▁own",
        -8.659758940064792
      ],
      [
        "▁go",
        -8.660071348730987
      ],
      [
        "▁way",
        -8.662003779768165
      ],
      [
        "ом,",
        -8.662943957460982
      ],
      [
        "▁end",
        -8.66627885584336
      ],
      [
        "▁N",
        -8.668280427721074
      ],
      [
        "▁here",
        -8.669030826953756
      ],
      [
        "▁day",
        -8.670896349462735
      ],
      [
        "▁large",
        -8.67170946469173
      ],
      [
        "от",
        -8.673809878162011
      ],
      [
        "▁20",
        -8.674840987789157
      ],
      [
        "to",
        -8.675294699754286
      ],
      [
        "▁case",
        -8.67554741298454
      ],
      [
        "▁both",
        -8.676210737821947
      ],
      [
        "▁6",
        -8.678220385238658
      ],
      [
        "4",
        -8.678228827111266
      ],
      [
        "▁г.",
        -8.679275941353776
      ],
      [
        "▁don't",
        -8.683083016245446
      ],
      [
        "▁должны",
        -8.68562122060155
      ],
      [
        "They",
        -8.685822406592823
      ],
      [
        "▁everything",
        -8.689442375067054
      ],
      [
        "▁других",
        -8.691995672070123
      ],
      [
        "те",
        -8.699047500125305
      ],
      [
        "▁15",
        -8.701864225520662
      ],
      [
        "▁small",
        -8.70345508066699
      ],
      [
        "▁second",
        -8.708253435039266
      ],
      [
        "▁down",
        -8.710259597624722
      ],
      [
        "▁back",
        -8.711505192844253
      ],
      [
        "ля",
        -8.711617820759226
      ],
      [
        "▁своей",
        -8.71171772646089
      ],
      [
        "▁form",
        -8.71183219529817
      ],
      [
        "▁became",
        -8.712835263110891
      ],
      [
        "n't",
        -8.719000172830214
      ],
      [
        "▁перед",
        -8.719673459389384
      ],
      [
        "ль",
        -8.721251105167838
      ],
      [
        ".”",
        -8.722896163655081
      ],
      [
        "▁17",
        -8.723545801559938
      ],
      [
        "ны",
        -8.723918537852597
      ],
      [
        "▁name",
        -8.724368653294242
      ],
      [
        "▁example,",
        -8.726410991295735
      ],
      [
        "▁body",
        -8.73379170468961
      ],
      [
        "▁due",
        -8.737615715296739
      ],
      [
        "However,",
        -8.739177681054922
      ],
      [
        "▁something",
        -8.742921733739689
      ],
      [
        "S",
        -8.743581121070696
      ],
      [
        "ер",
        -8.745595860229777
      ],
      [
        "▁development",
        -8.74813237597203
      ],
      [
        "да",
        -8.74871886416112
      ],
      [
        "▁called",
        -8.748782481742179
      ],
      [
        ".\n—",
        -8.751185529179823
      ],
      [
        "na",
        -8.75315954176963
      ],
      [
        "5",
        -8.756671291122885
      ],
      [
        "▁7",
        -8.762066485589658
      ],
      [
        "вер",
        -8.762505855213943
      ],
      [
        "▁свою",
        -8.76252308198261
      ],
      [
        "▁result",
        -8.763174672194355
      ],
      [
        "▁At",
        -8.763570181282587
      ],
      [
        "▁него",
        -8.764231171055778
      ],
      [
        "▁high",
        -8.764955705154689
      ],
      [
        "▁while",
        -8.765303535067572
      ],
      [
        "▁As",
        -8.76585219567995
      ],
      [
        "as",
        -8.766945312368145
      ],
      [
        "▁которых",
        -8.772098451965059
      ],
      [
        ".\nС",
        -8.773712179544512
      ],
      [
        "▁last",
        -8.774037921948402
      ],
      [
        "0",
        -8.775934686687233
      ],
      [
        "B",
        -8.776064548135176
      ],
      [
        "▁нет",
        -8.776705542389639
      ],
      [
        "ity",
        -8.776894596605242
      ],
      [
        "▁г",
        -8.777034895167299
      ],
      [
        "▁случае",
        -8.77979602606856
      ],
      [
        "▁began",
        -8.77989517064247
      ],
      [
        "▁head",
        -8.784618160601019
      ],
      [
        "▁time,",
        -8.788819515990072
      ],
      [
        "▁fact",
        -8.790312512225373
      ],
      [
        "▁am",
        -8.790769712069356
      ],
      [
        "et",
        -8.791503340109811
      ],
      [
        "▁necessary",
        -8.79659418131532
      ],
      [
        "▁around",
        -8.796606254017346
      ],
      [
        "▁имеет",
        -8.796860930132928
      ],
      [
        "ate",
        -8.798282315783348
      ],
      [
        "ите",
        -8.799360773873362
      ],
      [
        "ro",
        -8.800577289366878
      ],
      [
        "▁man",
        -8.80200596982743
      ],
      [
        "▁нас",
        -8.802388054440454
      ],
      [
        "▁What",
        -8.805190985644018
      ],
      [
        "▁year",
        -8.805314829266132
      ],
      [
        "▁W",
        -8.805607773475796
      ],
      [
        "ал",
        -8.8059133983772
      ],
      [
        "▁Б",
        -8.806871381946971
      ],
      [
        "ne",
        -8.808453562498483
      ],
      [
        "ков",
        -8.809303292883879
      ],
      [
        "▁ты",
        -8.812963173002611
      ],
      [
        "um",
        -8.817769734524006
      ],
      [
        "▁think",
        -8.820312407390714
      ],
      [
        "ко",
        -8.821890721668147
      ],
      [
        "▁V",
        -8.822589860803413
      ],
      [
        "▁found",
        -8.824861080075461
      ],
      [
        "8",
        -8.829954991000726
      ],
      [
        "▁сделать",
        -8.831009883511282
      ],
      [
        "ские",
        -8.831167273147257
      ],
      [
        "▁become",
        -8.833520767336703
      ],
      [
        "\nВ",
        -8.837261268166031
      ],
      [
        "el",
        -8.838265275506057
      ],
      [
        "▁possible",
        -8.840018548733966
      ],
      [
        "▁кто",
        -8.84076066265192
      ],
      [
        "▁12",
        -8.842342511369749
      ],
      [
        "▁city",
        -8.843755658016823
      ],
      [
        "▁power",
        -8.846572821139857
      ],
      [
        "ами,",
        -8.84686769781665
      ],
      [
        "▁L",
        -8.846949081035824
      ],
      [
        "ness",
        -8.847337119337787
      ],
      [
        "▁8",
        -8.847431032707005
      ],
      [
        "se",
        -8.847505606106042
      ],
      [
        "▁16",
        -8.851529861688727
      ],
      [
        "▁США",
        -8.851664234790796
      ],
      [
        "▁использовать",
        -8.853667069895792
      ],
      [
        "▁над",
        -8.853709398777209
      ],
      [
        "▁order",
        -8.853904601606265
      ],
      [
        "▁m",
        -8.854959489927072
      ],
      [
        "A",
        -8.857613682828347
      ],
      [
        "▁свои",
        -8.859787578867113
      ],
      [
        "▁since",
        -8.860422137313313
      ],
      [
        "te",
        -8.863209691187217
      ],
      [
        "за",
        -8.864883845403654
      ],
      [
        "▁себе",
        -8.865915147557896
      ],
      [
        "ance",
        -8.866564012101879
      ],
      [
        "▁according",
        -8.868027012343234
      ],
      [
        "▁Re",
        -8.872712361414727
      ],
      [
        "▁There",
        -8.87352023372794
      ],
      [
        "ter",
        -8.874724596848143
      ],
      [
        "ан",
        -8.885887234485626
      ],
      [
        "▁потому",
        -8.887018494596846
      ],
      [
        "ch",
        -8.887716981086912
      ],
      [
        "▁left",
        -8.887977989385359
      ],
      [
        "▁must",
        -8.890222571374352
      ],
      [
        "▁data",
        -8.892664768233264
      ],
      [
        "ы.",
        -8.895544641694368
      ],
      [
        "man",
        -8.897395343280644
      ],
      [
        "ine",
        -8.901189866045936
      ],
      [
        "de",
        -8.901756348708544
      ],
      [
        "▁always",
        -8.903019079574078
      ],
      [
        "ов.",
        -8.908434160782095
      ],
      [
        "▁various",
        -8.91217738545286
      ],
      [
        "га",
        -8.912906517563302
      ],
      [
        "▁O",
        -8.916106908201398
      ],
      [
        "▁group",
        -8.916545369844052
      ],
      [
        "йте",
        -8.916834267347893
      ],
      [
        "ор",
        -8.917697499343442
      ],
      [
        "▁день",
        -8.917812853197777
      ],
      [
        "ary",
        -8.918123848555366
      ],
      [
        "по",
        -8.922139926450344
      ],
      [
        "▁жизни",
        -8.92250023235186
      ],
      [
        "\".",
        -8.926229282567787
      ],
      [
        ".\nA",
        -8.928425906440092
      ],
      [
        "В",
        -8.92842711735718
      ],
      [
        "▁old",
        -8.929472527949423
      ],
      [
        "ри",
        -8.930614233138305
      ],
      [
        "ka",
        -8.930964142090593
      ],
      [
        "▁best",
        -8.931026902966323
      ],
      [
        "▁человек",
        -8.931177684710763
      ],
      [
        "▁этих",
        -8.932323580935979
      ],
      [
        "ат",
        -8.935306867587798
      ],
      [
        "▁Г",
        -8.936007581220435
      ],
      [
        "▁против",
        -8.936112206046138
      ],
      [
        "6",
        -8.937414839408596
      ],
      [
        "▁М",
        -8.937416165818156
      ],
      [
        "ment",
        -8.941307447583686
      ],
      [
        "▁другие",
        -8.942582288081693
      ],
      [
        "ian",
        -8.943299925683913
      ],
      [
        "ant",
        -8.94421214325692
      ],
      [
        "▁П",
        -8.94481644103104
      ],
      [
        "ism",
        -8.950578273566189
      ],
      [
        "▁два",
        -8.95071025867755
      ],
      [
        "ская",
        -8.952652225108938
      ],
      [
        "▁great",
        -8.953252402474956
      ],
      [
        "▁которой",
        -8.953650787641914
      ],
      [
        "▁всегда",
        -8.95484628922214
      ],
      [
        "▁course",
        -8.954919368222539
      ],
      [
        "лось",
        -8.956542089889629
      ],
      [
        "▁being",
        -8.958421965533555
      ],
      [
        "Для",
        -8.960781341204079
      ],
      [
        "▁point",
        -8.961246514285996
      ],
      [
        "▁де",
        -8.965528423451781
      ],
      [
        "7",
        -8.965664867539964
      ],
      [
        "▁своих",
        -8.966195988094933
      ],
      [
        "▁words",
        -8.96915246372149
      ],
      [
        "▁country",
        -8.970364432023779
      ],
      [
        "▁understand",
        -8.972631588500272
      ],
      [
        "▁Т",
        -8.97382082149502
      ],
      [
        "▁children",
        -8.975795346578584
      ],
      [
        "▁30",
        -8.988165144463055
      ],
      [
        "▁until",
        -8.989911130366123
      ],
      [
        "▁ваш",
        -8.989965863058153
      ],
      [
        "то",
        -8.991210951923426
      ],
      [
        "кой",
        -8.991817000832869
      ],
      [
        "▁часто",
        -8.99204310401761
      ],
      [
        "▁process",
        -8.993369642672935
      ],
      [
        "ному",
        -8.993381766890902
      ],
      [
        "▁De",
        -8.996339399938314
      ],
      [
        "▁following",
        -8.998265181287557
      ],
      [
        "▁Они",
        -8.99877167941521
      ],
      [
        "▁Russia",
        -8.999026606329661
      ],
      [
        "▁работы",
        -8.999179501536117
      ],
      [
        "▁необходимо",
        -9.001108188452541
      ],
      [
        "▁create",
        -9.00188939308954
      ],
      [
        "из",
        -9.003340863857913
      ],
      [
        "ф",
        -9.003727824214167
      ],
      [
        "▁времени",
        -9.0049161565612
      ],
      [
        "▁word",
        -9.005141602948353
      ],
      [
        "▁должен",
        -9.005680335495908
      ],
      [
        "ст",
        -9.007796077213966
      ],
      [
        "▁hand",
        -9.008128273627978
      ],
      [
        "▁будут",
        -9.008935053550914
      ],
      [
        "▁H",
        -9.010213460980625
      ],
      [
        "▁level",
        -9.010260128445823
      ],
      [
        "▁After",
        -9.010885250290595
      ],
      [
        "co",
        -9.010968722842808
      ],
      [
        "▁off",
        -9.010984125489449
      ],
      [
        "▁say",
        -9.012170515307464
      ],
      [
        "▁помощью",
        -9.01328740398026
      ],
      [
        "тер",
        -9.015263437017872
      ],
      [
        "▁Однако",
        -9.016021589463872
      ],
      [
        "!\n",
        -9.017718664009802
      ],
      [
        "ать",
        -9.018698711523395
      ],
      [
        "▁три",
        -9.019936573468812
      ],
      [
        "овой",
        -9.02213925407738
      ],
      [
        "▁b",
        -9.022606071514204
      ],
      [
        "▁лучше",
        -9.02926785541822
      ],
      [
        "took",
        -9.030291331188211
      ],
      [
        "▁люди",
        -9.030549188860723
      ],
      [
        "ист",
        -9.033461207696613
      ],
      [
        "ра",
        -9.03581570673003
      ],
      [
        "▁им",
        -9.036607044014728
      ],
      [
        "▁special",
        -9.04009761025534
      ],
      [
        "▁On",
        -9.0432776917568
      ],
      [
        "▁часть",
        -9.04367481785504
      ],
      [
        "ur",
        -9.04474729129131
      ],
      [
        "D",
        -9.045711685558866
      ],
      [
        "among",
        -9.045950121366142
      ],
      [
        "▁сказал",
        -9.046110823418823
      ],
      [
        "▁=",
        -9.047305992932488
      ],
      [
        "чи",
        -9.049049683248697
      ],
      [
        ")\n",
        -9.049245637350078
      ],
      [
        "▁She",
        -9.051044774594336
      ],
      [
        "ар",
        -9.0511993477977
      ],
      [
        "▁within",
        -9.0527674411504
      ],
      [
        "ят",
        -9.053624415872996
      ],
      [
        "▁которое",
        -9.054503390262902
      ],
      [
        "ты",
        -9.05485279943682
      ],
      [
        "ство",
        -9.060371034916225
      ],
      [
        "▁9",
        -9.060426571915576
      ],
      [
        "мер",
        -9.06237213996008
      ],
      [
        "овых",
        -9.063851497690772
      ],
      [
        "’",
        -9.06403673604122
      ],
      [
        "W",
        -9.064435016396985
      ],
      [
        "▁better",
        -9.065107715848963
      ],
      [
        "▁car",
        -9.067148188414738
      ],
      [
        "▁те",
        -9.067259802765449
      ],
      [
        "▁свой",
        -9.069854416670175
      ],
      [
        "▁|",
        -9.070275512001713
      ],
      [
        "▁своего",
        -9.07397907472362
      ],
      [
        "no",
        -9.075340760198488
      ],
      [
        "▁здесь",
        -9.075583706308285
      ],
      [
        "▁двух",
        -9.075839576741563
      ],
      [
        "ком",
        -9.075947627896689
      ],
      [
        "▁team",
        -9.076580622819474
      ],
      [
        "▁himself",
        -9.076740621045795
      ],
      [
        "▁поэтому",
        -9.077692473371377
      ],
      [
        "▁течение",
        -9.078293498646346
      ],
      [
        "ник",
        -9.078600939387162
      ],
      [
        "go",
        -9.079598055421638
      ],
      [
        "▁blood",
        -9.082422151735711
      ],
      [
        "С",
        -9.082982691373706
      ],
      [
        "▁look",
        -9.086825654741416
      ],
      [
        "▁So",
        -9.088360741878624
      ],
      [
        "id",
        -9.08956357349223
      ],
      [
        "▁based",
        -9.089841514595538
      ],
      [
        "▁How",
        -9.090202681101488
      ],
      [
        "▁лишь",
        -9.090765199016753
      ],
      [
        "ту",
        -9.092499872648869
      ],
      [
        "▁14",
        -9.093367247339634
      ],
      [
        "▁место",
        -9.094454676599003
      ],
      [
        "ir",
        -9.094518183002435
      ],
      [
        "оз",
        -9.095587816624622
      ],
      [
        "▁too",
        -9.097160113134494
      ],
      [
        "ra",
        -9.097399267925187
      ],
      [
        "▁пока",
        -9.09875558811007
      ],
      [
        "▁там",
        -9.09890080697958
      ],
      [
        "▁Д",
        -9.10024209697763
      ],
      [
        "ди",
        -9.100332104773203
      ],
      [
        "▁child",
        -9.10283102019779
      ],
      [
        "%",
        -9.103034123842043
      ],
      [
        "▁собой",
        -9.105819135531014
      ],
      [
        "I",
        -9.1058596509674
      ],
      [
        "▁American",
        -9.10589388869853
      ],
      [
        "ri",
        -9.105911748854538
      ],
      [
        "▁side",
        -9.106699703419288
      ],
      [
        "▁start",
        -9.107578463821849
      ],
      [
        "j",
        -9.108718983921896
      ],
      [
        "▁love",
        -9.108816672528274
      ],
      [
        "▁затем",
        -9.108958207536409
      ],
      [
        "▁general",
        -9.110252150531986
      ],
      [
        "ц",
        -9.11222351926349
      ],
      [
        "–",
        -9.112266639438388
      ],
      [
        "ду",
        -9.115705474108358
      ],
      [
        "ющие",
        -9.115760161059567
      ],
      [
        "and",
        -9.11644640963371
      ],
      [
        "ad",
        -9.116899227934171
      ],
      [
        "▁людей",
        -9.118112195619478
      ],
      [
        "ol",
        -9.11839780918365
      ],
      [
        "T",
        -9.118514305643307
      ],
      [
        "ировать",
        -9.118925866026371
      ],
      [
        "▁home",
        -9.119051616517735
      ],
      [
        "▁тех",
        -9.121064064780702
      ],
      [
        "ом.",
        -9.12168526354416
      ],
      [
        "▁social",
        -9.122178434290296
      ],
      [
        "▁light",
        -9.122190004554568
      ],
      [
        "▁из-за",
        -9.123081984529868
      ],
      [
        ".\nПо",
        -9.123583101966467
      ],
      [
        "▁части",
        -9.12506295567567
      ],
      [
        "▁ре",
        -9.12721270118048
      ],
      [
        "C",
        -9.127299922147593
      ],
      [
        "▁again",
        -9.127835597804916
      ],
      [
        "▁later",
        -9.12789979138848
      ],
      [
        "▁When",
        -9.128536692832098
      ],
      [
        "▁turn",
        -9.129076452158968
      ],
      [
        "▁including",
        -9.130631120555492
      ],
      [
        "▁support",
        -9.130779917888177
      ],
      [
        "ty",
        -9.13087800654262
      ],
      [
        "▁considered",
        -9.131339586913526
      ],
      [
        "li",
        -9.13234578311672
      ],
      [
        "▁give",
        -9.134079505773748
      ],
      [
        "▁war",
        -9.1347888498501
      ],
      [
        "ле",
        -9.135245114632704
      ],
      [
        "▁received",
        -9.135326536486112
      ],
      [
        "▁стал",
        -9.137955451658398
      ],
      [
        "▁пор",
        -9.140916196839934
      ],
      [
        "ut",
        -9.141042637962434
      ],
      [
        "▁Про",
        -9.142664049772431
      ],
      [
        "▁why",
        -9.14436231143857
      ],
      [
        "ent",
        -9.146297028615932
      ],
      [
        "у.",
        -9.146755077487375
      ],
      [
        "K",
        -9.14749364287881
      ],
      [
        "вы",
        -9.14783703743698
      ],
      [
        "▁certain",
        -9.149722726796506
      ],
      [
        "ча",
        -9.151146003597484
      ],
      [
        "ец",
        -9.15150701297015
      ],
      [
        "▁Ф",
        -9.151589849471092
      ],
      [
        "▁book",
        -9.153231613504538
      ],
      [
        "▁known",
        -9.154818723009162
      ],
      [
        "▁Так",
        -9.154981558868434
      ],
      [
        "ce",
        -9.155010311492996
      ],
      [
        "\n|",
        -9.156636480430397
      ],
      [
        "▁means",
        -9.1570340221428
      ],
      [
        "▁English",
        -9.157466244202029
      ],
      [
        "▁её",
        -9.15770006863543
      ],
      [
        "▁per",
        -9.15894033189426
      ],
      [
        "▁put",
        -9.158976877694458
      ],
      [
        "ман",
        -9.161427385124885
      ],
      [
        "ут",
        -9.161947847523178
      ],
      [
        "▁free",
        -9.162231277817446
      ],
      [
        "▁located",
        -9.162548626402932
      ],
      [
        "▁company",
        -9.162608011787254
      ],
      [
        "▁одной",
        -9.162662576737205
      ],
      [
        "▁next",
        -9.163754386659376
      ],
      [
        "▁film",
        -9.164458207798306
      ],
      [
        "▁family",
        -9.16454668670668
      ],
      [
        "▁come",
        -9.164819808952387
      ],
      [
        "▁такие",
        -9.165396684916162
      ],
      [
        "▁New",
        -9.169174680067858
      ],
      [
        "ги",
        -9.169843870776344
      ],
      [
        "un",
        -9.17026967284034
      ],
      [
        "▁came",
        -9.171315917324026
      ],
      [
        "▁пол",
        -9.172841222957766
      ],
      [
        "age",
        -9.17631153805464
      ],
      [
        "▁set",
        -9.180184126632255
      ],
      [
        "▁11",
        -9.181670296617373
      ],
      [
        "ыми",
        -9.182072706657715
      ],
      [
        ".\nI",
        -9.182461956931933
      ],
      [
        "▁addition",
        -9.183777739265516
      ],
      [
        "ies",
        -9.184580189081167
      ],
      [
        "▁position",
        -9.185081294707024
      ],
      [
        "▁open",
        -9.18535215616054
      ],
      [
        "▁An",
        -9.185641655724146
      ],
      [
        "овые",
        -9.188040014999547
      ],
      [
        "▁problem",
        -9.188663226830831
      ],
      [
        "▁качестве",
        -9.1888741486599
      ],
      [
        "turned",
        -9.189816231858094
      ],
      [
        "▁control",
        -9.191616674423436
      ],
      [
        "▁Windows",
        -9.192237457269249
      ],
      [
        "▁military",
        -9.192560484770237
      ],
      [
        "▁сам",
        -9.193024679553504
      ],
      [
        "▁вопрос",
        -9.194777632301308
      ],
      [
        "лен",
        -9.197174790181586
      ],
      [
        "▁change",
        -9.198089719759183
      ],
      [
        "▁стороны",
        -9.198138798177316
      ],
      [
        "▁question",
        -9.200105193277476
      ],
      [
        "▁именно",
        -9.201117970206232
      ],
      [
        "ov",
        -9.202180470271196
      ],
      [
        "▁almost",
        -9.202351705309166
      ],
      [
        "▁history",
        -9.202729818166109
      ],
      [
        "▁13",
        -9.202900738543391
      ],
      [
        "▁прав",
        -9.203012143119787
      ],
      [
        "▁п",
        -9.208605407473446
      ],
      [
        "▁War",
        -9.208743729920764
      ],
      [
        "▁towards",
        -9.210401298025342
      ],
      [
        "▁along",
        -9.213417098773746
      ],
      [
        "▁менее",
        -9.215067410573129
      ],
      [
        "▁program",
        -9.215822586391328
      ],
      [
        "▁Да",
        -9.216447464901652
      ],
      [
        "▁Она",
        -9.21776195882932
      ],
      [
        "▁Мы",
        -9.218266552759763
      ],
      [
        "=",
        -9.218471431445629
      ],
      [
        "▁game",
        -9.218784675325283
      ],
      [
        "▁слова",
        -9.21912468686387
      ],
      [
        ".\"",
        -9.21955747673734
      ],
      [
        "▁area",
        -9.221146256619038
      ],
      [
        "▁type",
        -9.22209827512072
      ],
      [
        "ца",
        -9.22291951453451
      ],
      [
        "▁такой",
        -9.224377875584135
      ],
      [
        "ском",
        -9.224856870347764
      ],
      [
        "ус",
        -9.225218544333757
      ],
      [
        ").\n",
        -9.226655734722744
      ],
      [
        "▁near",
        -9.228881819121025
      ],
      [
        "ому",
        -9.229256769874452
      ],
      [
        "▁следует",
        -9.229646668554969
      ],
      [
        "до",
        -9.230070981154524
      ],
      [
        "▁completely",
        -9.230776647003694
      ],
      [
        "▁мир",
        -9.231185161276487
      ],
      [
        "▁less",
        -9.231286350358255
      ],
      [
        "▁другой",
        -9.23351822192758
      ],
      [
        "▁момент",
        -9.233744589649826
      ],
      [
        "▁real",
        -9.23413703862499
      ],
      [
        "G",
        -9.234970453123877
      ],
      [
        "ющих",
        -9.235782815451152
      ],
      [
        "ization",
        -9.23876813917972
      ],
      [
        "▁difficult",
        -9.239522834545811
      ],
      [
        "X",
        -9.239856611965497
      ],
      [
        ".\nНа",
        -9.240741916071707
      ],
      [
        "▁человека",
        -9.241800560024547
      ],
      [
        "▁days",
        -9.241871864611864
      ],
      [
        "▁таких",
        -9.242070832172985
      ],
      [
        "▁хорошо",
        -9.242246045149964
      ],
      [
        "▁1.",
        -9.242476281607075
      ],
      [
        "▁Х",
        -9.243074816983317
      ],
      [
        "▁тот",
        -9.243301421962922
      ],
      [
        "▁быстро",
        -9.243546338973282
      ],
      [
        "ится",
        -9.243606097947067
      ],
      [
        "di",
        -9.243686898306471
      ],
      [
        "am",
        -9.243758985370082
      ],
      [
        "▁human",
        -9.244489987987231
      ],
      [
        "▁problems",
        -9.245920361415957
      ],
      [
        "во",
        -9.24624431768295
      ],
      [
        "▁являются",
        -9.2466586425964
      ],
      [
        ".\n–",
        -9.247489283064604
      ],
      [
        "ах,",
        -9.248373182150178
      ],
      [
        "▁пред",
        -9.248491748926485
      ],
      [
        "ma",
        -9.248851940779838
      ],
      [
        "ton",
        -9.251103304441989
      ],
      [
        "ете",
        -9.25377623933331
      ],
      [
        "ба",
        -9.253899329854036
      ],
      [
        "▁period",
        -9.253991554121916
      ],
      [
        "▁всё",
        -9.256277124000656
      ],
      [
        "▁never",
        -9.25680826921257
      ],
      [
        "▁La",
        -9.256938796054586
      ],
      [
        "▁created",
        -9.258260337482822
      ],
      [
        "▁год",
        -9.258624749342289
      ],
      [
        "▁этим",
        -9.259385168023154
      ],
      [
        "ul",
        -9.260370376685168
      ],
      [
        "об",
        -9.261540316752034
      ],
      [
        "▁того",
        -9.2635616742821
      ],
      [
        "▁quite",
        -9.264635026010824
      ],
      [
        "ve",
        -9.266427609086664
      ],
      [
        "F",
        -9.26933559294755
      ],
      [
        "▁simply",
        -9.270436243514128
      ],
      [
        "▁которого",
        -9.274133524323908
      ],
      [
        "00",
        -9.275594948829308
      ],
      [
        "нии",
        -9.277886289729093
      ],
      [
        "▁times",
        -9.279485246103064
      ],
      [
        "▁little",
        -9.280843154628606
      ],
      [
        "▁working",
        -9.282006379507406
      ],
      [
        "ni",
        -9.28204852879458
      ],
      [
        "▁cannot",
        -9.282198077288896
      ],
      [
        "▁системы",
        -9.282448921552511
      ],
      [
        "▁common",
        -9.282559590739792
      ],
      [
        "▁away",
        -9.28418370538654
      ],
      [
        "▁нам",
        -9.284386934707657
      ],
      [
        "▁everyone",
        -9.284746601889053
      ],
      [
        "Н",
        -9.284995870001772
      ],
      [
        "▁хотя",
        -9.285232813785951
      ],
      [
        "и.",
        -9.285252685581463
      ],
      [
        "▁обычно",
        -9.28592810984336
      ],
      [
        "ясь",
        -9.286474519255234
      ],
      [
        "▁тогда",
        -9.287200912145329
      ],
      [
        "▁experience",
        -9.28735473674641
      ],
      [
        "▁air",
        -9.287538652031884
      ],
      [
        "▁вместе",
        -9.288304272521284
      ],
      [
        "▁every",
        -9.289917085432547
      ],
      [
        "э",
        -9.290025561072811
      ],
      [
        "▁All",
        -9.290839072304786
      ],
      [
        "▁Все",
        -9.291387727354072
      ],
      [
        "▁100",
        -9.292460749764691
      ],
      [
        "▁эту",
        -9.29428632919321
      ],
      [
        "▁Когда",
        -9.29452391956076
      ],
      [
        "▁went",
        -9.294891994547331
      ],
      [
        "▁U",
        -9.295742176524916
      ],
      [
        "ha",
        -9.296014880583272
      ],
      [
        "▁возможно",
        -9.296558631245784
      ],
      [
        "▁После",
        -9.298281737723515
      ],
      [
        "ро",
        -9.298983071882851
      ],
      [
        "▁situation",
        -9.30087620826692
      ],
      [
        "N",
        -9.301109696343168
      ],
      [
        "▁government",
        -9.302255049486256
      ],
      [
        "цы",
        -9.302335702447104
      ],
      [
        "▁food",
        -9.302342235775614
      ],
      [
        "▁России",
        -9.302767534932403
      ],
      [
        "ос",
        -9.302802095903344
      ],
      [
        "▁Soviet",
        -9.303061757447248
      ],
      [
        "▁specific",
        -9.304943313961244
      ],
      [
        "▁количество",
        -9.30576213807256
      ],
      [
        "де",
        -9.307876333408608
      ],
      [
        "▁attention",
        -9.309405668206812
      ],
      [
        "▁century",
        -9.309432426721578
      ],
      [
        "▁least",
        -9.309433587663884
      ],
      [
        "▁некоторые",
        -9.309485508171948
      ],
      [
        "▁кон",
        -9.309553025257593
      ],
      [
        "▁read",
        -9.30974911195736
      ],
      [
        "▁достаточно",
        -9.310135075919394
      ],
      [
        "▁cases",
        -9.311251911219443
      ],
      [
        "H",
        -9.31216664128038
      ],
      [
        "▁Что",
        -9.31280203647942
      ],
      [
        "pe",
        -9.314056777802628
      ],
      [
        "▁things",
        -9.314141767594618
      ],
      [
        "▁+",
        -9.31456268338533
      ],
      [
        "ak",
        -9.31700138747681
      ],
      [
        ";\n",
        -9.31722904746108
      ],
      [
        "▁данных",
        -9.3181293005158
      ],
      [
        "▁countries",
        -9.318216985608478
      ],
      [
        "▁itself",
        -9.31854851574723
      ],
      [
        "Y",
        -9.318589117397648
      ],
      [
        "+",
        -9.318599194962491
      ],
      [
        "ре",
        -9.319218152459763
      ],
      [
        "▁около",
        -9.31975046723069
      ],
      [
        "его",
        -9.320217790052988
      ],
      [
        "▁con",
        -9.320439584818685
      ],
      [
        "ации",
        -9.321310336600686
      ],
      [
        "▁few",
        -9.321522791041357
      ],
      [
        "▁try",
        -9.321564375251915
      ],
      [
        "ous",
        -9.321974312923093
      ],
      [
        "▁tell",
        -9.32210225459219
      ],
      [
        "▁период",
        -9.323676652830756
      ],
      [
        "▁language",
        -9.32424242691708
      ],
      [
        "▁play",
        -9.324329331371072
      ],
      [
        "▁J",
        -9.32573596935553
      ],
      [
        "пер",
        -9.326188942936795
      ],
      [
        "▁house",
        -9.326785317615684
      ],
      [
        "▁ко",
        -9.32724254697969
      ],
      [
        "▁Then",
        -9.32836682768072
      ],
      [
        "▁role",
        -9.329258428379145
      ],
      [
        "▁От",
        -9.330661735414235
      ],
      [
        "less",
        -9.331285274500434
      ],
      [
        "▁business",
        -9.331440631573448
      ],
      [
        "▁области",
        -9.331870330547138
      ],
      [
        "P",
        -9.331976689276404
      ],
      [
        "[",
        -9.33240152301844
      ],
      [
        "▁Л",
        -9.33268736081211
      ],
      [
        "\nС",
        -9.332802270012502
      ],
      [
        "▁yourself",
        -9.333972782244423
      ],
      [
        "би",
        -9.334647338714014
      ],
      [
        "▁works",
        -9.33509918798535
      ],
      [
        "per",
        -9.336101831835991
      ],
      [
        "\nIn",
        -9.337089077069294
      ],
      [
        "30",
        -9.33831039459157
      ],
      [
        "▁young",
        -9.339018495660325
      ],
      [
        "▁death",
        -9.339198656010549
      ],
      [
        "▁получить",
        -9.34110460583375
      ],
      [
        "▁money",
        -9.34111062857323
      ],
      [
        "М",
        -9.341450946562675
      ],
      [
        "▁Do",
        -9.341687613202328
      ],
      [
        "▁simple",
        -9.344087804405929
      ],
      [
        "ических",
        -9.344792062924329
      ],
      [
        "n’t",
        -9.34503412158099
      ],
      [
        "▁service",
        -9.345318406698052
      ],
      [
        "▁(19",
        -9.345947689105794
      ],
      [
        "▁сейчас",
        -9.347169670414807
      ],
      [
        "▁conditions",
        -9.347600739233153
      ],
      [
        "▁одно",
        -9.34806933447106
      ],
      [
        "▁God",
        -9.349485708267425
      ],
      [
        "▁да",
        -9.350860763240522
      ],
      [
        "▁law",
        -9.351446339906596
      ],
      [
        "ish",
        -9.351769520275589
      ],
      [
        "▁oil",
        -9.351982645396133
      ],
      [
        "▁Со",
        -9.35278661925957
      ],
      [
        "▁products",
        -9.354138574745996
      ],
      [
        "ами.",
        -9.354266024744168
      ],
      [
        "These",
        -9.35490703705753
      ],
      [
        "▁вот",
        -9.355013970382764
      ],
      [
        "ting",
        -9.355341258198663
      ],
      [
        "м.",
        -9.35654174223748
      ],
      [
        "9",
        -9.357371346804024
      ],
      [
        "▁Pro",
        -9.358066783817938
      ],
      [
        "▁World",
        -9.358214213283407
      ],
      [
        "▁почти",
        -9.359303524756404
      ],
      [
        "▁amount",
        -9.359797164964595
      ],
      [
        "ова",
        -9.361811325103249
      ],
      [
        "▁ним",
        -9.362179159883532
      ],
      [
        "▁heart",
        -9.364678592732444
      ],
      [
        "▁changes",
        -9.364739218092057
      ],
      [
        "ck",
        -9.368869471599591
      ],
      [
        "▁local",
        -9.371421667947857
      ],
      [
        "ился",
        -9.372216232117331
      ],
      [
        "▁needs",
        -9.373795036957322
      ],
      [
        "▁production",
        -9.374315442199894
      ],
      [
        "▁тоже",
        -9.374609073766615
      ],
      [
        "▁найти",
        -9.376194068500263
      ],
      [
        "ми,",
        -9.376985041000696
      ],
      [
        "▁four",
        -9.377236300993058
      ],
      [
        "ель",
        -9.37861821397851
      ],
      [
        "M",
        -9.379030246973944
      ],
      [
        "иться",
        -9.37915878951349
      ],
      [
        "▁$",
        -9.379268365421153
      ],
      [
        "▁делать",
        -9.380516365760434
      ],
      [
        ".\nIt",
        -9.38064880641947
      ],
      [
        "▁внимание",
        -9.380696847885384
      ],
      [
        "▁United",
        -9.381209405366114
      ],
      [
        "▁feel",
        -9.381569391856692
      ],
      [
        "▁cause",
        -9.382372272852852
      ],
      [
        "ше",
        -9.38309644373323
      ],
      [
        "be",
        -9.383760154111712
      ],
      [
        "do",
        -9.383873561262558
      ],
      [
        "▁50",
        -9.385109086567011
      ],
      [
        "▁dis",
        -9.38544446910033
      ],
      [
        "са",
        -9.385811311170114
      ],
      [
        "▁Е",
        -9.386307702213632
      ],
      [
        "▁жизнь",
        -9.386379219465615
      ],
      [
        "ства",
        -9.38758671827262
      ],
      [
        "▁age",
        -9.388373606834884
      ],
      [
        "ot",
        -9.389148389626898
      ],
      [
        "▁women",
        -9.38920914910815
      ],
      [
        "▁котором",
        -9.389827386450497
      ],
      [
        "▁ничего",
        -9.390030336010604
      ],
      [
        "▁results",
        -9.390087694211266
      ],
      [
        "▁school",
        -9.39131108294535
      ],
      [
        "же",
        -9.391696575244891
      ],
      [
        "lo",
        -9.392291028464324
      ],
      [
        "▁especially",
        -9.393403443373543
      ],
      [
        "▁Be",
        -9.395440302078365
      ],
      [
        "▁color",
        -9.39551315125864
      ],
      [
        "▁answer",
        -9.396459245532007
      ],
      [
        ".\nК",
        -9.396575626429842
      ],
      [
        "▁half",
        -9.397579977362884
      ],
      [
        "▁text",
        -9.397697912322151
      ],
      [
        "▁стоит",
        -9.397940636967464
      ],
      [
        "▁каждый",
        -9.398108301161754
      ],
      [
        "ск",
        -9.39828496962878
      ],
      [
        "▁особенно",
        -9.400704597428824
      ],
      [
        "20",
        -9.400708003359597
      ],
      [
        "▁способ",
        -9.400721846228569
      ],
      [
        "▁одного",
        -9.400871634736488
      ],
      [
        "E",
        -9.40117179825546
      ],
      [
        "▁disease",
        -9.401362341996746
      ],
      [
        "▁Об",
        -9.401830957089064
      ],
      [
        "▁increase",
        -9.402110178299544
      ],
      [
        "▁future",
        -9.402383928754736
      ],
      [
        "▁method",
        -9.40318898759892
      ],
      [
        "▁детей",
        -9.406125864109969
      ],
      [
        "▁German",
        -9.406849898770387
      ],
      [
        "▁line",
        -9.407140664761185
      ],
      [
        "▁it.",
        -9.40725451520452
      ],
      [
        ".\nКак",
        -9.407335586564596
      ],
      [
        "▁No",
        -9.40778466494702
      ],
      [
        "но-",
        -9.408027968847566
      ],
      [
        "▁легко",
        -9.40898658263671
      ],
      [
        "▁теперь",
        -9.409557593669607
      ],
      [
        "мен",
        -9.409818036447126
      ],
      [
        "▁face",
        -9.409887865571095
      ],
      [
        "L",
        -9.409923035162947
      ],
      [
        "▁enough",
        -9.410080513786175
      ],
      [
        "▁войны",
        -9.410145429734955
      ],
      [
        "▁political",
        -9.410462447086903
      ],
      [
        "ling",
        -9.4116546129825
      ],
      [
        "▁такое",
        -9.411694469127914
      ],
      [
        "▁someone",
        -9.411836995452342
      ],
      [
        "▁show",
        -9.41208726259735
      ],
      [
        "▁Moscow",
        -9.412175764780647
      ],
      [
        "▁similar",
        -9.41313478614214
      ],
      [
        "son",
        -9.414469784887492
      ],
      [
        "▁above",
        -9.414471900984092
      ],
      [
        "▁article",
        -9.415225905001892
      ],
      [
        "▁Э",
        -9.415844674439311
      ],
      [
        "▁thought",
        -9.416067017964307
      ],
      [
        "\nA",
        -9.417340902411008
      ],
      [
        "sk",
        -9.417406932514222
      ],
      [
        "▁study",
        -9.418189356352086
      ],
      [
        "сть",
        -9.4187596026445
      ],
      [
        "▁З",
        -9.41922052282547
      ],
      [
        "ющий",
        -9.419307348321473
      ],
      [
        "▁pro",
        -9.4200082018182
      ],
      [
        "▁nothing",
        -9.420998169694528
      ],
      [
        "▁entire",
        -9.421067020573808
      ],
      [
        "▁file",
        -9.422500597589066
      ],
      [
        "em",
        -9.422612004599156
      ],
      [
        "▁чего",
        -9.424604286455056
      ],
      [
        "▁образом",
        -9.424888158135694
      ],
      [
        "ъ",
        -9.425375507034303
      ],
      [
        "про",
        -9.426085828183156
      ],
      [
        "▁national",
        -9.426741090454351
      ],
      [
        "ie",
        -9.427504387590249
      ],
      [
        "▁beginning",
        -9.427627384768485
      ],
      [
        "▁поскольку",
        -9.42858634687284
      ],
      [
        "вар",
        -9.431099342215887
      ],
      [
        "▁current",
        -9.4311717408626
      ],
      [
        "▁others",
        -9.431979282959489
      ],
      [
        ">",
        -9.433922732665671
      ],
      [
        "ила",
        -9.434177081645704
      ],
      [
        "▁field",
        -9.434183517401411
      ],
      [
        "▁energy",
        -9.435575619676502
      ],
      [
        "▁together",
        -9.437655608434252
      ],
      [
        "me",
        -9.441594759614953
      ],
      [
        "ge",
        -9.441921003391812
      ],
      [
        "▁live",
        -9.442063176762812
      ],
      [
        "ci",
        -9.442458276880975
      ],
      [
        "▁эта",
        -9.442537130435614
      ],
      [
        "▁которую",
        -9.442698146047787
      ],
      [
        "19",
        -9.443124418562697
      ],
      [
        "▁ещё",
        -9.44328237200764
      ],
      [
        "▁modern",
        -9.444036573258684
      ],
      [
        "▁past",
        -9.444178342394574
      ],
      [
        "▁ней",
        -9.447091270622415
      ],
      [
        "ну",
        -9.447092824155911
      ],
      [
        "▁потом",
        -9.44770717925257
      ],
      [
        "▁конце",
        -9.448307774368391
      ],
      [
        "ня",
        -9.448383847353536
      ],
      [
        "▁activity",
        -9.45033535115596
      ],
      [
        "▁25",
        -9.451757442746514
      ],
      [
        "▁X",
        -9.453049373083774
      ],
      [
        "ает",
        -9.453074641364282
      ],
      [
        "ю,",
        -9.453127356498737
      ],
      [
        "▁город",
        -9.45478821978756
      ],
      [
        "▁questions",
        -9.455030306958225
      ],
      [
        "ры",
        -9.455079154266034
      ],
      [
        "па",
        -9.455169529821411
      ],
      [
        "али",
        -9.455212611949294
      ],
      [
        "10",
        -9.455893061943312
      ],
      [
        "▁full",
        -9.456325661607986
      ],
      [
        "Т",
        -9.456860529275652
      ],
      [
        "▁immediately",
        -9.457283581590811
      ],
      [
        "▁public",
        -9.457827035413995
      ],
      [
        "▁процесс",
        -9.45820223386906
      ],
      [
        "▁гор",
        -9.45823693631165
      ],
      [
        "ya",
        -9.458345915516071
      ],
      [
        "ина",
        -9.458867100589329
      ],
      [
        "▁результате",
        -9.460599485707371
      ],
      [
        "▁million",
        -9.46063771655714
      ],
      [
        "▁возможность",
        -9.460937696705944
      ],
      [
        "25",
        -9.461837961185134
      ],
      [
        "ts",
        -9.462530431339486
      ],
      [
        "up",
        -9.463352156431624
      ],
      [
        ".\nIf",
        -9.463601231358307
      ],
      [
        "▁24",
        -9.464616765195627
      ],
      [
        "tic",
        -9.464720848188726
      ],
      [
        "▁usually",
        -9.464867959302584
      ],
      [
        ".\nЕсли",
        -9.465641647014015
      ],
      [
        "▁wo",
        -9.465683417527686
      ],
      [
        "▁quickly",
        -9.46655182743713
      ],
      [
        "op",
        -9.467531877379203
      ],
      [
        "▁value",
        -9.467612001596237
      ],
      [
        "▁говорит",
        -9.467685056227952
      ],
      [
        "вин",
        -9.46774200628574
      ],
      [
        "▁themselves",
        -9.468634236913992
      ],
      [
        "▁проблемы",
        -9.470822108163494
      ],
      [
        "▁пре",
        -9.470884053281925
      ],
      [
        "▁return",
        -9.470893564364632
      ],
      [
        "▁thing",
        -9.471443658589113
      ],
      [
        "цев",
        -9.471472591325396
      ],
      [
        "▁once",
        -9.471839034263988
      ],
      [
        "ское",
        -9.476892264861071
      ],
      [
        "А",
        -9.478986986890863
      ],
      [
        "▁свое",
        -9.479108428166382
      ],
      [
        "▁stage",
        -9.479750194155738
      ],
      [
        "▁До",
        -9.480762867231354
      ],
      [
        "Д",
        -9.48211959533061
      ],
      [
        "бер",
        -9.4823126772679
      ],
      [
        "од",
        -9.48276052327233
      ],
      [
        "although",
        -9.48380063957882
      ],
      [
        "▁treatment",
        -9.484138931965026
      ],
      [
        "▁никогда",
        -9.484422374596654
      ],
      [
        "▁развития",
        -9.48454491828168
      ],
      [
        "he",
        -9.484611902741532
      ],
      [
        "▁didn't",
        -9.484768474658368
      ],
      [
        "▁имеют",
        -9.485371172446667
      ],
      [
        "▁самом",
        -9.485992968548205
      ],
      [
        "ении",
        -9.486215363454772
      ],
      [
        "▁moment",
        -9.486813186509032
      ],
      [
        "▁list",
        -9.487113722808802
      ],
      [
        "К",
        -9.488910303660283
      ],
      [
        "50",
        -9.489075709848764
      ],
      [
        ".\nS",
        -9.489481963095074
      ],
      [
        "▁ответ",
        -9.489539670862928
      ],
      [
        "▁либо",
        -9.490328100243367
      ],
      [
        ".\n“",
        -9.49057542451547
      ],
      [
        "▁истории",
        -9.490774862811527
      ],
      [
        "прав",
        -9.490911010271647
      ],
      [
        "раз",
        -9.491043327119732
      ],
      [
        "▁всем",
        -9.491556485930897
      ],
      [
        "▁add",
        -9.492457665631068
      ],
      [
        "тив",
        -9.493074316309512
      ],
      [
        "▁third",
        -9.493189042061749
      ],
      [
        "▁One",
        -9.493743630187838
      ],
      [
        "▁close",
        -9.493829422057177
      ],
      [
        ".”\n",
        -9.49431037737532
      ],
      [
        "▁lead",
        -9.494355129233776
      ],
      [
        "▁account",
        -9.494680434975942
      ],
      [
        "▁given",
        -9.496867687356213
      ],
      [
        "▁выше",
        -9.497329873813754
      ],
      [
        "▁мира",
        -9.4975705554892
      ],
      [
        "im",
        -9.498073526216366
      ],
      [
        "U",
        -9.498444288627384
      ],
      [
        "иль",
        -9.499067902851108
      ],
      [
        ".\nИ",
        -9.500029199453914
      ],
      [
        "ша",
        -9.500078402998644
      ],
      [
        "▁however",
        -9.500253898344482
      ],
      [
        "▁0",
        -9.50088954171931
      ],
      [
        "▁prevent",
        -9.502005235517617
      ],
      [
        "ba",
        -9.503154684705574
      ],
      [
        "▁individual",
        -9.5040358940251
      ],
      [
        "▁believe",
        -9.504231962725775
      ],
      [
        "▁allow",
        -9.50471565307455
      ],
      [
        "ized",
        -9.504975154268957
      ],
      [
        "У",
        -9.506864770856298
      ],
      [
        "▁слишком",
        -9.507618333065077
      ],
      [
        "▁skin",
        -9.509749908417175
      ],
      [
        "▁находится",
        -9.510052733730909
      ],
      [
        "▁связи",
        -9.51046204877508
      ],
      [
        "▁sure",
        -9.51115635062893
      ],
      [
        "▁asked",
        -9.511864527019766
      ],
      [
        "ated",
        -9.51202514863281
      ],
      [
        "▁reason",
        -9.512988223189245
      ],
      [
        "ским",
        -9.51367484792032
      ],
      [
        "ью",
        -9.51415739619818
      ],
      [
        "ости",
        -9.514609456460189
      ],
      [
        "▁research",
        -9.5152543366043
      ],
      [
        "ions",
        -9.516797888988185
      ],
      [
        "▁Во",
        -9.517420029930918
      ],
      [
        "▁short",
        -9.517574416683702
      ],
      [
        "ence",
        -9.51950100890785
      ],
      [
        "ors",
        -9.520354393666397
      ],
      [
        "▁действия",
        -9.520886500911065
      ],
      [
        "▁своим",
        -9.521499172681027
      ],
      [
        "▁II",
        -9.521797949479124
      ],
      [
        "40",
        -9.521976928985778
      ],
      [
        "▁whole",
        -9.52216278729666
      ],
      [
        "▁weight",
        -9.522290149213624
      ],
      [
        "▁Его",
        -9.522575905891047
      ],
      [
        "▁market",
        -9.52496208769622
      ],
      [
        "бор",
        -9.52534401782844
      ],
      [
        "▁clear",
        -9.527349517924984
      ],
      [
        "▁really",
        -9.527443152583846
      ],
      [
        "ация",
        -9.527643869882102
      ],
      [
        "че",
        -9.527770709824445
      ],
      [
        "▁минут",
        -9.528670177271897
      ],
      [
        "▁например,",
        -9.528987603263785
      ],
      [
        "▁material",
        -9.530239400688645
      ],
      [
        "▁что-то",
        -9.533182894085698
      ],
      [
        "▁significant",
        -9.533568039459114
      ],
      [
        "R",
        -9.533579373429813
      ],
      [
        ".\nThis",
        -9.533677789918398
      ],
      [
        "▁полностью",
        -9.534006605379576
      ],
      [
        "Therefore,",
        -9.534427950421112
      ],
      [
        "▁lot",
        -9.535366096688326
      ],
      [
        "land",
        -9.536234382901286
      ],
      [
        "рен",
        -9.536285363024506
      ],
      [
        "ex",
        -9.53648697959427
      ],
      [
        "ях",
        -9.536733858243794
      ],
      [
        "▁en",
        -9.537072476507882
      ],
      [
        "▁мог",
        -9.537156360105168
      ],
      [
        "▁minutes",
        -9.53792472663732
      ],
      [
        "Б",
        -9.53818477673452
      ],
      [
        "Ф",
        -9.53846959922372
      ],
      [
        "▁вид",
        -9.539523635050337
      ],
      [
        "▁receive",
        -9.540253823617444
      ],
      [
        "кон",
        -9.541466412086768
      ],
      [
        "▁друг",
        -9.541910159132987
      ],
      [
        "▁leave",
        -9.54364535915314
      ],
      [
        "▁States",
        -9.543811918198504
      ],
      [
        "▁French",
        -9.544159283504955
      ],
      [
        "▁present",
        -9.544873612993678
      ],
      [
        "▁product",
        -9.545256031367494
      ],
      [
        "▁economic",
        -9.54555426847023
      ],
      [
        "ового",
        -9.545747738619868
      ],
      [
        "ические",
        -9.546259504646237
      ],
      [
        "V",
        -9.546888524720863
      ],
      [
        "▁б",
        -9.54712756148896
      ],
      [
        "аль",
        -9.547832221762334
      ],
      [
        "▁конечно",
        -9.547972352725276
      ],
      [
        ",\"",
        -9.548961946030529
      ],
      [
        "тор",
        -9.549011861127482
      ],
      [
        "ян",
        -9.549610281981357
      ],
      [
        "рав",
        -9.54984552292579
      ],
      [
        "ga",
        -9.550272332932863
      ],
      [
        "According",
        -9.551702912414289
      ],
      [
        "▁города",
        -9.552282522212524
      ],
      [
        "ста",
        -9.552821734340183
      ],
      [
        "whether",
        -9.552972202234322
      ],
      [
        "▁series",
        -9.556709755161773
      ],
      [
        "▁personal",
        -9.55715666956296
      ],
      [
        "▁function",
        -9.557378333999772
      ],
      [
        "▁работа",
        -9.55746086775426
      ],
      [
        "▁деле",
        -9.557927292832414
      ],
      [
        "▁Ш",
        -9.557955404072953
      ],
      [
        "▁образом,",
        -9.558405865649291
      ],
      [
        "▁дома",
        -9.558693544950106
      ],
      [
        "▁виде",
        -9.559222212189372
      ],
      [
        "▁kind",
        -9.559412007649332
      ],
      [
        "▁наиболее",
        -9.559674950373994
      ],
      [
        "▁(в",
        -9.559718393320818
      ],
      [
        "men",
        -9.559803580622209
      ],
      [
        "▁значение",
        -9.55995367018485
      ],
      [
        "sky",
        -9.56022460514371
      ],
      [
        "▁тому",
        -9.560289481586947
      ],
      [
        "▁стран",
        -9.560410210741198
      ],
      [
        "кор",
        -9.560872428593564
      ],
      [
        "▁страны",
        -9.561769407396872
      ],
      [
        "▁May",
        -9.562447765635245
      ],
      [
        "▁His",
        -9.562875741829204
      ],
      [
        "▁почему",
        -9.563522565062977
      ],
      [
        "▁компании",
        -9.564681428974648
      ],
      [
        "▁project",
        -9.565070198343834
      ],
      [
        "s:",
        -9.565512342608026
      ],
      [
        "▁среди",
        -9.566246467810217
      ],
      [
        "▁само",
        -9.56640206150064
      ],
      [
        "having",
        -9.566425597458172
      ],
      [
        "▁происходит",
        -9.566699068407068
      ],
      [
        "▁таким",
        -9.566739319626029
      ],
      [
        "▁woman",
        -9.568033866207978
      ],
      [
        "▁post",
        -9.56809007289508
      ],
      [
        "▁types",
        -9.568265413307502
      ],
      [
        "▁работу",
        -9.56891184210599
      ],
      [
        "ний",
        -9.569176191336055
      ],
      [
        "▁действительно",
        -9.569183255043452
      ],
      [
        "нее",
        -9.569463835835188
      ],
      [
        "▁computer",
        -9.56994910690611
      ],
      [
        "▁attack",
        -9.570323533396946
      ],
      [
        "▁меньше",
        -9.570409363621
      ],
      [
        "со",
        -9.57070813247358
      ],
      [
        "▁father",
        -9.571140247541091
      ],
      [
        "▁view",
        -9.571179612158028
      ],
      [
        "▁19",
        -9.571271618754968
      ],
      [
        "ней",
        -9.571475096989152
      ],
      [
        "▁decided",
        -9.571540462624258
      ],
      [
        "▁complex",
        -9.571641149863645
      ],
      [
        "▁Ли",
        -9.57202561067612
      ],
      [
        "▁provide",
        -9.572327076209753
      ],
      [
        "▁fear",
        -9.572498445138692
      ],
      [
        "род",
        -9.573232076420563
      ],
      [
        "ились",
        -9.57361554341094
      ],
      [
        "▁однако",
        -9.573733343441456
      ],
      [
        "▁nature",
        -9.574516022876052
      ],
      [
        "дер",
        -9.575251682747446
      ],
      [
        "скую",
        -9.57705268989
      ],
      [
        "нию",
        -9.578138120525752
      ],
      [
        "▁fire",
        -9.57927924925134
      ],
      [
        "лет",
        -9.580799787708704
      ],
      [
        "▁talk",
        -9.5808577227049
      ],
      [
        "▁снова",
        -9.581210478993937
      ],
      [
        "▁health",
        -9.581821729142996
      ],
      [
        "▁learn",
        -9.582633236355608
      ],
      [
        "sh",
        -9.584031669522554
      ],
      [
        "Z",
        -9.584042832196529
      ],
      [
        "mp",
        -9.584121022848706
      ],
      [
        "18",
        -9.585458989442747
      ],
      [
        "ful",
        -9.585503576170233
      ],
      [
        "▁mother",
        -9.586737040170734
      ],
      [
        "ally",
        -9.58698860042349
      ],
      [
        "ению",
        -9.58791272417012
      ],
      [
        "▁надо",
        -9.589710582728545
      ],
      [
        "▁бо",
        -9.589816915224889
      ],
      [
        "é",
        -9.59032684825866
      ],
      [
        "фа",
        -9.59047419850742
      ],
      [
        "▁eyes",
        -9.591270081947409
      ],
      [
        "▁taken",
        -9.591351694971216
      ],
      [
        "▁пар",
        -9.591374530112429
      ],
      [
        "▁pay",
        -9.59245307749623
      ],
      [
        "▁роль",
        -9.592471646747974
      ],
      [
        "ки,",
        -9.592760346028587
      ],
      [
        "▁remember",
        -9.592842426388565
      ],
      [
        "▁иметь",
        -9.594055182913984
      ],
      [
        "▁white",
        -9.595081715192157
      ],
      [
        "▁sub",
        -9.595256634063809
      ],
      [
        "ями",
        -9.595635021541014
      ],
      [
        "▁today",
        -9.59576149543131
      ],
      [
        "▁важно",
        -9.59617402402261
      ],
      [
        "бо",
        -9.59645105824277
      ],
      [
        "▁black",
        -9.596487860507589
      ],
      [
        "▁hands",
        -9.59678073752866
      ],
      [
        "ac",
        -9.59684012424034
      ],
      [
        "▁сказать",
        -9.597011643708528
      ],
      [
        ")\n-",
        -9.59776972060196
      ],
      [
        "ke",
        -9.598186491394614
      ],
      [
        "▁hard",
        -9.598355422999868
      ],
      [
        "ими",
        -9.598356003880648
      ],
      [
        "▁должно",
        -9.598920760828074
      ],
      [
        "▁одним",
        -9.599414386467934
      ],
      [
        "ника",
        -9.599698851346153
      ],
      [
        "самых",
        -9.599958374513005
      ],
      [
        "▁months",
        -9.600732365935992
      ],
      [
        "▁space",
        -9.601049498828946
      ],
      [
        "one",
        -9.602138254687906
      ],
      [
        "ость",
        -9.602161536590984
      ],
      [
        "стр",
        -9.603080946249449
      ],
      [
        "▁цвет",
        -9.6033549553673
      ],
      [
        "▁lower",
        -9.603562975415205
      ],
      [
        "▁strong",
        -9.604655350171315
      ],
      [
        "▁them.",
        -9.60503189704727
      ],
      [
        "▁army",
        -9.605058662259609
      ],
      [
        "▁многие",
        -9.605245498739244
      ],
      [
        "▁оно",
        -9.60524565988724
      ],
      [
        "▁Р",
        -9.605768464388758
      ],
      [
        "▁front",
        -9.606273449106562
      ],
      [
        "▁influence",
        -9.606636254011171
      ],
      [
        "▁pain",
        -9.606874624272814
      ],
      [
        "▁hair",
        -9.608056008578536
      ],
      [
        "▁thousand",
        -9.608397416922138
      ],
      [
        "ev",
        -9.609217096308234
      ],
      [
        "▁Co",
        -9.61004826980078
      ],
      [
        "ca",
        -9.610358613534716
      ],
      [
        "▁author",
        -9.610546177482588
      ],
      [
        "овать",
        -9.611442651550853
      ],
      [
        "▁две",
        -9.6116093779953
      ],
      [
        "▁информации",
        -9.612089499915896
      ],
      [
        "▁fight",
        -9.612324069477191
      ],
      [
        "▁воз",
        -9.61235327196647
      ],
      [
        "ической",
        -9.612370366521102
      ],
      [
        "▁характер",
        -9.612748795329688
      ],
      [
        "▁должна",
        -9.612946811531756
      ],
      [
        "ам,",
        -9.614226158246762
      ],
      [
        "▁многих",
        -9.614582485921812
      ],
      [
        "изм",
        -9.614618025651914
      ],
      [
        "▁actions",
        -9.61468354564062
      ],
      [
        ".\n2.",
        -9.614903815633198
      ],
      [
        "▁сразу",
        -9.615629494781851
      ],
      [
        "▁center",
        -9.615659832014138
      ],
      [
        "▁позволяет",
        -9.61632422074863
      ],
      [
        "▁40",
        -9.616508469326424
      ],
      [
        "▁правильно",
        -9.617439693864004
      ],
      [
        "▁Me",
        -9.617642782002244
      ],
      [
        "▁five",
        -9.61783936805039
      ],
      [
        "ph",
        -9.619110978961428
      ],
      [
        "▁интерес",
        -9.620295341896592
      ],
      [
        "▁различных",
        -9.620587219912272
      ],
      [
        "▁группы",
        -9.620698035192095
      ],
      [
        "▁US",
        -9.620872541432188
      ],
      [
        "▁Из",
        -9.621691419974214
      ],
      [
        "▁исследования",
        -9.621763714916137
      ],
      [
        "▁idea",
        -9.622179347719149
      ],
      [
        "зи",
        -9.622332751169104
      ],
      [
        "▁command",
        -9.62419799222564
      ],
      [
        "Я",
        -9.624647192470256
      ],
      [
        "▁первый",
        -9.62615922788574
      ],
      [
        "▁стали",
        -9.628171175687935
      ],
      [
        "▁night",
        -9.628315406024068
      ],
      [
        "▁немного",
        -9.628709996810327
      ],
      [
        "▁content",
        -9.629841341273474
      ],
      [
        "ников",
        -9.629940467877804
      ],
      [
        "▁going",
        -9.630196370370436
      ],
      [
        "▁готов",
        -9.630306447903822
      ],
      [
        "▁red",
        -9.63106973838164
      ],
      [
        "▁application",
        -9.632186460338028
      ],
      [
        "J",
        -9.632210891044693
      ],
      [
        "И",
        -9.632615517836069
      ],
      [
        "лин",
        -9.632975621921435
      ],
      [
        "▁far",
        -9.635209961265245
      ],
      [
        "▁let",
        -9.63575478370482
      ],
      [
        "▁early",
        -9.637099826051422
      ],
      [
        "ating",
        -9.637510203504304
      ],
      [
        "▁‘",
        -9.637693108120107
      ],
      [
        "мы",
        -9.63828329733111
      ],
      [
        "▁further",
        -9.638416627855191
      ],
      [
        "▁Н",
        -9.639001440620676
      ],
      [
        "▁Con",
        -9.64002984916412
      ],
      [
        "▁natural",
        -9.640802316549133
      ],
      [
        "ny",
        -9.641044822851404
      ],
      [
        "ци",
        -9.642625742373925
      ],
      [
        "mo",
        -9.642663298855371
      ],
      [
        "▁дня",
        -9.643092342249084
      ],
      [
        "▁developed",
        -9.643107563051965
      ],
      [
        ".\nЯ",
        -9.64334376022966
      ],
      [
        "▁test",
        -9.643974517968912
      ],
      [
        "▁European",
        -9.644326351547663
      ],
      [
        "▁code",
        -9.64454845768575
      ],
      [
        "вид",
        -9.644670203970636
      ],
      [
        "▁Or",
        -9.645694203909327
      ],
      [
        "▁Li",
        -9.64604390839094
      ],
      [
        "▁table",
        -9.646685100144722
      ],
      [
        "whose",
        -9.647230893615642
      ],
      [
        "▁дней",
        -9.647292267599996
      ],
      [
        "la",
        -9.64749346770884
      ],
      [
        "лю",
        -9.64764671320513
      ],
      [
        "▁yet",
        -9.647674991173083
      ],
      [
        "▁events",
        -9.648331764280613
      ],
      [
        "▁хотите",
        -9.648532656149085
      ],
      [
        "▁version",
        -9.649203913835745
      ],
      [
        "ции",
        -9.649429588774096
      ],
      [
        "▁одна",
        -9.649865057581236
      ],
      [
        ".\nА",
        -9.650486913054356
      ],
      [
        "▁soon",
        -9.650527656537252
      ],
      [
        "▁Al",
        -9.651769130253744
      ],
      [
        "тон",
        -9.651864313017326
      ],
      [
        "▁начала",
        -9.652613766888228
      ],
      [
        "том",
        -9.654129797107515
      ],
      [
        "нов",
        -9.654673681060965
      ],
      [
        "▁То",
        -9.65522942934559
      ],
      [
        "▁training",
        -9.655410677186696
      ],
      [
        "▁access",
        -9.65560349920916
      ],
      [
        "▁With",
        -9.655883612738911
      ],
      [
        "24",
        -9.656441898168746
      ],
      [
        "▁methods",
        -9.656828037578466
      ],
      [
        "12",
        -9.65688801241278
      ],
      [
        "rs",
        -9.657954766450864
      ],
      [
        "▁needed",
        -9.658867796565632
      ],
      [
        "▁Ар",
        -9.659790610026976
      ],
      [
        "les",
        -9.660026666919904
      ],
      [
        "▁therefore",
        -9.66112585283879
      ],
      [
        "▁Mo",
        -9.66135302392602
      ],
      [
        "Кроме",
        -9.661486541718302
      ],
      [
        "▁perform",
        -9.661980681362362
      ],
      [
        "она",
        -9.662600042671508
      ],
      [
        "▁mind",
        -9.663017416647415
      ],
      [
        "ti",
        -9.663785695265982
      ],
      [
        "▁forces",
        -9.663997409736307
      ],
      [
        "▁lost",
        -9.664679281922004
      ],
      [
        "▁воды",
        -9.664784211717956
      ],
      [
        "▁могли",
        -9.665221609009285
      ],
      [
        "ver",
        -9.66552936919396
      ],
      [
        "▁цен",
        -9.665549961834405
      ],
      [
        "▁affect",
        -9.666914222478685
      ],
      [
        "цион",
        -9.667498347828426
      ],
      [
        "ран",
        -9.669228817036126
      ],
      [
        "carried",
        -9.669671007022384
      ],
      [
        "▁Ma",
        -9.669901807727618
      ],
      [
        "ья",
        -9.670956144685782
      ],
      [
        "▁etc.",
        -9.671366778801122
      ],
      [
        "ud",
        -9.672148170414696
      ],
      [
        "ber",
        -9.672268256488223
      ],
      [
        "”,",
        -9.67273843263168
      ],
      [
        "▁Поэтому",
        -9.67305051314961
      ],
      [
        "▁право",
        -9.673620584957252
      ],
      [
        "▁allows",
        -9.673988144900903
      ],
      [
        "▁non-",
        -9.675403780748557
      ],
      [
        "ists",
        -9.675703328301918
      ],
      [
        "line",
        -9.675988113241193
      ],
      [
        "▁вопросы",
        -9.676550193228875
      ],
      [
        "ium",
        -9.676598879115328
      ],
      [
        "▁video",
        -9.677914519774884
      ],
      [
        "▁either",
        -9.678140144399322
      ],
      [
        "▁top",
        -9.678333949065395
      ],
      [
        "▁di",
        -9.678639243207629
      ],
      [
        "ак",
        -9.679939811763164
      ],
      [
        "▁круп",
        -9.68005106144978
      ],
      [
        "▁online",
        -9.680772475207492
      ],
      [
        "▁Ч",
        -9.681202193929275
      ],
      [
        "ight",
        -9.681204199695769
      ],
      [
        "es,",
        -9.681667028384547
      ],
      [
        "\\",
        -9.68209873974763
      ],
      [
        "▁вер",
        -9.6824893243236
      ],
      [
        "▁men",
        -9.682897378495062
      ],
      [
        "ill",
        -9.682908435121862
      ],
      [
        "▁call",
        -9.683124216297822
      ],
      [
        "▁некоторых",
        -9.683147783417391
      ],
      [
        "▁search",
        -9.683618605880024
      ],
      [
        "▁мире",
        -9.683871632565046
      ],
      [
        "▁condition",
        -9.684293677015354
      ],
      [
        "ун",
        -9.68433423392794
      ],
      [
        "Л",
        -9.685432438521977
      ],
      [
        "▁taking",
        -9.686309063166584
      ],
      [
        "▁knowledge",
        -9.6884001745832
      ],
      [
        "ир",
        -9.68875802133711
      ],
      [
        "▁population",
        -9.689189843443232
      ],
      [
        "▁care",
        -9.689340187907886
      ],
      [
        ");",
        -9.689710791343714
      ],
      [
        "▁risk",
        -9.689851252459055
      ],
      [
        "▁глав",
        -9.691032523010788
      ],
      [
        "ид",
        -9.69116161136103
      ],
      [
        "ешь",
        -9.691506073631675
      ],
      [
        "om",
        -9.691973340945012
      ],
      [
        "▁speed",
        -9.692215970681012
      ],
      [
        "▁site",
        -9.69244066650702
      ],
      [
        "ron",
        -9.693271819482964
      ],
      [
        "▁room",
        -9.693441191178858
      ],
      [
        "▁sometimes",
        -9.693709622860167
      ],
      [
        "ap",
        -9.69437840634778
      ],
      [
        "-19",
        -9.69470804007473
      ],
      [
        "▁вашего",
        -9.695490742591083
      ],
      [
        "▁held",
        -9.695994430168009
      ],
      [
        "-то",
        -9.697486087834717
      ],
      [
        "▁write",
        -9.697961582630631
      ],
      [
        "▁мере",
        -9.698089770906911
      ],
      [
        "▁move",
        -9.698104934363608
      ],
      [
        "▁Ж",
        -9.698775675290824
      ],
      [
        "▁model",
        -9.698917445698909
      ],
      [
        "▁могу",
        -9.69902932913318
      ],
      [
        "15",
        -9.699800796631456
      ],
      [
        "▁effect",
        -9.700379302323109
      ],
      [
        "▁include",
        -9.70047301369448
      ],
      [
        "ши",
        -9.700487351966874
      ],
      [
        "way",
        -9.700963991523434
      ],
      [
        "fi",
        -9.70157993214787
      ],
      [
        "pa",
        -9.701732967219684
      ],
      [
        "П",
        -9.70234916849661
      ],
      [
        "▁Google",
        -9.702443773958043
      ],
      [
        "▁behind",
        -9.702957392667368
      ],
      [
        "kin",
        -9.703529952664882
      ],
      [
        "▁счет",
        -9.70355788942654
      ],
      [
        "▁помочь",
        -9.704366684563514
      ],
      [
        "▁дело",
        -9.704465425703232
      ],
      [
        "▁quality",
        -9.705515201591435
      ],
      [
        "▁story",
        -9.706399695558156
      ],
      [
        "▁popular",
        -9.706475366380731
      ],
      [
        "Е",
        -9.706751180977854
      ],
      [
        "ска",
        -9.707706289085204
      ],
      [
        "▁бес",
        -9.7080484598778
      ],
      [
        "▁From",
        -9.708776536915405
      ],
      [
        "O",
        -9.7088967376728
      ],
      [
        "▁related",
        -9.709521091671416
      ],
      [
        "▁done",
        -9.709597765492338
      ],
      [
        "▁мало",
        -9.710816453437264
      ],
      [
        "▁died",
        -9.710938473130412
      ],
      [
        "▁By",
        -9.711279421490824
      ],
      [
        "▁sent",
        -9.71194469698272
      ],
      [
        "итель",
        -9.714339046852112
      ],
      [
        "ology",
        -9.715393231755398
      ],
      [
        "▁movement",
        -9.71547777077942
      ],
      [
        "Г",
        -9.715815238425888
      ],
      [
        "▁true",
        -9.715884533276885
      ],
      [
        "▁source",
        -9.716162295204509
      ],
      [
        "▁object",
        -9.716297039818835
      ],
      [
        "▁видео",
        -9.7164768893098
      ],
      [
        "▁Ка",
        -9.717250382821602
      ],
      [
        "▁action",
        -9.717297596829
      ],
      [
        "▁plan",
        -9.718258773592066
      ],
      [
        "▁числе",
        -9.720037991591097
      ],
      [
        "ven",
        -9.720330622807186
      ],
      [
        "▁appeared",
        -9.720828003119896
      ],
      [
        "▁месте",
        -9.721196804958018
      ],
      [
        "▁Де",
        -9.721395566294994
      ],
      [
        "▁wide",
        -9.722091126458176
      ],
      [
        "▁choose",
        -9.72221668104556
      ],
      [
        "▁ex",
        -9.722375577882206
      ],
      [
        "16",
        -9.722694213073002
      ],
      [
        "▁saw",
        -9.72403754868485
      ],
      [
        "ru",
        -9.724181036603571
      ],
      [
        "▁My",
        -9.724969869255387
      ],
      [
        "▁regarding",
        -9.725068322895808
      ],
      [
        "▁второй",
        -9.725437893264866
      ],
      [
        "▁сил",
        -9.725492863780966
      ],
      [
        "▁стать",
        -9.726023310322434
      ],
      [
        "ще",
        -9.72632811728722
      ],
      [
        "\nI",
        -9.726581054523235
      ],
      [
        "ative",
        -9.726684448365289
      ],
      [
        "▁higher",
        -9.726762609807478
      ],
      [
        "▁page",
        -9.72706186688002
      ],
      [
        "▁low",
        -9.728149274094044
      ],
      [
        "▁interesting",
        -9.729073550313515
      ],
      [
        "end",
        -9.729209020100155
      ],
      [
        "▁size",
        -9.729216817014263
      ],
      [
        "ятся",
        -9.729222810271676
      ],
      [
        "ками",
        -9.729538928852532
      ],
      [
        "▁означает",
        -9.729556152029964
      ],
      [
        "▁pre",
        -9.729998808542254
      ],
      [
        "▁т.",
        -9.730998084357909
      ],
      [
        "ial",
        -9.73139864777981
      ],
      [
        "жен",
        -9.731860992871582
      ],
      [
        "ел",
        -9.732066606333252
      ],
      [
        "▁свет",
        -9.73214768799092
      ],
      [
        "▁image",
        -9.732710936833865
      ],
      [
        "▁тебя",
        -9.733084186906623
      ],
      [
        "|",
        -9.733234789187174
      ],
      [
        "io",
        -9.733982145357356
      ],
      [
        "▁rest",
        -9.73406566620433
      ],
      [
        "рон",
        -9.73415712100353
      ],
      [
        "▁данные",
        -9.734433035485283
      ],
      [
        "▁published",
        -9.734512821817583
      ],
      [
        "▁areas",
        -9.735046476786067
      ],
      [
        "s”",
        -9.73545775352726
      ],
      [
        "▁ability",
        -9.735936651646236
      ],
      [
        "▁ask",
        -9.73635403131611
      ],
      [
        "▁Le",
        -9.73669341827755
      ],
      [
        "tra",
        -9.736942435582431
      ],
      [
        "▁check",
        -9.737322060088792
      ],
      [
        "▁consider",
        -9.737438623303444
      ],
      [
        "▁path",
        -9.73788361306852
      ],
      [
        "ек",
        -9.738540292464588
      ],
      [
        "жа",
        -9.73860422438443
      ],
      [
        "▁боль",
        -9.739061659017926
      ],
      [
        "▁meaning",
        -9.73934639250372
      ],
      [
        "▁права",
        -9.739643670770128
      ],
      [
        "▁hours",
        -9.73976926969036
      ],
      [
        "▁website",
        -9.74025127564315
      ],
      [
        "▁key",
        -9.740450909167844
      ],
      [
        "▁изменения",
        -9.740480436035394
      ],
      [
        "*",
        -9.74062300027355
      ],
      [
        "lu",
        -9.740647225403588
      ],
      [
        "▁increased",
        -9.7413961800894
      ],
      [
        ".\nP",
        -9.74146462756384
      ],
      [
        "гу",
        -9.7415027805684
      ],
      [
        "О",
        -9.741815245075207
      ],
      [
        "▁available",
        -9.742228524960431
      ],
      [
        "ten",
        -9.743241085935724
      ],
      [
        "▁язык",
        -9.7435942083645
      ],
      [
        "▁уровень",
        -9.743658967114818
      ],
      [
        "ана",
        -9.744155598475375
      ],
      [
        "эн",
        -9.745149840002943
      ],
      [
        "21",
        -9.745387984097755
      ],
      [
        "▁goal",
        -9.745535452948172
      ],
      [
        "▁Z",
        -9.746234755196012
      ],
      [
        "▁class",
        -9.747578643459308
      ],
      [
        "▁land",
        -9.74772372322529
      ],
      [
        "▁дела",
        -9.748528053967956
      ],
      [
        "илась",
        -9.748802167755432
      ],
      [
        "▁проблем",
        -9.749575343437424
      ],
      [
        "▁doesn't",
        -9.749705463141764
      ],
      [
        "▁программ",
        -9.749823425050865
      ],
      [
        "\nS",
        -9.750105559714903
      ],
      [
        "▁Ла",
        -9.750427112818036
      ],
      [
        "сь",
        -9.750644572189296
      ],
      [
        "ющей",
        -9.750957674113286
      ],
      [
        "ab",
        -9.751081532929108
      ],
      [
        "▁structure",
        -9.751479430489637
      ],
      [
        "the",
        -9.751605829648913
      ],
      [
        "▁building",
        -9.75236136477305
      ],
      [
        "▁longer",
        -9.752450257152466
      ],
      [
        "▁physical",
        -9.752614702298889
      ],
      [
        "▁practice",
        -9.752868035697604
      ],
      [
        "ard",
        -9.752917818186848
      ],
      [
        "▁device",
        -9.7529242533504
      ],
      [
        "04",
        -9.75370630026331
      ],
      [
        "-1",
        -9.753953801623954
      ],
      [
        "▁план",
        -9.75443912994771
      ],
      [
        "▁получил",
        -9.75455160422642
      ],
      [
        "пол",
        -9.754679476392024
      ],
      [
        "▁Под",
        -9.756614011502185
      ],
      [
        "▁speech",
        -9.757022806763064
      ],
      [
        "▁run",
        -9.757632113384185
      ],
      [
        "▁consist",
        -9.758492974749204
      ],
      [
        "тро",
        -9.758923665991787
      ],
      [
        "▁network",
        -9.759038127277618
      ],
      [
        "▁Great",
        -9.759064389602726
      ],
      [
        "▁led",
        -9.759376919186384
      ],
      [
        "▁might",
        -9.759384942542294
      ],
      [
        "▁ма",
        -9.760173486824357
      ],
      [
        "ities",
        -9.760355080087145
      ],
      [
        "▁behavior",
        -9.760643470058508
      ],
      [
        "▁matter",
        -9.760972968782768
      ],
      [
        "▁famous",
        -9.760974865711315
      ],
      [
        "▁sound",
        -9.76097646657813
      ],
      [
        "▁Ре",
        -9.761396951050472
      ],
      [
        "▁работает",
        -9.761465167425747
      ],
      [
        "During",
        -9.76149904425398
      ],
      [
        "вал",
        -9.761554582898135
      ],
      [
        "▁written",
        -9.762139243079602
      ],
      [
        "14",
        -9.762467849894366
      ],
      [
        "▁опыт",
        -9.763046499319977
      ],
      [
        ".\nУ",
        -9.76318032157491
      ],
      [
        ".\n3.",
        -9.763799612425627
      ],
      [
        "▁власти",
        -9.76663543714633
      ],
      [
        "Э",
        -9.766964838254518
      ],
      [
        "▁назад",
        -9.76749107662371
      ],
      [
        "11",
        -9.768288207756664
      ],
      [
        "З",
        -9.768998601487892
      ],
      [
        "жи",
        -9.769246392609915
      ],
      [
        "це",
        -9.769261297091472
      ],
      [
        "bo",
        -9.769828281750058
      ],
      [
        "22",
        -9.770653980240224
      ],
      [
        "▁reduce",
        -9.771036669226936
      ],
      [
        "ho",
        -9.771855093397477
      ],
      [
        "ур",
        -9.772559791228405
      ],
      [
        "▁organization",
        -9.772857050920232
      ],
      [
        "Thus,",
        -9.773159626991497
      ],
      [
        "▁решение",
        -9.773644230134462
      ],
      [
        "mb",
        -9.773683147202584
      ],
      [
        "лу",
        -9.77405628047405
      ],
      [
        ".\nAnd",
        -9.774852214950691
      ],
      [
        "▁нескольких",
        -9.776617945360895
      ],
      [
        "”.",
        -9.777091172801809
      ],
      [
        "уз",
        -9.777180199199016
      ],
      [
        "тель",
        -9.777330259013038
      ],
      [
        "“The",
        -9.777493502280215
      ],
      [
        "▁girl",
        -9.777556939304205
      ],
      [
        "вших",
        -9.778461878955612
      ],
      [
        "▁Bo",
        -9.779046267864269
      ],
      [
        "▁которым",
        -9.77941804919132
      ],
      [
        "▁international",
        -9.779476361012556
      ],
      [
        "уд",
        -9.77957332043328
      ],
      [
        "лы",
        -9.781091005770126
      ],
      [
        "ники",
        -9.781241859948732
      ],
      [
        "▁состав",
        -9.78143599108131
      ],
      [
        "▁determine",
        -9.78257592253901
      ],
      [
        "▁тысяч",
        -9.78355887404692
      ],
      [
        "▁годы",
        -9.783818909924376
      ],
      [
        "ход",
        -9.784087549279018
      ],
      [
        "▁21",
        -9.784163403158477
      ],
      [
        "▁season",
        -9.784994848095163
      ],
      [
        "тан",
        -9.785759939841522
      ],
      [
        "▁тела",
        -9.786026525436162
      ],
      [
        "▁сильно",
        -9.786854585662416
      ],
      [
        "▁points",
        -9.7894745994384
      ],
      [
        "sha",
        -9.790635690071102
      ],
      [
        "▁решения",
        -9.790857488735483
      ],
      [
        "▁making",
        -9.79133303628876
      ],
      [
        "▁22",
        -9.791399955529329
      ],
      [
        "if",
        -9.791697779917426
      ],
      [
        "▁total",
        -9.792168157936644
      ],
      [
        "lin",
        -9.79264892126916
      ],
      [
        "▁connection",
        -9.793669625904547
      ],
      [
        "▁example",
        -9.794530415110453
      ],
      [
        "bi",
        -9.794873756051604
      ],
      [
        "▁managed",
        -9.795065408251157
      ],
      [
        "▁character",
        -9.79560694886311
      ],
      [
        "▁tried",
        -9.796354772838743
      ],
      [
        "ож",
        -9.796980914934515
      ],
      [
        "▁прежде",
        -9.797396311041512
      ],
      [
        "▁British",
        -9.79756838399689
      ],
      [
        "▁pressure",
        -9.798176253456951
      ],
      [
        "▁friends",
        -9.798464147372458
      ],
      [
        "ющего",
        -9.798599855203005
      ],
      [
        "▁прямо",
        -9.79867011106977
      ],
      [
        "▁told",
        -9.79872095350327
      ],
      [
        "ang",
        -9.7989240744812
      ],
      [
        "▁люб",
        -9.799444311446033
      ],
      [
        "▁art",
        -9.799890525302366
      ],
      [
        "ям",
        -9.800294775957616
      ],
      [
        "za",
        -9.80048175047077
      ],
      [
        "▁says",
        -9.801054426441848
      ],
      [
        "▁Na",
        -9.8013700500149
      ],
      [
        "▁заявил",
        -9.801605408861665
      ],
      [
        "▁troops",
        -9.802577674347988
      ],
      [
        "▁Go",
        -9.802583021196527
      ],
      [
        "▁большой",
        -9.802726888852328
      ],
      [
        "▁force",
        -9.802789558483022
      ],
      [
        "28",
        -9.803005722537426
      ],
      [
        "▁seems",
        -9.80327514889576
      ],
      [
        "▁этому",
        -9.804422225184016
      ],
      [
        "▁работать",
        -9.804647859460646
      ],
      [
        "▁#",
        -9.804944700973222
      ],
      [
        "▁services",
        -9.805829399975623
      ],
      [
        "▁serious",
        -9.806217600158927
      ],
      [
        "▁terms",
        -9.806881994301676
      ],
      [
        "▁места",
        -9.80715460565642
      ],
      [
        "80",
        -9.807215079409866
      ],
      [
        "▁caused",
        -9.807936807503667
      ],
      [
        "▁д",
        -9.808769600886077
      ],
      [
        "▁Ta",
        -9.809014912578313
      ],
      [
        "▁какой",
        -9.809141196650396
      ],
      [
        "▁whom",
        -9.809589531346042
      ],
      [
        "ру",
        -9.80965232074909
      ],
      [
        "чат",
        -9.809739534734478
      ],
      [
        "▁сегодня",
        -9.809831803503885
      ],
      [
        "▁века",
        -9.809956319789803
      ],
      [
        "ирование",
        -9.810022860166926
      ],
      [
        "▁связан",
        -9.810037999357318
      ],
      [
        "▁основе",
        -9.810057570823576
      ],
      [
        "ki",
        -9.811305659561192
      ],
      [
        "мат",
        -9.811367855974026
      ],
      [
        "▁correct",
        -9.811470606813735
      ],
      [
        "▁avoid",
        -9.811606889081416
      ],
      [
        "▁members",
        -9.811982422710418
      ],
      [
        "ure",
        -9.812053311873536
      ],
      [
        "вод",
        -9.81206305971219
      ],
      [
        "▁court",
        -9.812155783177111
      ],
      [
        ".\nО",
        -9.812192237487231
      ],
      [
        "▁довольно",
        -9.81267960866332
      ],
      [
        "▁ваши",
        -9.81326808369577
      ],
      [
        "▁subject",
        -9.813598714488716
      ],
      [
        "▁помощи",
        -9.8137028923613
      ],
      [
        "17",
        -9.813884839189734
      ],
      [
        "▁design",
        -9.814301291115177
      ],
      [
        "ted",
        -9.814404014127884
      ],
      [
        "▁contact",
        -9.81442747561918
      ],
      [
        ".\n\"",
        -9.815079705809271
      ],
      [
        "ция",
        -9.815204040410665
      ],
      [
        ".\nПри",
        -9.815385607434257
      ],
      [
        "▁anything",
        -9.815580046353132
      ],
      [
        "овый",
        -9.815725778020298
      ],
      [
        "▁states",
        -9.81668407372409
      ],
      [
        "▁суд",
        -9.816771554596333
      ],
      [
        "вести",
        -9.8167888197672
      ],
      [
        "der",
        -9.817498509577264
      ],
      [
        "▁task",
        -9.817709630575145
      ],
      [
        "con",
        -9.817795285654787
      ],
      [
        "▁науч",
        -9.817908769508849
      ],
      [
        "▁wanted",
        -9.818015067936242
      ],
      [
        "▁Ka",
        -9.818722137164684
      ],
      [
        "associated",
        -9.818932974354569
      ],
      [
        "ible",
        -9.819066617622813
      ],
      [
        "▁любой",
        -9.819161094953476
      ],
      [
        "▁пер",
        -9.81954232721801
      ],
      [
        "▁имя",
        -9.81960005773986
      ],
      [
        "стоя",
        -9.8209241742591
      ],
      [
        "Р",
        -9.822059775690011
      ],
      [
        "13",
        -9.822524718248792
      ],
      [
        "▁enemy",
        -9.823089002290898
      ],
      [
        "нос",
        -9.823240360168482
      ],
      [
        "▁doctor",
        -9.824699285483211
      ],
      [
        "ize",
        -9.82475787737464
      ],
      [
        "ющая",
        -9.825309842982728
      ],
      [
        "лад",
        -9.825957682181809
      ],
      [
        "▁society",
        -9.826046993019656
      ],
      [
        "бл",
        -9.8270163077736
      ],
      [
        "▁слово",
        -9.827088109568876
      ],
      [
        "изма",
        -9.827102857173724
      ],
      [
        "при",
        -9.827135239076146
      ],
      [
        "▁народ",
        -9.827492270215387
      ],
      [
        "▁стала",
        -9.827636747603982
      ],
      [
        "▁типа",
        -9.827794742098591
      ],
      [
        "всю",
        -9.828335116484372
      ],
      [
        "▁parts",
        -9.82852754917197
      ],
      [
        "ают",
        -9.828553918509272
      ],
      [
        "▁students",
        -9.82863682725865
      ],
      [
        "▁music",
        -9.829014302333391
      ],
      [
        "▁bring",
        -9.82983618270194
      ],
      [
        "ге",
        -9.829860194632952
      ],
      [
        "▁time.",
        -9.830595302335263
      ],
      [
        "▁часов",
        -9.830757296988596
      ],
      [
        "▁temperature",
        -9.830782154893038
      ],
      [
        "ща",
        -9.830788346516291
      ],
      [
        "26",
        -9.83103114482989
      ],
      [
        "▁Ra",
        -9.83137952809869
      ],
      [
        "▁ready",
        -9.83197466415604
      ],
      [
        "▁уровня",
        -9.832219255051475
      ],
      [
        "▁directly",
        -9.83305263676883
      ],
      [
        "▁sp",
        -9.833229846000902
      ],
      [
        "rather",
        -9.833285948314597
      ],
      [
        "▁Ко",
        -9.833889568269214
      ],
      [
        "▁happened",
        -9.834251491094548
      ],
      [
        "▁report",
        -9.834481657703083
      ],
      [
        "▁brain",
        -9.834831849501114
      ],
      [
        "▁maintain",
        -9.835277436580038
      ],
      [
        "▁beautiful",
        -9.835669536242426
      ],
      [
        "oc",
        -9.836472478972016
      ],
      [
        "▁built",
        -9.836563445920977
      ],
      [
        "-либо",
        -9.83674567833988
      ],
      [
        ".com",
        -9.837190660356336
      ],
      [
        "▁son",
        -9.837208714679988
      ],
      [
        "▁ряд",
        -9.837481740445575
      ],
      [
        "▁силы",
        -9.838154937435675
      ],
      [
        "ический",
        -9.838847712826908
      ],
      [
        "▁noted",
        -9.839081883689625
      ],
      [
        "▁groups",
        -9.839132204943668
      ],
      [
        "́",
        -9.839142377557865
      ],
      [
        "▁them,",
        -9.83959704824258
      ],
      [
        "▁правило",
        -9.840381905992787
      ],
      [
        "dy",
        -9.840417298973213
      ],
      [
        "▁systems",
        -9.840725440179334
      ],
      [
        "▁постоянно",
        -9.840801805836676
      ],
      [
        "que",
        -9.84216049214684
      ],
      [
        "▁Now",
        -9.843437945494868
      ],
      [
        "ах.",
        -9.844644340429436
      ],
      [
        "▁region",
        -9.84494896071246
      ],
      [
        "ast",
        -9.846025605261945
      ],
      [
        "▁appear",
        -9.846082068251718
      ],
      [
        "ko",
        -9.846340687886007
      ],
      [
        "ja",
        -9.846436452392648
      ],
      [
        "бы",
        -9.847091331279238
      ],
      [
        "ден",
        -9.847804123468316
      ],
      [
        "▁самым",
        -9.84801934714984
      ],
      [
        "▁University",
        -9.8481329568062
      ],
      [
        "ner",
        -9.848850447182349
      ],
      [
        "▁долго",
        -9.848961780633507
      ],
      [
        "▁phone",
        -9.849369835189398
      ],
      [
        "мет",
        -9.850865924641422
      ],
      [
        "▁actually",
        -9.85090813219623
      ],
      [
        "▁Например,",
        -9.851617295364616
      ],
      [
        "ического",
        -9.85162626637331
      ],
      [
        "▁дел",
        -9.851856955279626
      ],
      [
        "▁operation",
        -9.851892498780227
      ],
      [
        "▁Germany",
        -9.8524448101971
      ],
      [
        "▁организации",
        -9.852986729229793
      ],
      [
        "▁игры",
        -9.853062724554476
      ],
      [
        "▁continue",
        -9.853485113360785
      ],
      [
        "▁разных",
        -9.85537823805155
      ],
      [
        "▁отношения",
        -9.855968790134582
      ],
      [
        "\n\n\n",
        -9.856155984969275
      ],
      [
        "▁walk",
        -9.856305991725597
      ],
      [
        "▁*",
        -9.856770290267184
      ],
      [
        "ье",
        -9.857042298470953
      ],
      [
        "▁э",
        -9.857175930076778
      ],
      [
        "▁former",
        -9.857244975123452
      ],
      [
        "▁доступ",
        -9.857373308350754
      ],
      [
        "ok",
        -9.858048464996658
      ],
      [
        "▁single",
        -9.858804319073936
      ],
      [
        "▁August",
        -9.859469378914063
      ],
      [
        "▁cut",
        -9.859516760301034
      ],
      [
        "▁materials",
        -9.859692726776958
      ],
      [
        "ол",
        -9.85980829308463
      ],
      [
        "▁ниже",
        -9.859851129643138
      ],
      [
        "ring",
        -9.860507063810138
      ],
      [
        "va",
        -9.860820140361168
      ],
      [
        "ей,",
        -9.86092948653108
      ],
      [
        "▁stop",
        -9.861725864241857
      ],
      [
        "▁информацию",
        -9.862212327878598
      ],
      [
        "▁co",
        -9.862481139853934
      ],
      [
        "чу",
        -9.862490126480475
      ],
      [
        "▁born",
        -9.863138709503868
      ],
      [
        "Х",
        -9.86355387836967
      ],
      [
        "▁France",
        -9.863663784765198
      ],
      [
        "▁capital",
        -9.86370513458907
      ],
      [
        "▁provided",
        -9.863780913345282
      ],
      [
        "ical",
        -9.864329422653322
      ],
      [
        "▁мой",
        -9.864426703726773
      ],
      [
        "сон",
        -9.86548510689314
      ],
      [
        "▁symptoms",
        -9.865653692919809
      ],
      [
        "▁communication",
        -9.865854964337686
      ],
      [
        "▁трех",
        -9.867108491417792
      ],
      [
        "▁final",
        -9.867834549141836
      ],
      [
        "▁State",
        -9.868094008258328
      ],
      [
        "но,",
        -9.868244585297557
      ],
      [
        "▁stress",
        -9.868323028309554
      ],
      [
        "▁Sa",
        -9.86845252077994
      ],
      [
        "Этот",
        -9.868480192580227
      ],
      [
        ".\n«",
        -9.868791334214654
      ],
      [
        "ide",
        -9.869415639956452
      ],
      [
        ".\nTo",
        -9.869646488316087
      ],
      [
        "23",
        -9.869905982297835
      ],
      [
        "▁управления",
        -9.870134994581395
      ],
      [
        "зы",
        -9.870947236570109
      ],
      [
        "▁использования",
        -9.871248805192172
      ],
      [
        "▁General",
        -9.87220257408711
      ],
      [
        "вашей",
        -9.872880088594153
      ],
      [
        "▁деятельности",
        -9.872919006542231
      ],
      [
        "лог",
        -9.872992393706705
      ],
      [
        "▁topic",
        -9.873449534408946
      ],
      [
        "лов",
        -9.873504641261857
      ],
      [
        "▁другими",
        -9.874071326230151
      ],
      [
        "Ч",
        -9.874440942334912
      ],
      [
        "▁range",
        -9.874630274615038
      ],
      [
        "▁Po",
        -9.875293538936964
      ],
      [
        "▁Pa",
        -9.875620790215493
      ],
      [
        "▁становится",
        -9.87570188353925
      ],
      [
        "▁mass",
        -9.87584806966361
      ],
      [
        "▁безопасности",
        -9.87621251732383
      ],
      [
        "▁week",
        -9.876397198565
      ],
      [
        "▁2.",
        -9.876725301312383
      ],
      [
        "▁rules",
        -9.876772862813684
      ],
      [
        "▁проект",
        -9.876902325249745
      ],
      [
        "▁onto",
        -9.876970232714724
      ],
      [
        "▁surface",
        -9.877454103422224
      ],
      [
        "▁formed",
        -9.8775580050493
      ],
      [
        "тар",
        -9.877589067029058
      ],
      [
        "▁начале",
        -9.877863943101064
      ],
      [
        "\nНа",
        -9.878385660902756
      ],
      [
        "kov",
        -9.878386339460212
      ],
      [
        "ант",
        -9.878740334365215
      ],
      [
        "▁женщин",
        -9.878980847338466
      ],
      [
        "▁система",
        -9.879451670825198
      ],
      [
        "mer",
        -9.879632642778663
      ],
      [
        "▁внутри",
        -9.879715873748342
      ],
      [
        "▁living",
        -9.87973219332092
      ],
      [
        "ирует",
        -9.880155626880956
      ],
      [
        "▁likely",
        -9.8803137971819
      ],
      [
        "▁средства",
        -9.88124255056666
      ],
      [
        "▁смерти",
        -9.881358268243746
      ],
      [
        "▁particular",
        -9.882240229855316
      ],
      [
        "ул",
        -9.882923287646912
      ],
      [
        "бр",
        -9.883371943811314
      ],
      [
        "▁совершенно",
        -9.883596536893297
      ],
      [
        "▁ago",
        -9.884000210726802
      ],
      [
        "▁protect",
        -9.886584785224237
      ],
      [
        "ров",
        -9.887055565458102
      ],
      [
        "▁creating",
        -9.887634938518277
      ],
      [
        "▁возможности",
        -9.887748737850712
      ],
      [
        "ability",
        -9.888000349978029
      ],
      [
        ".\nFor",
        -9.888582497817826
      ],
      [
        "▁price",
        -9.889219947527048
      ],
      [
        "▁точки",
        -9.889295790473172
      ],
      [
        "▁don’t",
        -9.890443912324727
      ],
      [
        "▁Вот",
        -9.890565592667643
      ],
      [
        "out",
        -9.891022549968747
      ],
      [
        "▁мои",
        -9.891541066221889
      ],
      [
        "\nК",
        -9.892162367601678
      ],
      [
        "▁else",
        -9.892251578821105
      ],
      [
        "ическая",
        -9.892477325042286
      ],
      [
        "ip",
        -9.892524051717402
      ],
      [
        "▁вообще",
        -9.892608763078512
      ],
      [
        "▁mean",
        -9.892731149090595
      ],
      [
        "нуть",
        -9.892775609197384
      ],
      [
        "▁additional",
        -9.89352132169669
      ],
      [
        "▁culture",
        -9.89360355069384
      ],
      [
        "▁letter",
        -9.894117124476702
      ],
      [
        "\nПо",
        -9.89428037261667
      ],
      [
        "▁upon",
        -9.89501617223074
      ],
      [
        "овая",
        -9.895771967873095
      ],
      [
        "▁strength",
        -9.895775340548138
      ],
      [
        "▁Эти",
        -9.895956297852464
      ],
      [
        "ig",
        -9.896125839061533
      ],
      [
        "вед",
        -9.896293761218896
      ],
      [
        "▁comes",
        -9.896808593589014
      ],
      [
        "▁throughout",
        -9.897005676218274
      ],
      [
        "ми.",
        -9.897250921118784
      ],
      [
        "gave",
        -9.89768514228105
      ],
      [
        "▁sense",
        -9.897872029157565
      ],
      [
        "▁gain",
        -9.898042682623378
      ],
      [
        "▁dog",
        -9.898503181658564
      ],
      [
        "▁opinion",
        -9.898698439644392
      ],
      [
        "▁foreign",
        -9.89958067665978
      ],
      [
        "ён",
        -9.89975115393967
      ],
      [
        "▁Here",
        -9.899924979625624
      ],
      [
        "32",
        -9.90015436068846
      ],
      [
        "▁reported",
        -9.90040423576126
      ],
      [
        "▁easily",
        -9.902085776184665
      ],
      [
        "▁Ha",
        -9.902615678596842
      ],
      [
        "▁долларов",
        -9.902742448883757
      ],
      [
        "▁voice",
        -9.90363417042314
      ],
      [
        "▁нем",
        -9.903764689871307
      ],
      [
        "▁тебе",
        -9.903804061373714
      ],
      [
        "|\n",
        -9.90381530023224
      ],
      [
        "-2",
        -9.905402042502311
      ],
      [
        "вший",
        -9.905850256625
      ],
      [
        "▁March",
        -9.905876211547634
      ],
      [
        "кан",
        -9.905910449509811
      ],
      [
        "▁October",
        -9.905942350650692
      ],
      [
        "▁party",
        -9.906170582903185
      ],
      [
        "▁Мо",
        -9.90671069417826
      ],
      [
        "▁равно",
        -9.90690809859877
      ],
      [
        "▁St",
        -9.907038906404962
      ],
      [
        "▁тут",
        -9.90711918368952
      ],
      [
        "ностью",
        -9.907227155072286
      ],
      [
        "▁becomes",
        -9.908013384253298
      ],
      [
        "▁выход",
        -9.908273029342505
      ],
      [
        "▁зависимости",
        -9.90852513852166
      ],
      [
        "▁новые",
        -9.908601271061752
      ],
      [
        "Чтобы",
        -9.909703898466732
      ],
      [
        "▁практически",
        -9.91044267750898
      ],
      [
        "▁China",
        -9.910594285521604
      ],
      [
        "au",
        -9.910638126329596
      ],
      [
        "po",
        -9.911372808339918
      ],
      [
        "олог",
        -9.91171179611025
      ],
      [
        "27",
        -9.912659705349077
      ],
      [
        "▁six",
        -9.912671680618049
      ],
      [
        "ющим",
        -9.913063144053472
      ],
      [
        "▁нашей",
        -9.913532875004892
      ],
      [
        "▁played",
        -9.913843014042236
      ],
      [
        "▁started",
        -9.91392478905313
      ],
      [
        "▁normal",
        -9.914970367204267
      ],
      [
        "▁23",
        -9.915155923702669
      ],
      [
        "▁develop",
        -9.916435128879751
      ],
      [
        "▁своем",
        -9.916508827120696
      ],
      [
        "▁wrote",
        -9.91663427213208
      ],
      [
        "▁пыта",
        -9.916707973875544
      ],
      [
        "ика",
        -9.917080861465804
      ],
      [
        "▁added",
        -9.917081466929003
      ],
      [
        "03",
        -9.917597032965707
      ],
      [
        "lan",
        -9.91769547903274
      ],
      [
        "mi",
        -9.91824140688276
      ],
      [
        "▁года.",
        -9.918497639373816
      ],
      [
        "▁Ro",
        -9.918987746698896
      ],
      [
        "▁(с",
        -9.91901248257144
      ],
      [
        "ster",
        -9.919273908189016
      ],
      [
        "ach",
        -9.919524995374893
      ],
      [
        "▁движения",
        -9.919693227093886
      ],
      [
        "▁elements",
        -9.919954910432244
      ],
      [
        "den",
        -9.920548182699736
      ],
      [
        "▁machine",
        -9.920869110150925
      ],
      [
        "▁дом",
        -9.921165150877888
      ],
      [
        "▁formation",
        -9.921639534643708
      ],
      [
        "▁required",
        -9.921748829663157
      ],
      [
        "▁environment",
        -9.921787322585484
      ],
      [
        "▁Кон",
        -9.922401854598617
      ],
      [
        "▁состояние",
        -9.922481789934622
      ],
      [
        "▁первой",
        -9.923067120203056
      ],
      [
        "атор",
        -9.92344363217733
      ],
      [
        "▁sea",
        -9.923459115327804
      ],
      [
        "▁damage",
        -9.923721884815556
      ],
      [
        "▁мест",
        -9.924188122918109
      ],
      [
        "▁rights",
        -9.924243162283869
      ],
      [
        "▁territory",
        -9.92439558777174
      ],
      [
        "ec",
        -9.925289084523696
      ],
      [
        "▁diseases",
        -9.925625529721236
      ],
      [
        "▁got",
        -9.92567755104408
      ],
      [
        "▁руки",
        -9.925733354215874
      ],
      [
        "▁looking",
        -9.925999458115392
      ],
      [
        "▁работе",
        -9.926655019274731
      ],
      [
        "▁2020",
        -9.926832477060236
      ],
      [
        "тра",
        -9.926943377189936
      ],
      [
        "▁пути",
        -9.927072763402707
      ],
      [
        "енные",
        -9.927359709976177
      ],
      [
        "vi",
        -9.927422186346933
      ],
      [
        "▁&",
        -9.927798564201622
      ],
      [
        "▁государства",
        -9.92801236394594
      ],
      [
        "▁official",
        -9.928954453018132
      ],
      [
        "Также",
        -9.929047176462449
      ],
      [
        "▁decision",
        -9.929234265052708
      ],
      [
        "гр",
        -9.930237385713063
      ],
      [
        "оп",
        -9.930792080639335
      ],
      [
        "ub",
        -9.931178104417326
      ],
      [
        "рас",
        -9.931499125125134
      ],
      [
        "▁программы",
        -9.931976513515297
      ],
      [
        "▁множество",
        -9.93276433651094
      ],
      [
        "▁крови",
        -9.93302881281116
      ],
      [
        "▁риск",
        -9.933029557191832
      ],
      [
        "▁года,",
        -9.933046155354557
      ],
      [
        "▁стало",
        -9.933609991479504
      ],
      [
        "▁новый",
        -9.93401210478604
      ],
      [
        ".\nНо",
        -9.934416027168185
      ],
      [
        "▁людей,",
        -9.934526115669769
      ],
      [
        "Q",
        -9.935015383584972
      ],
      [
        "45",
        -9.935054030026034
      ],
      [
        "▁ж",
        -9.935361953474468
      ],
      [
        "35",
        -9.9366565846763
      ],
      [
        "ия,",
        -9.93701165587322
      ],
      [
        "05",
        -9.937039706495542
      ],
      [
        "▁Some",
        -9.937628951662926
      ],
      [
        "▁September",
        -9.938040664725898
      ],
      [
        "▁constantly",
        -9.938619631133244
      ],
      [
        "▁род",
        -9.938682625577425
      ],
      [
        "▁anyone",
        -9.939196516204666
      ],
      [
        "▁forms",
        -9.939588628432746
      ],
      [
        "▁buy",
        -9.93997309649019
      ],
      [
        "?”",
        -9.94000478096777
      ],
      [
        "by",
        -9.94054038931124
      ],
      [
        "▁степени",
        -9.940738403148874
      ],
      [
        "▁создан",
        -9.940875882099173
      ],
      [
        "▁America",
        -9.941025047722349
      ],
      [
        "альный",
        -9.941052066651173
      ],
      [
        "▁President",
        -9.941473263978372
      ],
      [
        "ning",
        -9.941978042935474
      ],
      [
        "▁solution",
        -9.942685844235395
      ],
      [
        "▁Ar",
        -9.943951627508811
      ],
      [
        "▁remains",
        -9.94396118464997
      ],
      [
        "▁police",
        -9.944444239313302
      ],
      [
        ".\nWhat",
        -9.944698371803156
      ],
      [
        "▁remained",
        -9.944699631325902
      ],
      [
        "▁ground",
        -9.944765614261993
      ],
      [
        "gi",
        -9.944862859164306
      ],
      [
        "ze",
        -9.94510895595541
      ],
      [
        "▁новых",
        -9.945170143201748
      ],
      [
        "▁performed",
        -9.945239983741349
      ],
      [
        "▁компьютер",
        -9.94526729534836
      ],
      [
        "▁расположен",
        -9.945421339047105
      ],
      [
        "▁features",
        -9.945457053796524
      ],
      [
        "▁Your",
        -9.945952357140197
      ],
      [
        "▁част",
        -9.94606785005009
      ],
      [
        "▁memory",
        -9.946190968498868
      ],
      [
        "min",
        -9.946263809278024
      ],
      [
        "▁self-",
        -9.947025812167873
      ],
      [
        "▁January",
        -9.947479133397112
      ],
      [
        "тен",
        -9.947512204233398
      ],
      [
        "▁текст",
        -9.948012217484392
      ],
      [
        "ep",
        -9.948350959132291
      ],
      [
        "ски",
        -9.949154742102746
      ],
      [
        "лан",
        -9.94935119429146
      ],
      [
        "▁200",
        -9.949565976123434
      ],
      [
        "шу",
        -9.94998539108849
      ],
      [
        "red",
        -9.94999781106938
      ],
      [
        "!”",
        -9.950114372836191
      ],
      [
        "▁match",
        -9.950474389708669
      ],
      [
        "чин",
        -9.950964091163849
      ],
      [
        "▁useful",
        -9.95129278065765
      ],
      [
        "▁вокруг",
        -9.951823420394696
      ],
      [
        "▁зрения",
        -9.951974442276612
      ],
      [
        "▁ведь",
        -9.952804693276006
      ],
      [
        "▁ребенка",
        -9.952945091303024
      ],
      [
        "tro",
        -9.953317522267309
      ],
      [
        "▁Ан",
        -9.95335510864833
      ],
      [
        "▁делает",
        -9.953554102744713
      ],
      [
        "▁чер",
        -9.9538850167269
      ],
      [
        "▁concept",
        -9.954042578410291
      ],
      [
        "▁base",
        -9.954230302740337
      ],
      [
        "▁achieve",
        -9.95429758702605
      ],
      [
        "▁cold",
        -9.954475723938849
      ],
      [
        "▁user",
        -9.954776555792009
      ],
      [
        "ент",
        -9.954954785855058
      ],
      [
        "▁Europe",
        -9.955309530219289
      ],
      [
        "▁Of",
        -9.95550767459394
      ],
      [
        "q",
        -9.955540814485596
      ],
      [
        "▁Ю",
        -9.955553870390558
      ],
      [
        "ием",
        -9.955665991980862
      ],
      [
        "▁dry",
        -9.955806990305918
      ],
      [
        "▁понять",
        -9.95623417924062
      ],
      [
        "▁знаю",
        -9.956236026524063
      ],
      [
        "▁named",
        -9.956610264944754
      ],
      [
        "▁языка",
        -9.956703838941
      ],
      [
        "Затем",
        -9.956751921029316
      ],
      [
        "▁direct",
        -9.95807026092528
      ],
      [
        "▁established",
        -9.958606356602514
      ],
      [
        "▁wife",
        -9.958820990782812
      ],
      [
        "ek",
        -9.958992883162436
      ],
      [
        "▁существует",
        -9.959438672840752
      ],
      [
        ".\nHow",
        -9.960048027930762
      ],
      [
        "▁sign",
        -9.960350135600663
      ],
      [
        "ала",
        -9.96043398750524
      ],
      [
        "▁ними",
        -9.96065830897252
      ],
      [
        "▁Red",
        -9.960935856635642
      ],
      [
        ".\nOn",
        -9.961010567875856
      ],
      [
        "▁СССР",
        -9.961016450725944
      ],
      [
        "ды",
        -9.96143559222014
      ],
      [
        "▁территории",
        -9.961503688443203
      ],
      [
        "▁лица",
        -9.962504114331018
      ],
      [
        "▁иногда",
        -9.96405934799487
      ],
      [
        "лей",
        -9.96432356284769
      ],
      [
        "ед",
        -9.964747899843852
      ],
      [
        "ступ",
        -9.964965769038509
      ],
      [
        "▁him.",
        -9.964988680525549
      ],
      [
        "▁Vi",
        -9.965283445075
      ],
      [
        ".\nC",
        -9.965449313930996
      ],
      [
        "▁такого",
        -9.96595797925612
      ],
      [
        "▁(the",
        -9.966059270562534
      ],
      [
        "▁2016",
        -9.966071152498916
      ],
      [
        "09",
        -9.96612627825976
      ],
      [
        "mon",
        -9.966221569305343
      ],
      [
        "вшие",
        -9.966400166186316
      ],
      [
        "▁worked",
        -9.966427678744877
      ],
      [
        "▁diet",
        -9.966525181774225
      ],
      [
        "▁включая",
        -9.966784989799857
      ],
      [
        "фер",
        -9.966887382457358
      ],
      [
        "▁вес",
        -9.967341754611956
      ],
      [
        "we",
        -9.967375369607808
      ],
      [
        ".\nНе",
        -9.9675806437144
      ],
      [
        "ler",
        -9.968390770755835
      ],
      [
        "пл",
        -9.96864871166768
      ],
      [
        "▁Sp",
        -9.96882657006346
      ],
      [
        "▁That",
        -9.969641189109598
      ],
      [
        "port",
        -9.969823837823304
      ],
      [
        "\nThis",
        -9.96998224639311
      ],
      [
        "▁below",
        -9.970199363445843
      ],
      [
        "▁activities",
        -9.970568179454476
      ],
      [
        "▁complete",
        -9.97072392286818
      ],
      [
        ".\nAs",
        -9.970852600979336
      ],
      [
        "tu",
        -9.970937649946237
      ],
      [
        "▁rule",
        -9.97135340355139
      ],
      [
        "▁Can",
        -9.971948985412755
      ],
      [
        "▁совсем",
        -9.972495626142754
      ],
      [
        "▁education",
        -9.972740312993947
      ],
      [
        "▁meet",
        -9.973731364809062
      ],
      [
        "▁dark",
        -9.973748999489809
      ],
      [
        "ству",
        -9.97384255972423
      ],
      [
        "▁Ne",
        -9.973978519956455
      ],
      [
        "02",
        -9.97422332310683
      ],
      [
        "нет",
        -9.974913129628211
      ],
      [
        "▁appearance",
        -9.975088862582847
      ],
      [
        "▁60",
        -9.975529439269394
      ],
      [
        "ван",
        -9.975536460646618
      ],
      [
        "▁legal",
        -9.976179184516203
      ],
      [
        "ток",
        -9.97628313371708
      ],
      [
        "▁USSR",
        -9.97668829126624
      ],
      [
        "▁loss",
        -9.9777734473865
      ],
      [
        "▁bar",
        -9.977778197208671
      ],
      [
        "▁potential",
        -9.978783106950312
      ],
      [
        "▁ту",
        -9.97923013071312
      ],
      [
        "мин",
        -9.979713482875836
      ],
      [
        "▁одну",
        -9.979758079279195
      ],
      [
        "▁Lo",
        -9.979821494374526
      ],
      [
        "юсь",
        -9.980557248387935
      ],
      [
        "99",
        -9.98060587957039
      ],
      [
        "Since",
        -9.980817926284514
      ],
      [
        "▁каждого",
        -9.981512740114953
      ],
      [
        "▁section",
        -9.981542943816816
      ],
      [
        "▁lack",
        -9.98157366387546
      ],
      [
        "ены",
        -9.981749860168968
      ],
      [
        "▁bad",
        -9.98269537633987
      ],
      [
        "ание",
        -9.982702632163068
      ],
      [
        "ll",
        -9.982899178082546
      ],
      [
        "▁press",
        -9.98294027028962
      ],
      [
        "▁Man",
        -9.983193745625805
      ],
      [
        "▁reasons",
        -9.98339917344992
      ],
      [
        "ений",
        -9.983492201079647
      ],
      [
        "▁patient",
        -9.98372964415194
      ],
      [
        "ее",
        -9.985734004278866
      ],
      [
        "▁ones",
        -9.98623201069288
      ],
      [
        "▁growth",
        -9.986267759541937
      ],
      [
        "▁heat",
        -9.98642531563443
      ],
      [
        "став",
        -9.986847449482845
      ],
      [
        "▁факт",
        -9.986888108563312
      ],
      [
        "▁армии",
        -9.987074457802397
      ],
      [
        "▁stated",
        -9.987113225158712
      ],
      [
        "zh",
        -9.987803666808365
      ],
      [
        "60",
        -9.987895931681056
      ],
      [
        ".\nМ",
        -9.987898751430093
      ],
      [
        "▁та",
        -9.988026403047842
      ],
      [
        "er,",
        -9.9885453189175
      ],
      [
        "▁looked",
        -9.989027079454829
      ],
      [
        "▁число",
        -9.989203027624798
      ],
      [
        "▁функции",
        -9.989621256797196
      ],
      [
        "01",
        -9.989813067845606
      ],
      [
        "▁opportunity",
        -9.989893098929578
      ],
      [
        "▁step",
        -9.990292649184912
      ],
      [
        "Ж",
        -9.99159163876069
      ],
      [
        "зд",
        -9.991630039928898
      ],
      [
        "▁cells",
        -9.991755178438416
      ],
      [
        "▁образ",
        -9.991783352481855
      ],
      [
        "▁reports",
        -9.991899414528527
      ],
      [
        "▁easy",
        -9.991952604182972
      ],
      [
        "ship",
        -9.992028615321512
      ],
      [
        "▁term",
        -9.992185808291868
      ],
      [
        "▁causes",
        -9.992390010312024
      ],
      [
        "▁знать",
        -9.992527452600168
      ],
      [
        "▁случаях",
        -9.99394735863309
      ],
      [
        "▁fall",
        -9.99412357724364
      ],
      [
        "▁Га",
        -9.994422104793667
      ],
      [
        "▁theory",
        -9.99475874867166
      ],
      [
        "▁trying",
        -9.995034686295272
      ],
      [
        "▁previous",
        -9.995318232458686
      ],
      [
        "▁approximately",
        -9.995672674925734
      ],
      [
        "▁June",
        -9.995911639905923
      ],
      [
        "▁условиях",
        -9.997039770939262
      ],
      [
        "▁active",
        -9.997131033426934
      ],
      [
        "▁July",
        -9.997271163412352
      ],
      [
        "▁effective",
        -9.997652552717131
      ],
      [
        "▁2017",
        -9.997760529378334
      ],
      [
        "▁​​",
        -9.998131717614626
      ],
      [
        "▁direction",
        -9.998161535413251
      ],
      [
        "▁plant",
        -9.998264342991243
      ],
      [
        "▁самого",
        -9.99833829274521
      ],
      [
        "▁success",
        -9.99856062961856
      ],
      [
        "▁seen",
        -9.998603669603796
      ],
      [
        "▁salt",
        -9.998953095819145
      ],
      [
        "chi",
        -9.998989249096391
      ],
      [
        "▁начал",
        -9.999324049535156
      ],
      [
        "act",
        -9.99943129259202
      ],
      [
        "...\n",
        -9.999945926003711
      ],
      [
        "▁ten",
        -10.000166027199086
      ],
      [
        "▁удар",
        -10.000910595124813
      ],
      [
        "▁stay",
        -10.000990661645686
      ],
      [
        "▁Su",
        -10.001389429351352
      ],
      [
        "енный",
        -10.001563511795162
      ],
      [
        "▁проблема",
        -10.001973041093017
      ],
      [
        "▁scientific",
        -10.002601703466276
      ],
      [
        "▁создать",
        -10.002867663543222
      ],
      [
        "▁improve",
        -10.00322881359494
      ],
      [
        "▁April",
        -10.004323187391584
      ],
      [
        "tor",
        -10.004455980944398
      ],
      [
        "▁levels",
        -10.005864850795632
      ],
      [
        "▁примерно",
        -10.006486145700624
      ],
      [
        "▁закон",
        -10.006564850222686
      ],
      [
        "▁представляет",
        -10.006695934594552
      ],
      [
        "▁style",
        -10.006999810726958
      ],
      [
        "▁figure",
        -10.007341894996095
      ],
      [
        "▁construction",
        -10.007751447554648
      ],
      [
        "▁Bar",
        -10.00785612640061
      ],
      [
        "▁star",
        -10.00825254403669
      ],
      [
        "▁2014",
        -10.008257523974423
      ],
      [
        "▁слов",
        -10.008460498865883
      ],
      [
        "▁equal",
        -10.0089365735425
      ],
      [
        "▁2019",
        -10.009163064768966
      ],
      [
        "▁allowed",
        -10.009810927413668
      ],
      [
        "▁используется",
        -10.010468151366949
      ],
      [
        "▁свобод",
        -10.010763144569314
      ],
      [
        "▁(in",
        -10.010871958795043
      ],
      [
        "▁ancient",
        -10.0110983305181
      ],
      [
        "▁USA",
        -10.011390380623334
      ],
      [
        "▁вкус",
        -10.011581327406802
      ],
      [
        "▁deal",
        -10.011804170366634
      ],
      [
        "ens",
        -10.011949272859267
      ],
      [
        "▁точно",
        -10.01200548595031
      ],
      [
        "▁глаза",
        -10.012721161036122
      ],
      [
        "пад",
        -10.012934330059768
      ],
      [
        "▁internal",
        -10.01385199152576
      ],
      [
        "▁select",
        -10.014495767983975
      ],
      [
        "so",
        -10.015095316361595
      ],
      [
        "овым",
        -10.015216308285966
      ],
      [
        "▁Ку",
        -10.01535538931743
      ],
      [
        "▁impossible",
        -10.015360437169065
      ],
      [
        "щ",
        -10.015613172061745
      ],
      [
        "▁мо",
        -10.0160765886821
      ],
      [
        "▁starting",
        -10.016553940407627
      ],
      [
        "▁особ",
        -10.017494404063418
      ],
      [
        "▁title",
        -10.017830409937153
      ],
      [
        ".\nBut",
        -10.018145329576338
      ],
      [
        "▁presence",
        -10.01936240349974
      ],
      [
        "▁factors",
        -10.019610194761295
      ],
      [
        "пр",
        -10.019748831237337
      ],
      [
        "▁composition",
        -10.019807188429208
      ],
      [
        "ины",
        -10.020720092207071
      ],
      [
        "▁Ле",
        -10.02176612255196
      ],
      [
        "▁Mar",
        -10.02199544582248
      ],
      [
        "▁option",
        -10.023342267101382
      ],
      [
        "▁event",
        -10.023772221884682
      ],
      [
        "▁December",
        -10.023828268229462
      ],
      [
        "▁battle",
        -10.024015027070854
      ],
      [
        "▁numerous",
        -10.024137773317683
      ],
      [
        "90",
        -10.025079547759429
      ],
      [
        ".\n4.",
        -10.025135745250894
      ],
      [
        "▁ф",
        -10.025426915206468
      ],
      [
        "ера",
        -10.026118090930328
      ],
      [
        "▁ways",
        -10.0263679512541
      ],
      [
        "hi",
        -10.026924787276618
      ],
      [
        "▁cost",
        -10.027400606190394
      ],
      [
        ".\nHe",
        -10.027661253032788
      ],
      [
        "▁крас",
        -10.027818491543751
      ],
      [
        "▁ситуации",
        -10.028617478489677
      ],
      [
        "29",
        -10.029218246924671
      ],
      [
        "▁fell",
        -10.02926956285626
      ],
      [
        "▁hundred",
        -10.029607551125832
      ],
      [
        "▁November",
        -10.02990189345416
      ],
      [
        "▁significantly",
        -10.030500075862426
      ],
      [
        "▁Ди",
        -10.03063341414347
      ],
      [
        "▁positive",
        -10.030767377788344
      ],
      [
        "▁полу",
        -10.031063729332445
      ],
      [
        "ред",
        -10.031549744412462
      ],
      [
        "▁begin",
        -10.03160918845131
      ],
      [
        "yl",
        -10.032084110939092
      ],
      [
        "стер",
        -10.03217065380726
      ],
      [
        "hu",
        -10.032368826793633
      ],
      [
        "▁заболевания",
        -10.032422271480804
      ],
      [
        "▁inside",
        -10.034346674198868
      ],
      [
        "▁screen",
        -10.0344495565483
      ],
      [
        ".\nЭто",
        -10.0344854499469
      ],
      [
        "47",
        -10.03450139061245
      ],
      [
        "▁начина",
        -10.034548983362972
      ],
      [
        "▁имени",
        -10.034617832603042
      ],
      [
        "▁friend",
        -10.034718779523471
      ],
      [
        "▁morning",
        -10.035055079828092
      ],
      [
        "▁issue",
        -10.035099483884428
      ],
      [
        "$",
        -10.035117697008507
      ],
      [
        "▁2018",
        -10.03520076878082
      ],
      [
        "▁huge",
        -10.03523540239804
      ],
      [
        "▁files",
        -10.03534932200608
      ],
      [
        "▁тип",
        -10.03637894106675
      ],
      [
        "▁En",
        -10.036396603882116
      ],
      [
        "▁благодаря",
        -10.036594198357433
      ],
      [
        "▁деньги",
        -10.036692108623138
      ],
      [
        "▁enter",
        -10.036705417185267
      ],
      [
        "тов",
        -10.036776474562409
      ],
      [
        "емых",
        -10.036796828927418
      ],
      [
        ".\nБ",
        -10.037082483996148
      ],
      [
        "▁released",
        -10.037150036842888
      ],
      [
        "▁Why",
        -10.037201779568312
      ],
      [
        "▁sleep",
        -10.037397911143463
      ],
      [
        ".\nB",
        -10.037674533269112
      ],
      [
        "▁lose",
        -10.037809758295912
      ],
      [
        "▁instead",
        -10.037840966057049
      ],
      [
        "▁deep",
        -10.03793718847768
      ],
      [
        "шей",
        -10.037937295941369
      ],
      [
        "▁remain",
        -10.038330903736204
      ],
      [
        "▁brought",
        -10.0383491672794
      ],
      [
        "▁файл",
        -10.038510271702782
      ],
      [
        "ген",
        -10.038772082547208
      ],
      [
        "ющее",
        -10.039159964557465
      ],
      [
        "▁код",
        -10.039587265022996
      ],
      [
        "▁противо",
        -10.039660704417043
      ],
      [
        "▁ensure",
        -10.039787168624962
      ],
      [
        "▁Раз",
        -10.03997425987746
      ],
      [
        "▁meeting",
        -10.04002127746092
      ],
      [
        "▁media",
        -10.040424325418831
      ],
      [
        "▁Ho",
        -10.040456757764597
      ],
      [
        "our",
        -10.040498088519584
      ],
      [
        "три",
        -10.041182593652517
      ],
      [
        "▁своими",
        -10.041729803869712
      ],
      [
        "▁continued",
        -10.042102493340046
      ],
      [
        "ana",
        -10.042650644254026
      ],
      [
        "▁understanding",
        -10.042707598115632
      ],
      [
        "▁значит",
        -10.042732504607848
      ],
      [
        "▁автор",
        -10.043098730878931
      ],
      [
        "▁patients",
        -10.043529861673896
      ],
      [
        "s.\n",
        -10.044171016416238
      ],
      [
        "▁2012",
        -10.044181601919714
      ],
      [
        "my",
        -10.044447462509078
      ],
      [
        "▁science",
        -10.044636736751226
      ],
      [
        "сп",
        -10.044992010101724
      ],
      [
        "▁clearly",
        -10.045418800293607
      ],
      [
        "чет",
        -10.045620453717303
      ],
      [
        "дать",
        -10.045782857170844
      ],
      [
        "▁leading",
        -10.046161365128086
      ],
      [
        "▁slightly",
        -10.046702361137935
      ],
      [
        "ках",
        -10.04683971998566
      ],
      [
        "▁име",
        -10.04736823552277
      ],
      [
        "▁analysis",
        -10.048029492675596
      ],
      [
        "нес",
        -10.0483382705039
      ],
      [
        "ator",
        -10.0483945658422
      ],
      [
        "▁dream",
        -10.048672561976849
      ],
      [
        "▁parents",
        -10.049073197474833
      ],
      [
        "▁нельзя",
        -10.0498048008767
      ],
      [
        "дж",
        -10.050013735286065
      ],
      [
        "▁другим",
        -10.050028669037916
      ],
      [
        "пис",
        -10.050359650927424
      ],
      [
        "ley",
        -10.050595007956105
      ],
      [
        "▁felt",
        -10.050909978513497
      ],
      [
        "ева",
        -10.0511839078828
      ],
      [
        "▁financial",
        -10.0513332396323
      ],
      [
        "ash",
        -10.051533451847089
      ],
      [
        "ren",
        -10.051643770529058
      ],
      [
        "▁management",
        -10.051868871102709
      ],
      [
        "net",
        -10.052315682589764
      ],
      [
        "▁различные",
        -10.05286896160473
      ],
      [
        "ell",
        -10.052921316164252
      ],
      [
        "▁рядом",
        -10.054057414856878
      ],
      [
        "▁warm",
        -10.055023162962256
      ],
      [
        ".\nДля",
        -10.055307258320012
      ],
      [
        "▁performance",
        -10.055318526033211
      ],
      [
        "▁2010",
        -10.05559996662302
      ],
      [
        "▁стар",
        -10.05578695096404
      ],
      [
        "▁send",
        -10.05598244687068
      ],
      [
        "етесь",
        -10.056238982699728
      ],
      [
        "вел",
        -10.056264230011848
      ],
      [
        "▁volume",
        -10.056300516914188
      ],
      [
        "▁относительно",
        -10.056848201051457
      ],
      [
        "ень",
        -10.05706403402859
      ],
      [
        "vo",
        -10.057133503766424
      ],
      [
        "▁Gu",
        -10.057135391113665
      ],
      [
        "▁passed",
        -10.057218021944076
      ],
      [
        "рак",
        -10.057395170816951
      ],
      [
        "▁голов",
        -10.057430741006376
      ],
      [
        "▁enjoy",
        -10.057540351202007
      ],
      [
        "▁№",
        -10.05766380700614
      ],
      [
        "▁взгляд",
        -10.058261655370966
      ],
      [
        "».\n",
        -10.058301956284946
      ],
      [
        "▁самое",
        -10.058362069300324
      ],
      [
        "▁outside",
        -10.058464461102249
      ],
      [
        "▁office",
        -10.058511481352395
      ],
      [
        "▁approach",
        -10.05907512763944
      ],
      [
        "▁forward",
        -10.059148722984196
      ],
      [
        "▁стандарт",
        -10.059231389866955
      ],
      [
        "▁той",
        -10.059419476610282
      ],
      [
        "▁gas",
        -10.059590572626185
      ],
      [
        "нь",
        -10.060446454908854
      ],
      [
        "▁отдельны",
        -10.060656933065744
      ],
      [
        "▁Ма",
        -10.06102678115221
      ],
      [
        "▁me,",
        -10.061104017969123
      ],
      [
        "▁очередь",
        -10.06173686268926
      ],
      [
        "мент",
        -10.062119111064206
      ],
      [
        "▁средств",
        -10.06273634613576
      ],
      [
        "▁вариант",
        -10.063296889915197
      ],
      [
        "▁address",
        -10.063683310679409
      ],
      [
        "ries",
        -10.063925163212428
      ],
      [
        "ели",
        -10.063944596328728
      ],
      [
        "нима",
        -10.064291409366328
      ],
      [
        "▁имел",
        -10.064960230203996
      ],
      [
        "▁Pi",
        -10.065769162397132
      ],
      [
        "▁2015",
        -10.065770226165457
      ],
      [
        ".\nЗа",
        -10.066124210167397
      ],
      [
        "▁“I",
        -10.066331297303408
      ],
      [
        "07",
        -10.06653544646651
      ],
      [
        "▁date",
        -10.06685610367182
      ],
      [
        "воз",
        -10.067022223488562
      ],
      [
        "▁interest",
        -10.067149588656278
      ],
      [
        "▁лечения",
        -10.067408276744953
      ],
      [
        "▁York",
        -10.067941855093355
      ],
      [
        "Теперь",
        -10.068175503873794
      ],
      [
        "▁название",
        -10.068353220973222
      ],
      [
        "▁выбор",
        -10.068466241190244
      ],
      [
        "ём",
        -10.06936890320299
      ],
      [
        "▁ideas",
        -10.069453381829728
      ],
      [
        "▁worth",
        -10.070050625142285
      ],
      [
        "▁3.",
        -10.070084781856565
      ],
      [
        "▁известно",
        -10.070197342439284
      ],
      [
        "рис",
        -10.070222765785417
      ],
      [
        "фи",
        -10.07023801728537
      ],
      [
        ".\nWhen",
        -10.070338823662649
      ],
      [
        "ger",
        -10.07040168554702
      ],
      [
        "che",
        -10.07138475742518
      ],
      [
        "\nМ",
        -10.071757803427415
      ],
      [
        "▁команды",
        -10.072636406747382
      ],
      [
        "▁причин",
        -10.072663035939092
      ],
      [
        "▁Ну",
        -10.072775301907068
      ],
      [
        "гер",
        -10.072916566758405
      ],
      [
        ".\nT",
        -10.073075985034386
      ],
      [
        "ган",
        -10.073123706245164
      ],
      [
        "ств",
        -10.073179423142047
      ],
      [
        "ological",
        -10.073475888849469
      ],
      [
        "▁included",
        -10.07354518413917
      ],
      [
        "gen",
        -10.073612942857787
      ],
      [
        "▁широко",
        -10.074114925014042
      ],
      [
        "▁Mi",
        -10.075371950160507
      ],
      [
        "ations",
        -10.075797175896502
      ],
      [
        "▁reached",
        -10.075869580127796
      ],
      [
        "▁решил",
        -10.07647186812315
      ],
      [
        "▁includes",
        -10.076910411325963
      ],
      [
        "▁труд",
        -10.07749503251628
      ],
      [
        "Таким",
        -10.07750754447485
      ],
      [
        "▁act",
        -10.077720781374234
      ],
      [
        "▁наши",
        -10.078077026877043
      ],
      [
        "▁la",
        -10.078112324733972
      ],
      [
        "ики",
        -10.078243606476605
      ],
      [
        "}",
        -10.078306550743124
      ],
      [
        "▁Тем",
        -10.078962804339756
      ],
      [
        "альной",
        -10.07959280671882
      ],
      [
        "▁equipment",
        -10.079778060568476
      ],
      [
        "▁green",
        -10.079821296811044
      ],
      [
        "▁reach",
        -10.080180520531984
      ],
      [
        "▁presented",
        -10.080248866520494
      ],
      [
        "▁fully",
        -10.08029680316914
      ],
      [
        "▁distance",
        -10.080841410114775
      ],
      [
        "▁языке",
        -10.08093913226686
      ],
      [
        "▁external",
        -10.081071139860803
      ],
      [
        "▁кажется",
        -10.081924353525975
      ],
      [
        "▁анти",
        -10.081979267794877
      ],
      [
        "\n(",
        -10.082048576050008
      ],
      [
        "▁eat",
        -10.08217146662186
      ],
      [
        "▁сделал",
        -10.08239715717172
      ],
      [
        "▁2011",
        -10.082436778913133
      ],
      [
        "▁какие",
        -10.082881348064433
      ],
      [
        "▁ди",
        -10.083546844968142
      ],
      [
        "Such",
        -10.084063124624668
      ],
      [
        "▁changed",
        -10.084517784573816
      ],
      [
        "ирования",
        -10.084518802696476
      ],
      [
        "ест",
        -10.085203717027916
      ],
      [
        "▁стране",
        -10.08524142035739
      ],
      [
        "самый",
        -10.0857802059339
      ],
      [
        "ps",
        -10.08598678585656
      ],
      [
        "▁Ц",
        -10.086529376280636
      ],
      [
        "ey",
        -10.08737569276871
      ],
      [
        "▁актив",
        -10.088107763352482
      ],
      [
        "▁создания",
        -10.088457811565984
      ],
      [
        "▁29",
        -10.088461265244616
      ],
      [
        "\nИ",
        -10.088783824256778
      ],
      [
        "itis",
        -10.088928897976055
      ],
      [
        "▁No.",
        -10.08911423648305
      ],
      [
        "\"The",
        -10.089136666172111
      ],
      [
        "ка,",
        -10.08926726299492
      ],
      [
        "▁basis",
        -10.08967607901162
      ],
      [
        "▁visit",
        -10.089917083814996
      ],
      [
        "▁систем",
        -10.089951855683776
      ],
      [
        "▁standard",
        -10.089959089379091
      ],
      [
        "ило",
        -10.090233010257968
      ],
      [
        "форм",
        -10.09082784405468
      ],
      [
        "▁Ты",
        -10.091153455824724
      ],
      [
        "▁property",
        -10.091246735773796
      ],
      [
        "mar",
        -10.091543130779362
      ],
      [
        "▁основан",
        -10.091979980808738
      ],
      [
        "▁основном",
        -10.092026136685128
      ],
      [
        "▁February",
        -10.092053856089558
      ],
      [
        "▁writing",
        -10.092156829368005
      ],
      [
        "енных",
        -10.092447868209856
      ],
      [
        "▁удалось",
        -10.092676701012998
      ],
      [
        "34",
        -10.093417188587049
      ],
      [
        "▁offer",
        -10.093477680042946
      ],
      [
        "▁Is",
        -10.09396123567475
      ],
      [
        "▁мед",
        -10.09420099365985
      ],
      [
        "▁2013",
        -10.094272726753944
      ],
      [
        "▁speak",
        -10.094625043249131
      ],
      [
        "▁paper",
        -10.0948273563444
      ],
      [
        "▁•",
        -10.094891952417823
      ],
      [
        "▁четыре",
        -10.094909791251052
      ],
      [
        "▁значительно",
        -10.094954330413875
      ],
      [
        "▁John",
        -10.095007667822056
      ],
      [
        "а»",
        -10.095174105032235
      ],
      [
        "▁join",
        -10.095490990828978
      ],
      [
        "▁одном",
        -10.095516292712787
      ],
      [
        "▁processes",
        -10.09565469070855
      ],
      [
        "фе",
        -10.095747751400232
      ],
      [
        "▁returned",
        -10.096058131786526
      ],
      [
        "ё",
        -10.096130233120196
      ],
      [
        "▁finally",
        -10.096245915632394
      ],
      [
        "▁goals",
        -10.096723465902102
      ],
      [
        "▁Те",
        -10.096739492476086
      ],
      [
        "▁professional",
        -10.096871362427487
      ],
      [
        "▁цвета",
        -10.096897239359702
      ],
      [
        "▁настоящее",
        -10.09699520784395
      ],
      [
        "вшего",
        -10.097431567715644
      ],
      [
        "▁обязательно",
        -10.098014525684343
      ],
      [
        "▁generally",
        -10.098223849514204
      ],
      [
        "альные",
        -10.098672454400813
      ],
      [
        "▁South",
        -10.098885805291268
      ],
      [
        "▁Ха",
        -10.099471842495165
      ],
      [
        "▁degree",
        -10.099566210826946
      ],
      [
        "ious",
        -10.100264220101282
      ],
      [
        "▁исход",
        -10.100393306079653
      ],
      [
        "▁граждан",
        -10.100528254887305
      ],
      [
        "▁cat",
        -10.100679959594878
      ],
      [
        "▁Roman",
        -10.100784303567222
      ],
      [
        "let",
        -10.100824131561062
      ],
      [
        "▁turns",
        -10.100949072569607
      ],
      [
        "аж",
        -10.10094971548384
      ],
      [
        "пут",
        -10.101167871428087
      ],
      [
        "▁Ukraine",
        -10.10232361582959
      ],
      [
        "\nP",
        -10.102340382202865
      ],
      [
        "▁Ни",
        -10.102649818357662
      ],
      [
        "ряд",
        -10.102886291175707
      ],
      [
        "▁норм",
        -10.103510426559202
      ],
      [
        "▁Se",
        -10.103663069104885
      ],
      [
        "▁торгов",
        -10.10397768220698
      ],
      [
        "fer",
        -10.10481467591368
      ],
      [
        "▁26",
        -10.105410065715972
      ],
      [
        "▁говорить",
        -10.105642512908055
      ],
      [
        "▁release",
        -10.10567781976049
      ],
      [
        "ug",
        -10.105795886594755
      ],
      [
        "▁теле",
        -10.106244752197956
      ],
      [
        "70",
        -10.106402984601049
      ],
      [
        "▁состоянии",
        -10.107229554328642
      ],
      [
        "▁policy",
        -10.10725383455788
      ],
      [
        "54",
        -10.107275735129894
      ],
      [
        "▁цели",
        -10.107393384485418
      ],
      [
        "▁security",
        -10.107703159197436
      ],
      [
        "ическое",
        -10.10781582166695
      ],
      [
        "▁historical",
        -10.107816977106015
      ],
      [
        "▁боев",
        -10.10876090501953
      ],
      [
        "▁lived",
        -10.108929224499304
      ],
      [
        "ers,",
        -10.109316228575734
      ],
      [
        "▁trade",
        -10.109735934567844
      ],
      [
        "▁travel",
        -10.110850960973009
      ],
      [
        "▁хотел",
        -10.111399826753484
      ],
      [
        "{",
        -10.111440710465263
      ],
      [
        "▁Union",
        -10.111675761842
      ],
      [
        "▁28",
        -10.111943670153984
      ],
      [
        "▁культур",
        -10.112507592817328
      ],
      [
        "tal",
        -10.11251646002792
      ],
      [
        "▁break",
        -10.11288210920151
      ],
      [
        "бу",
        -10.11301882523462
      ],
      [
        "fe",
        -10.113382726789457
      ],
      [
        "▁save",
        -10.11440534587462
      ],
      [
        "▁большинство",
        -10.114602998060093
      ],
      [
        "▁build",
        -10.114608698269627
      ],
      [
        ".\nYou",
        -10.114840015539118
      ],
      [
        "▁наш",
        -10.114899974942364
      ],
      [
        "\nIf",
        -10.115132687676152
      ],
      [
        "▁обо",
        -10.116141213174611
      ],
      [
        "36",
        -10.11658435056604
      ],
      [
        "сто",
        -10.117501937942723
      ],
      [
        "йтесь",
        -10.117511397158234
      ],
      [
        "соответствии",
        -10.117593481458409
      ],
      [
        "цен",
        -10.117599580432952
      ],
      [
        "Хотя",
        -10.118152174146438
      ],
      [
        "08",
        -10.118554526004717
      ],
      [
        "▁Эта",
        -10.118927377463782
      ],
      [
        "аб",
        -10.119238398489165
      ],
      [
        "▁users",
        -10.119297609438066
      ],
      [
        "▁can't",
        -10.119535433915445
      ],
      [
        "ление",
        -10.119657772833136
      ],
      [
        "▁medical",
        -10.120637003836274
      ],
      [
        "а.\n",
        -10.120729394647116
      ],
      [
        "▁values",
        -10.120740094916052
      ],
      [
        "▁сети",
        -10.120923796856635
      ],
      [
        "85",
        -10.121315696834731
      ],
      [
        "s)",
        -10.121428261413737
      ],
      [
        ".\nWe",
        -10.12168774489765
      ],
      [
        "Есть",
        -10.121905002260016
      ],
      [
        "tin",
        -10.122004698012404
      ],
      [
        ".ru",
        -10.122218786825192
      ],
      [
        "▁companies",
        -10.12224191621211
      ],
      [
        "▁programs",
        -10.12226760513568
      ],
      [
        "ря",
        -10.122568491933713
      ],
      [
        "▁North",
        -10.122840480403822
      ],
      [
        "\nЕсли",
        -10.123215665470903
      ],
      [
        "ost",
        -10.123419955403152
      ],
      [
        "▁сколько",
        -10.123916690077014
      ],
      [
        "king",
        -10.12414089143904
      ],
      [
        "▁фильм",
        -10.124479381208042
      ],
      [
        "▁Ме",
        -10.12489810420896
      ],
      [
        "▁состоит",
        -10.126224849901844
      ],
      [
        "ата",
        -10.126229367731591
      ],
      [
        "▁нерв",
        -10.126670742415811
      ],
      [
        "ng",
        -10.126952592215238
      ],
      [
        "▁village",
        -10.127218837412338
      ],
      [
        "▁books",
        -10.127473452486155
      ],
      [
        "33",
        -10.1279540260726
      ],
      [
        "▁heard",
        -10.127978040676505
      ],
      [
        "qu",
        -10.128350320608194
      ],
      [
        "▁основ",
        -10.128497851143983
      ],
      [
        "і",
        -10.129012648781607
      ],
      [
        "38",
        -10.129158844548543
      ],
      [
        "▁length",
        -10.129303908064268
      ],
      [
        "▁contract",
        -10.129415511989455
      ],
      [
        "зер",
        -10.129527404050531
      ],
      [
        "▁places",
        -10.12954832970282
      ],
      [
        "▁doing",
        -10.129603443837135
      ],
      [
        "\nТ",
        -10.129705241949043
      ],
      [
        "▁Y",
        -10.129728588499828
      ],
      [
        "▁lives",
        -10.129779681987824
      ],
      [
        "▁2008",
        -10.129884740017896
      ],
      [
        "▁путь",
        -10.12995463008922
      ],
      [
        "инг",
        -10.130247038954105
      ],
      [
        "ite",
        -10.131328228015656
      ],
      [
        "▁страх",
        -10.131424222886183
      ],
      [
        "▁relative",
        -10.131479876415396
      ],
      [
        "pro",
        -10.131627762401482
      ],
      [
        "▁зависит",
        -10.13178791452799
      ],
      [
        "▁Her",
        -10.131882938432174
      ],
      [
        "▁участие",
        -10.13244100179658
      ],
      [
        "▁мысли",
        -10.133119653183934
      ],
      [
        "istic",
        -10.13390199049329
      ],
      [
        "ацию",
        -10.1339330901546
      ],
      [
        "▁connected",
        -10.134256942018762
      ],
      [
        "▁формы",
        -10.13429157209654
      ],
      [
        "▁класс",
        -10.134351593266029
      ],
      [
        "▁click",
        -10.134601437189962
      ],
      [
        "▁длин",
        -10.134897673172675
      ],
      [
        "▁remove",
        -10.134930274597137
      ],
      [
        "▁Di",
        -10.135217312317678
      ],
      [
        "▁весь",
        -10.135252165695375
      ],
      [
        "▁Mac",
        -10.135506699342915
      ],
      [
        "▁largest",
        -10.135652296226915
      ],
      [
        "▁occur",
        -10.13574523287518
      ],
      [
        "дон",
        -10.13613404830505
      ],
      [
        "образ",
        -10.136507729419543
      ],
      [
        "ich",
        -10.136823276878824
      ],
      [
        "▁населения",
        -10.137047644812757
      ],
      [
        "].",
        -10.137272765522429
      ],
      [
        "▁hope",
        -10.13943329442813
      ],
      [
        ".\nП",
        -10.139705489024394
      ],
      [
        "▁вместо",
        -10.140112112253924
      ],
      [
        "тр",
        -10.140174708018256
      ],
      [
        "▁average",
        -10.140424944706991
      ],
      [
        "▁occurs",
        -10.1404968019829
      ],
      [
        "pi",
        -10.140511481951856
      ],
      [
        "37",
        -10.141688245060877
      ],
      [
        "▁пе",
        -10.141767673953552
      ],
      [
        "вели",
        -10.142042432662796
      ],
      [
        "альная",
        -10.142360418385463
      ],
      [
        "▁link",
        -10.143054126377358
      ],
      [
        "▁won",
        -10.14319157267997
      ],
      [
        "вен",
        -10.143559137442477
      ],
      [
        "▁developing",
        -10.143911186685171
      ],
      [
        ".\nF",
        -10.144282298106123
      ],
      [
        "▁Север",
        -10.144367260771723
      ],
      [
        "▁помощь",
        -10.14487677954977
      ],
      [
        "▁original",
        -10.145407804058085
      ],
      [
        "▁поле",
        -10.146161825145407
      ],
      [
        "ена",
        -10.14628477779892
      ],
      [
        "▁shows",
        -10.146518783689734
      ],
      [
        "time",
        -10.146772349879743
      ],
      [
        "▁separate",
        -10.146986424464805
      ],
      [
        "▁приводит",
        -10.147061449012304
      ],
      [
        "▁стол",
        -10.147473143160829
      ],
      [
        "▁кроме",
        -10.14753045380944
      ],
      [
        "сад",
        -10.14776101371727
      ],
      [
        ".\nAt",
        -10.148369614267969
      ],
      [
        "▁ум",
        -10.148458279733612
      ],
      [
        "поль",
        -10.148506907605537
      ],
      [
        "\nB",
        -10.14912444424914
      ],
      [
        "):",
        -10.149145624681829
      ],
      [
        "▁27",
        -10.149568920330452
      ],
      [
        ".\nВы",
        -10.149657078026111
      ],
      [
        "▁сторону",
        -10.14980971077224
      ],
      [
        "▁пост",
        -10.150295502755302
      ],
      [
        "▁нового",
        -10.150445316441944
      ],
      [
        "▁буду",
        -10.150536604382223
      ],
      [
        "▁Car",
        -10.150912438742992
      ],
      [
        "▁rate",
        -10.150915011934522
      ],
      [
        "ran",
        -10.151072215288684
      ],
      [
        "▁целью",
        -10.151303194262333
      ],
      [
        "рос",
        -10.151379764394084
      ],
      [
        "ow",
        -10.151806594436133
      ],
      [
        "Ц",
        -10.151848973630289
      ],
      [
        "▁Apple",
        -10.151908286016772
      ],
      [
        "кол",
        -10.151989008951992
      ],
      [
        "av",
        -10.153051676361246
      ],
      [
        "▁метод",
        -10.153684663296882
      ],
      [
        "▁request",
        -10.15391055624255
      ],
      [
        "ания",
        -10.15391326257272
      ],
      [
        "▁purpose",
        -10.153922716149392
      ],
      [
        "▁basic",
        -10.154279786626438
      ],
      [
        "полн",
        -10.154649581177878
      ],
      [
        "▁значения",
        -10.155147956301429
      ],
      [
        "емые",
        -10.155417451407082
      ],
      [
        "▁1,",
        -10.155549405443692
      ],
      [
        "жу",
        -10.155668957772306
      ],
      [
        "▁привести",
        -10.155978773210142
      ],
      [
        "вет",
        -10.156275850732785
      ],
      [
        "▁2000",
        -10.156679017008768
      ],
      [
        "▁анализ",
        -10.156916965174458
      ],
      [
        "▁authorities",
        -10.156979822429504
      ],
      [
        "wi",
        -10.157325664224745
      ],
      [
        "▁negative",
        -10.157380278739268
      ],
      [
        "▁feeling",
        -10.157428430942064
      ],
      [
        "tan",
        -10.15829433648721
      ],
      [
        "теля",
        -10.158491421695958
      ],
      [
        "▁message",
        -10.158594404005743
      ],
      [
        "▁functions",
        -10.158724516132652
      ],
      [
        "▁Army",
        -10.158742367936698
      ],
      [
        "95",
        -10.158863351572776
      ],
      [
        "▁engine",
        -10.159419958247089
      ],
      [
        "▁shown",
        -10.159618868050876
      ],
      [
        "печат",
        -10.160024848392997
      ],
      [
        "▁Earth",
        -10.160173053657886
      ],
      [
        "▁king",
        -10.160258952088151
      ],
      [
        "▁Ba",
        -10.161274647424626
      ],
      [
        "€",
        -10.16147999810445
      ],
      [
        "▁фото",
        -10.161614258785498
      ],
      [
        "▁myself",
        -10.161940297694247
      ],
      [
        "▁отношении",
        -10.161969531856998
      ],
      [
        "▁систему",
        -10.162634883196608
      ],
      [
        "▁месяцев",
        -10.162775281483505
      ],
      [
        "\nА",
        -10.16277753396122
      ],
      [
        "▁st",
        -10.16288498922787
      ],
      [
        "емся",
        -10.163335134089584
      ],
      [
        "?\"",
        -10.163869423543536
      ],
      [
        "клон",
        -10.163886218057836
      ],
      [
        "бе",
        -10.164228417735988
      ],
      [
        "▁книги",
        -10.164498271117871
      ],
      [
        "▁000",
        -10.164734180279408
      ],
      [
        "▁shape",
        -10.165053387085898
      ],
      [
        "ob",
        -10.1653871210681
      ],
      [
        "ением",
        -10.165388984598035
      ],
      [
        "▁National",
        -10.16559785285414
      ],
      [
        "▁первого",
        -10.165766699064603
      ],
      [
        "▁met",
        -10.165838368855583
      ],
      [
        "▁round",
        -10.166214672957638
      ],
      [
        "▁узнать",
        -10.166336528915595
      ],
      [
        "ice",
        -10.166371315086492
      ],
      [
        "56",
        -10.16688791643529
      ],
      [
        "▁действий",
        -10.166985069244667
      ],
      [
        "of",
        -10.1670574816775
      ],
      [
        "▁Пол",
        -10.167084199422634
      ],
      [
        "▁мая",
        -10.16715532071839
      ],
      [
        "стан",
        -10.167696648212983
      ],
      [
        "▁Not",
        -10.16788287454806
      ],
      [
        "▁share",
        -10.168042281632236
      ],
      [
        "▁month",
        -10.16809383347236
      ],
      [
        "▁игр",
        -10.16818631104498
      ],
      [
        "▁placed",
        -10.168921970234615
      ],
      [
        "▁successful",
        -10.16898863001861
      ],
      [
        "-го",
        -10.1690267847174
      ],
      [
        "31",
        -10.169338610733984
      ],
      [
        "▁reality",
        -10.169436915887632
      ],
      [
        "▁Un",
        -10.16969591587635
      ],
      [
        "кал",
        -10.17040732743146
      ],
      [
        "▁(18",
        -10.170455318137217
      ],
      [
        "нести",
        -10.170675044536964
      ],
      [
        "▁exchange",
        -10.170730739197644
      ],
      [
        "▁master",
        -10.171215039557303
      ],
      [
        "▁entered",
        -10.171316981309662
      ],
      [
        "ric",
        -10.17142574697498
      ],
      [
        "gan",
        -10.172229786461582
      ],
      [
        "▁начать",
        -10.17238909381808
      ],
      [
        "дель",
        -10.172753580642366
      ],
      [
        "It's",
        -10.172815272586984
      ],
      [
        "▁games",
        -10.173050673085864
      ],
      [
        "▁Ро",
        -10.173208429191996
      ],
      [
        "▁А.",
        -10.173662160699632
      ],
      [
        "ального",
        -10.173880493516476
      ],
      [
        "▁choice",
        -10.173884083061438
      ],
      [
        "чен",
        -10.174044154151437
      ],
      [
        "over",
        -10.174131382709431
      ],
      [
        "▁--",
        -10.174336924890598
      ],
      [
        "▁road",
        -10.174353048320762
      ],
      [
        "▁door",
        -10.17449062015126
      ],
      [
        "forced",
        -10.174687231217664
      ],
      [
        "▁помогает",
        -10.174775814879196
      ],
      [
        "▁совет",
        -10.17483369489283
      ],
      [
        "▁Lu",
        -10.174894530509736
      ],
      [
        "tion",
        -10.175274314959896
      ],
      [
        "▁развитие",
        -10.17569775344575
      ],
      [
        "▁St.",
        -10.175756082710212
      ],
      [
        "▁использование",
        -10.176093536870992
      ],
      [
        "ust",
        -10.176322300852627
      ],
      [
        "▁мужчин",
        -10.176470065024125
      ],
      [
        "▁«С",
        -10.17681878592205
      ],
      [
        "▁можем",
        -10.176891584345505
      ],
      [
        "▁bank",
        -10.17695623270005
      ],
      [
        "▁sugar",
        -10.177031738241109
      ],
      [
        "ever",
        -10.178379148976337
      ],
      [
        "▁across",
        -10.179044886396149
      ],
      [
        "▁Ga",
        -10.179281035283225
      ],
      [
        "▁оста",
        -10.179427025462909
      ],
      [
        "уш",
        -10.179522049403866
      ],
      [
        "▁пять",
        -10.179660299910386
      ],
      [
        "▁Sea",
        -10.179687760061112
      ],
      [
        "▁happen",
        -10.17979397903568
      ],
      [
        "▁думаю",
        -10.179829376838722
      ],
      [
        "▁late",
        -10.180125788621885
      ],
      [
        "ova",
        -10.180285621591228
      ],
      [
        "стро",
        -10.180393054103831
      ],
      [
        "▁cities",
        -10.180668801858026
      ],
      [
        "han",
        -10.181053087746916
      ],
      [
        "48",
        -10.181668080101565
      ],
      [
        "▁location",
        -10.181854202177712
      ],
      [
        "▁interested",
        -10.18209633396964
      ],
      [
        "▁desire",
        -10.182201404237093
      ],
      [
        "▁box",
        -10.182233666556682
      ],
      [
        "▁самой",
        -10.182328798319492
      ],
      [
        "тся",
        -10.182415917158174
      ],
      [
        "ю.",
        -10.182944169186538
      ],
      [
        "твор",
        -10.183392571416618
      ],
      [
        "▁общества",
        -10.183482525896686
      ],
      [
        "s\"",
        -10.183710606870305
      ],
      [
        "▁поможет",
        -10.184154760737412
      ],
      [
        "hy",
        -10.184505295111013
      ],
      [
        ".\nAfter",
        -10.184564344885468
      ],
      [
        "▁apply",
        -10.18463405714267
      ],
      [
        "▁currently",
        -10.184873156070346
      ],
      [
        "рез",
        -10.185041024913373
      ],
      [
        "▁идет",
        -10.185044244249273
      ],
      [
        "000",
        -10.18534742738816
      ],
      [
        "ница",
        -10.186079199767528
      ],
      [
        "▁difference",
        -10.186093229264042
      ],
      [
        "ходе",
        -10.186414777114429
      ],
      [
        "▁мил",
        -10.186448823893198
      ],
      [
        "▁силу",
        -10.186546851680893
      ],
      [
        "▁spread",
        -10.186677143562225
      ],
      [
        "чив",
        -10.186740990291613
      ],
      [
        "▁eye",
        -10.187011441480095
      ],
      [
        "▁Ал",
        -10.187127191836533
      ],
      [
        "оль",
        -10.187977748666682
      ],
      [
        "ect",
        -10.187999535046997
      ],
      [
        "▁друга",
        -10.188285227244508
      ],
      [
        "▁objects",
        -10.18835152725417
      ],
      [
        "▁severe",
        -10.188647589947673
      ],
      [
        "▁skills",
        -10.18872072036411
      ],
      [
        "▁обще",
        -10.189211519371243
      ],
      [
        "ять",
        -10.18933121097517
      ],
      [
        "▁moved",
        -10.189665738533176
      ],
      [
        "▁раздел",
        -10.190190478030324
      ],
      [
        "зе",
        -10.190309045553704
      ],
      [
        "▁technology",
        -10.19067140472159
      ],
      [
        "▁knew",
        -10.190808742136923
      ],
      [
        "▁целом",
        -10.191563202425415
      ],
      [
        "▁кор",
        -10.191822364926542
      ],
      [
        "Ш",
        -10.192026021221928
      ],
      [
        "nt",
        -10.192118189087406
      ],
      [
        "▁mode",
        -10.192523942544366
      ],
      [
        "▁leads",
        -10.192695041058998
      ],
      [
        "вит",
        -10.192753871606367
      ],
      [
        "▁получен",
        -10.193113608707131
      ],
      [
        "▁запад",
        -10.193227344677448
      ],
      [
        "▁unique",
        -10.194238823220788
      ],
      [
        "▁уровне",
        -10.194386138221706
      ],
      [
[...]
