{
  "version": "1.0",
  "truncation": null,
  "padding": null,
  "added_tokens": [
    {
      "id": 0,
      "content": "<pad>",
      "single_word": false,
      "lstrip": false,
      "rstrip": false,
      "normalized": false,
      "special": true
    },
    {
      "id": 1,
      "content": "<eos>",
      "single_word": false,
      "lstrip": false,
      "rstrip": false,
      "normalized": false,
      "special": true
    },
    {
      "id": 2,
      "content": "<bos>",
      "single_word": false,
      "lstrip": false,
      "rstrip": false,
      "normalized": false,
      "special": true
    },
    {
      "id": 3,
      "content": "<unk>",
      "single_word": false,
      "lstrip": false,
      "rstrip": false,
      "normalized": false,
      "special": true
    },
    {
      "id": 4,
      "content": "<start_of_turn>",
      "single_word": false,
      "lstrip": false,
      "rstrip": false,
      "normalized": false,
      "special": true
    },
    {
      "id": 5,
      "content": "<end_of_turn>",
      "single_word": false,
      "lstrip": false,
      "rstrip": false,
      "normalized": false,
      "special": true
    },
    {
      "id": 6,
      "content": "<start_of_image>",
      "single_word": false,
      "lstrip": false,
      "rstrip": false,
      "normalized": false,
      "special": true
    },
    {
      "id": 7,
      "content": "<start_of_audio>",
      "single_word": false,
      "lstrip": false,
      "rstrip": false,
      "normalized": false,
      "special": true
    },
    {
      "id": 8,
      "content": "<end_of_image>",
      "single_word": false,
      "lstrip": false,
      "rstrip": false,
      "normalized": false,
      "special": true
    },
    {
      "id": 9,
      "content": "<image_soft_token>",
      "single_word": false,
      "lstrip": false,
      "rstrip": false,
      "normalized": false,
      "special": true
    },
    {
      "id": 10,
      "content": "<unused_image0>",
      "single_word": false,
      "lstrip": false,
      "rstrip": false,
      "normalized": false,
      "special": true
    },
    {
      "id": 11,
      "content": "<unused_image1>",
      "single_word": false,
      "lstrip": false,
      "rstrip": false,
      "normalized": false,
      "special": true
    },
    {
      "id": 12,
      "content": "<unused_image2>",
      "single_word": false,
      "lstrip": false,
      "rstrip": false,
      "normalized": false,
      "special": true
    },
    {
      "id": 13,
      "content": "<unused_image3>",
      "single_word": false,
      "lstrip": false,
      "rstrip": false,
      "normalized": false,
      "special": true
    },
    {
      "id": 14,
      "content": "<unused_image4>",
      "single_word": false,
      "lstrip": false,
      "rstrip": false,
      "normalized": false,
      "special": true
    },
    {
      "id": 15,
      "content": "<unused_image5>",
      "single_word": false,
      "lstrip": false,
      "rstrip": false,
      "normalized": false,
      "special": true
    },
    {
      "id": 16,
      "content": "<unused_image6>",
      "single_word": false,
      "lstrip": false,
      "rstrip": false,
      "normalized": false,
      "special": true
    },
    {
      "id": 17,
      "content": "<unused_image7>",
      "single_word": false,
      "lstrip": false,
      "rstrip": false,
      "normalized": false,
      "special": true
    },
    {
      "id": 18,
      "content": "<unused_image8>",
      "single_word": false,
      "lstrip": false,
      "rstrip": false,
      "normalized": false,
      "special": true
    },
    {
      "id": 19,
      "content": "<unused_image9>",
      "single_word": false,
      "lstrip": false,
      "rstrip": false,
      "normalized": false,
      "special": true
    },
    {
      "id": 20,
      "content": "<unused_image10>",
      "single_word": false,
      "lstrip": false,
      "rstrip": false,
      "normalized": false,
      "special": true
    },
    {
      "id": 21,
      "content": "<unused_image11>",
      "single_word": false,
      "lstrip": false,
      "rstrip": false,
      "normalized": false,
      "special": true
    },
    {
      "id": 22,
      "content": "<unused_image12>",
      "single_word": false,
      "lstrip": false,
      "rstrip": false,
      "normalized": false,
      "special": true
    },
    {
      "id": 23,
      "content": "<unused_image13>",
      "single_word": false,
      "lstrip": false,
      "rstrip": false,
      "normalized": false,
      "special": true
    },
    {
      "id": 24,
      "content": "<unused_image14>",
      "single_word": false,
      "lstrip": false,
      "rstrip": false,
      "normalized": false,
      "special": true
    },
    {
      "id": 25,
      "content": "<unused_image15>",
      "single_word": false,
      "lstrip": false,
      "rstrip": false,
      "normalized": false,
      "special": true
    },
    {
      "id": 26,
      "content": "<unused_image16>",
      "single_word": false,
      "lstrip": false,
      "rstrip": false,
      "normalized": false,
      "special": true
    },
    {
      "id": 27,
      "content": "<unused_image17>",
      "single_word": false,
      "lstrip": false,
      "rstrip": false,
      "normalized": false,
      "special": true
    },
    {
      "id": 28,
      "content": "<unused_image18>",
      "single_word": false,
      "lstrip": false,
      "rstrip": false,
      "normalized": false,
      "special": true
    },
    {
      "id": 29,
      "content": "<unused_image19>",
      "single_word": false,
      "lstrip": false,
      "rstrip": false,
      "normalized": false,
      "special": true
    },
    {
      "id": 30,
      "content": "<unused_image20>",
      "single_word": false,
      "lstrip": false,
      "rstrip": false,
      "normalized": false,
      "special": true
    },
    {
      "id": 31,
      "content": "<unused_image21>",
      "single_word": false,
      "lstrip": false,
      "rstrip": false,
      "normalized": false,
      "special": true
    },
    {
      "id": 32,
      "content": "<unused_image22>",
      "single_word": false,
      "lstrip": false,
      "rstrip": false,
      "normalized": false,
      "special": true
    },
    {
      "id": 33,
      "content": "<unused_image23>",
      "single_word": false,
      "lstrip": false,
      "rstrip": false,
      "normalized": false,
      "special": true
    },
    {
      "id": 34,
      "content": "<unused_image24>",
      "single_word": false,
      "lstrip": false,
      "rstrip": false,
      "normalized": false,
      "special": true
    },
    {
      "id": 35,
      "content": "<unused_image25>",
      "single_word": false,
      "lstrip": false,
      "rstrip": false,
      "normalized": false,
      "special": true
    },
    {
      "id": 36,
      "content": "<unused_image26>",
      "single_word": false,
      "lstrip": false,
      "rstrip": false,
      "normalized": false,
      "special": true
    },
    {
      "id": 37,
      "content": "<unused_image27>",
      "single_word": false,
      "lstrip": false,
      "rstrip": false,
      "normalized": false,
      "special": true
    },
    {
      "id": 38,
      "content": "<unused_image28>",
      "single_word": false,
      "lstrip": false,
      "rstrip": false,
      "normalized": false,
      "special": true
    },
    {
      "id": 39,
      "content": "<unused_image29>",
      "single_word": false,
      "lstrip": false,
      "rstrip": false,
      "normalized": false,
      "special": true
    },
    {
      "id": 40,
      "content": "<unused_image30>",
      "single_word": false,
      "lstrip": false,
      "rstrip": false,
      "normalized": false,
      "special": true
    },
    {
      "id": 41,
      "content": "<unused_image31>",
      "single_word": false,
      "lstrip": false,
      "rstrip": false,
      "normalized": false,
      "special": true
    },
    {
      "id": 42,
      "content": "<unused_image32>",
      "single_word": false,
      "lstrip": false,
      "rstrip": false,
      "normalized": false,
      "special": true
    },
    {
      "id": 43,
      "content": "<unused_image33>",
      "single_word": false,
      "lstrip": false,
      "rstrip": false,
      "normalized": false,
      "special": true
    },
    {
      "id": 44,
      "content": "<unused_image34>",
      "single_word": false,
      "lstrip": false,
      "rstrip": false,
      "normalized": false,
      "special": true
    },
    {
      "id": 45,
      "content": "<unused_image35>",
      "single_word": false,
      "lstrip": false,
      "rstrip": false,
      "normalized": false,
      "special": true
    },
    {
      "id": 46,
      "content": "<unused_image36>",
      "single_word": false,
      "lstrip": false,
      "rstrip": false,
      "normalized": false,
      "special": true
    },
    {
      "id": 47,
      "content": "<unused_image37>",
      "single_word": false,
      "lstrip": false,
      "rstrip": false,
      "normalized": false,
      "special": true
    },
    {
      "id": 48,
      "content": "<unused_image38>",
      "single_word": false,
      "lstrip": false,
      "rstrip": false,
      "normalized": false,
      "special": true
    },
    {
      "id": 49,
      "content": "<unused_image39>",
      "single_word": false,
      "lstrip": false,
      "rstrip": false,
      "normalized": false,
      "special": true
    },
    {
      "id": 50,
      "content": "<unused_image40>",
      "single_word": false,
      "lstrip": false,
      "rstrip": false,
      "normalized": false,
      "special": true
    },
    {
      "id": 51,
      "content": "<unused_image41>",
      "single_word": false,
      "lstrip": false,
      "rstrip": false,
      "normalized": false,
      "special": true
    },
    {
      "id": 52,
      "content": "<unused_image42>",
      "single_word": false,
      "lstrip": false,
      "rstrip": false,
      "normalized": false,
      "special": true
    },
    {
      "id": 53,
      "content": "<unused_image43>",
      "single_word": false,
      "lstrip": false,
      "rstrip": false,
      "normalized": false,
      "special": true
    },
    {
      "id": 54,
      "content": "<unused_image44>",
      "single_word": false,
      "lstrip": false,
      "rstrip": false,
      "normalized": false,
      "special": true
    },
    {
      "id": 55,
      "content": "<unused_image45>",
      "single_word": false,
      "lstrip": false,
      "rstrip": false,
      "normalized": false,
      "special": true
    },
    {
      "id": 56,
      "content": "<unused_image46>",
      "single_word": false,
      "lstrip": false,
      "rstrip": false,
      "normalized": false,
      "special": true
    },
    {
      "id": 57,
      "content": "<unused_image47>",
      "single_word": false,
      "lstrip": false,
      "rstrip": false,
      "normalized": false,
      "special": true
    },
    {
      "id": 58,
      "content": "<unused_image48>",
      "single_word": false,
      "lstrip": false,
      "rstrip": false,
      "normalized": false,
      "special": true
    },
    {
      "id": 59,
      "content": "<unused_image49>",
      "single_word": false,
      "lstrip": false,
      "rstrip": false,
      "normalized": false,
      "special": true
    },
    {
      "id": 60,
      "content": "<unused_image50>",
      "single_word": false,
      "lstrip": false,
      "rstrip": false,
      "normalized": false,
      "special": true
    },
    {
      "id": 61,
      "content": "<unused_image51>",
      "single_word": false,
      "lstrip": false,
      "rstrip": false,
      "normalized": false,
      "special": true
    },
    {
      "id": 62,
      "content": "<unused_image52>",
      "single_word": false,
      "lstrip": false,
      "rstrip": false,
      "normalized": false,
      "special": true
    },
    {
      "id": 63,
      "content": "<unused_image53>",
      "single_word": false,
      "lstrip": false,
      "rstrip": false,
      "normalized": false,
      "special": true
    },
    {
      "id": 64,
      "content": "<unused_image54>",
      "single_word": false,
      "lstrip": false,
      "rstrip": false,
      "normalized": false,
      "special": true
    },
    {
      "id": 65,
      "content": "<unused_image55>",
      "single_word": false,
      "lstrip": false,
      "rstrip": false,
      "normalized": false,
      "special": true
    },
    {
      "id": 66,
      "content": "<unused_image56>",
      "single_word": false,
      "lstrip": false,
      "rstrip": false,
      "normalized": false,
      "special": true
    },
    {
      "id": 67,
      "content": "<unused_image57>",
      "single_word": false,
      "lstrip": false,
      "rstrip": false,
      "normalized": false,
      "special": true
    },
    {
      "id": 68,
      "content": "<unused_image58>",
      "single_word": false,
      "lstrip": false,
      "rstrip": false,
      "normalized": false,
      "special": true
    },
    {
      "id": 69,
      "content": "<unused_image59>",
      "single_word": false,
      "lstrip": false,
      "rstrip": false,
      "normalized": false,
      "special": true
    },
    {
      "id": 70,
      "content": "<unused_image60>",
      "single_word": false,
      "lstrip": false,
      "rstrip": false,
      "normalized": false,
      "special": true
    },
    {
      "id": 71,
      "content": "<unused_image61>",
      "single_word": false,
      "lstrip": false,
      "rstrip": false,
      "normalized": false,
      "special": true
    },
    {
      "id": 72,
      "content": "<unused_image62>",
      "single_word": false,
      "lstrip": false,
      "rstrip": false,
      "normalized": false,
      "special": true
    },
    {
      "id": 73,
      "content": "<unused_image63>",
      "single_word": false,
      "lstrip": false,
      "rstrip": false,
      "normalized": false,
      "special": true
    },
    {
      "id": 74,
      "content": "<unused_image64>",
      "single_word": false,
      "lstrip": false,
      "rstrip": false,
      "normalized": false,
      "special": true
    },
    {
      "id": 75,
      "content": "<unused_image65>",
      "single_word": false,
      "lstrip": false,
      "rstrip": false,
      "normalized": false,
      "special": true
    },
    {
      "id": 76,
      "content": "<unused_image66>",
      "single_word": false,
      "lstrip": false,
      "rstrip": false,
      "normalized": false,
      "special": true
    },
    {
      "id": 77,
      "content": "<unused_image67>",
      "single_word": false,
      "lstrip": false,
      "rstrip": false,
      "normalized": false,
      "special": true
    },
    {
      "id": 78,
      "content": "<unused_image68>",
      "single_word": false,
      "lstrip": false,
      "rstrip": false,
      "normalized": false,
      "special": true
    },
    {
      "id": 79,
      "content": "<unused_image69>",
      "single_word": false,
      "lstrip": false,
      "rstrip": false,
      "normalized": false,
      "special": true
    },
    {
      "id": 80,
      "content": "<unused_image70>",
      "single_word": false,
      "lstrip": false,
      "rstrip": false,
      "normalized": false,
      "special": true
    },
    {
      "id": 81,
      "content": "<unused_image71>",
      "single_word": false,
      "lstrip": false,
      "rstrip": false,
      "normalized": false,
      "special": true
    },
    {
      "id": 82,
      "content": "<unused_image72>",
      "single_word": false,
      "lstrip": false,
      "rstrip": false,
      "normalized": false,
      "special": true
    },
    {
      "id": 83,
      "content": "<unused_image73>",
      "single_word": false,
      "lstrip": false,
      "rstrip": false,
      "normalized": false,
      "special": true
    },
    {
      "id": 84,
      "content": "<unused_image74>",
      "single_word": false,
      "lstrip": false,
      "rstrip": false,
      "normalized": false,
      "special": true
    },
    {
      "id": 85,
      "content": "<unused_image75>",
      "single_word": false,
      "lstrip": false,
      "rstrip": false,
      "normalized": false,
      "special": true
    },
    {
      "id": 86,
      "content": "<unused_image76>",
      "single_word": false,
      "lstrip": false,
      "rstrip": false,
      "normalized": false,
      "special": true
    },
    {
      "id": 87,
      "content": "<unused_image77>",
      "single_word": false,
      "lstrip": false,
      "rstrip": false,
      "normalized": false,
      "special": true
    },
    {
      "id": 88,
      "content": "<unused_image78>",
      "single_word": false,
      "lstrip": false,
      "rstrip": false,
      "normalized": false,
      "special": true
    },
    {
      "id": 89,
      "content": "<unused_image79>",
      "single_word": false,
      "lstrip": false,
      "rstrip": false,
      "normalized": false,
      "special": true
    },
    {
      "id": 90,
      "content": "<unused_image80>",
      "single_word": false,
      "lstrip": false,
      "rstrip": false,
      "normalized": false,
      "special": true
    },
    {
      "id": 91,
      "content": "<unused_image81>",
      "single_word": false,
      "lstrip": false,
      "rstrip": false,
      "normalized": false,
      "special": true
    },
    {
      "id": 92,
      "content": "<unused_image82>",
      "single_word": false,
      "lstrip": false,
      "rstrip": false,
      "normalized": false,
      "special": true
    },
    {
      "id": 93,
      "content": "<unused_image83>",
      "single_word": false,
      "lstrip": false,
      "rstrip": false,
      "normalized": false,
      "special": true
    },
    {
      "id": 94,
      "content": "<unused_image84>",
      "single_word": false,
      "lstrip": false,
      "rstrip": false,
      "normalized": false,
      "special": true
    },
    {
      "id": 95,
      "content": "<unused_image85>",
      "single_word": false,
      "lstrip": false,
      "rstrip": false,
      "normalized": false,
      "special": true
    },
    {
      "id": 96,
      "content": "<unused_image86>",
      "single_word": false,
      "lstrip": false,
      "rstrip": false,
      "normalized": false,
      "special": true
    },
    {
      "id": 97,
      "content": "<unused_image87>",
      "single_word": false,
      "lstrip": false,
      "rstrip": false,
      "normalized": false,
      "special": true
    },
    {
      "id": 98,
      "content": "<unused_image88>",
      "single_word": false,
      "lstrip": false,
      "rstrip": false,
      "normalized": false,
      "special": true
    },
    {
      "id": 99,
      "content": "<unused_image89>",
      "single_word": false,
      "lstrip": false,
      "rstrip": false,
      "normalized": false,
      "special": true
    },
    {
      "id": 100,
      "content": "<unused_image90>",
      "single_word": false,
      "lstrip": false,
      "rstrip": false,
      "normalized": false,
      "special": true
    },
    {
      "id": 101,
      "content": "<unused_image91>",
      "single_word": false,
      "lstrip": false,
      "rstrip": false,
      "normalized": false,
      "special": true
    },
    {
      "id": 102,
      "content": "<unused_image92>",
      "single_word": false,
      "lstrip": false,
      "rstrip": false,
      "normalized": false,
      "special": true
    },
    {
      "id": 103,
      "content": "<unused_image93>",
      "single_word": false,
      "lstrip": false,
      "rstrip": false,
      "normalized": false,
      "special": true
    },
    {
      "id": 104,
      "content": "<unused_image94>",
      "single_word": false,
      "lstrip": false,
      "rstrip": false,
      "normalized": false,
      "special": true
    },
    {
      "id": 105,
      "content": "<unused_image95>",
      "single_word": false,
      "lstrip": false,
      "rstrip": false,
      "normalized": false,
      "special": true
    },
    {
      "id": 106,
      "content": "<unused_image96>",
      "single_word": false,
      "lstrip": false,
      "rstrip": false,
      "normalized": false,
      "special": true
    },
    {
      "id": 107,
      "content": "<unused_image97>",
      "single_word": false,
      "lstrip": false,
      "rstrip": false,
      "normalized": false,
      "special": true
    },
    {
      "id": 108,
      "content": "<unused_image98>",
      "single_word": false,
      "lstrip": false,
      "rstrip": false,
      "normalized": false,
      "special": true
    },
    {
      "id": 109,
      "content": "<unused_image99>",
      "single_word": false,
      "lstrip": false,
      "rstrip": false,
      "normalized": false,
      "special": true
    },
    {
      "id": 110,
      "content": "<unused_image100>",
      "single_word": false,
      "lstrip": false,
      "rstrip": false,
      "normalized": false,
      "special": true
    },
    {
      "id": 111,
      "content": "<unused_image101>",
      "single_word": false,
      "lstrip": false,
      "rstrip": false,
      "normalized": false,
      "special": true
    },
    {
      "id": 112,
      "content": "<unused_image102>",
      "single_word": false,
      "lstrip": false,
      "rstrip": false,
      "normalized": false,
      "special": true
    },
    {
      "id": 113,
      "content": "<unused_image103>",
      "single_word": false,
      "lstrip": false,
      "rstrip": false,
      "normalized": false,
      "special": true
    },
    {
      "id": 114,
      "content": "<unused_image104>",
      "single_word": false,
      "lstrip": false,
      "rstrip": false,
      "normalized": false,
      "special": true
    },
    {
      "id": 115,
      "content": "<unused_image105>",
      "single_word": false,
      "lstrip": false,
      "rstrip": false,
      "normalized": false,
      "special": true
    },
    {
      "id": 116,
      "content": "<unused_image106>",
      "single_word": false,
      "lstrip": false,
      "rstrip": false,
      "normalized": false,
      "special": true
    },
    {
      "id": 117,
      "content": "<unused_image107>",
      "single_word": false,
      "lstrip": false,
      "rstrip": false,
      "normalized": false,
      "special": true
    },
    {
      "id": 118,
      "content": "<unused_image108>",
      "single_word": false,
      "lstrip": false,
      "rstrip": false,
      "normalized": false,
      "special": true
    },
    {
      "id": 119,
      "content": "<unused_image109>",
      "single_word": false,
      "lstrip": false,
      "rstrip": false,
      "normalized": false,
      "special": true
    },
    {
      "id": 120,
      "content": "<unused_image110>",
      "single_word": false,
      "lstrip": false,
      "rstrip": false,
      "normalized": false,
      "special": true
    },
    {
      "id": 121,
      "content": "<unused_image111>",
      "single_word": false,
      "lstrip": false,
      "rstrip": false,
      "normalized": false,
      "special": true
    },
    {
      "id": 122,
      "content": "<unused_image112>",
      "single_word": false,
      "lstrip": false,
      "rstrip": false,
      "normalized": false,
      "special": true
    },
    {
      "id": 123,
      "content": "<unused_image113>",
      "single_word": false,
      "lstrip": false,
      "rstrip": false,
      "normalized": false,
      "special": true
    },
    {
      "id": 124,
      "content": "<unused_image114>",
      "single_word": false,
      "lstrip": false,
      "rstrip": false,
      "normalized": false,
      "special": true
    },
    {
      "id": 125,
      "content": "<unused_image115>",
      "single_word": false,
      "lstrip": false,
      "rstrip": false,
      "normalized": false,
      "special": true
    },
    {
      "id": 126,
      "content": "<unused_image116>",
      "single_word": false,
      "lstrip": false,
      "rstrip": false,
      "normalized": false,
      "special": true
    },
    {
      "id": 127,
      "content": "<unused_image117>",
      "single_word": false,
      "lstrip": false,
      "rstrip": false,
      "normalized": false,
      "special": true
    },
    {
      "id": 128,
      "content": "<unused_image118>",
      "single_word": false,
      "lstrip": false,
      "rstrip": false,
      "normalized": false,
      "special": true
    },
    {
      "id": 129,
      "content": "<unused_image119>",
      "single_word": false,
      "lstrip": false,
      "rstrip": false,
      "normalized": false,
      "special": true
    },
    {
      "id": 130,
      "content": "<unused_image120>",
      "single_word": false,
      "lstrip": false,
      "rstrip": false,
      "normalized": false,
      "special": true
    },
    {
      "id": 131,
      "content": "<unused_image121>",
      "single_word": false,
      "lstrip": false,
      "rstrip": false,
      "normalized": false,
      "special": true
    },
    {
      "id": 132,
      "content": "<unused_image122>",
      "single_word": false,
      "lstrip": false,
      "rstrip": false,
      "normalized": false,
      "special": true
    },
    {
      "id": 133,
      "content": "<unused_image123>",
      "single_word": false,
      "lstrip": false,
      "rstrip": false,
      "normalized": false,
      "special": true
    },
    {
      "id": 134,
      "content": "<unused_image124>",
      "single_word": false,
      "lstrip": false,
      "rstrip": false,
      "normalized": false,
      "special": true
    },
    {
      "id": 135,
      "content": "<unused_image125>",
      "single_word": false,
      "lstrip": false,
      "rstrip": false,
      "normalized": false,
      "special": true
    },
    {
      "id": 136,
      "content": "<end_of_audio>",
      "single_word": false,
      "lstrip": false,
      "rstrip": false,
      "normalized": false,
      "special": true
    },
    {
      "id": 137,
      "content": "<audio_soft_token>",
      "single_word": false,
      "lstrip": false,
      "rstrip": false,
      "normalized": false,
      "special": true
    },
    {
      "id": 138,
      "content": "<unused_audio0>",
      "single_word": false,
      "lstrip": false,
      "rstrip": false,
      "normalized": false,
      "special": true
    },
    {
      "id": 139,
      "content": "<unused_audio1>",
      "single_word": false,
      "lstrip": false,
      "rstrip": false,
      "normalized": false,
      "special": true
    },
    {
      "id": 140,
      "content": "<unused_audio2>",
      "single_word": false,
      "lstrip": false,
      "rstrip": false,
      "normalized": false,
      "special": true
    },
    {
      "id": 141,
      "content": "<unused_audio3>",
      "single_word": false,
      "lstrip": false,
      "rstrip": false,
      "normalized": false,
      "special": true
    },
    {
      "id": 142,
      "content": "<unused_audio4>",
      "single_word": false,
      "lstrip": false,
      "rstrip": false,
      "normalized": false,
      "special": true
    },
    {
      "id": 143,
      "content": "<unused_audio5>",
      "single_word": false,
      "lstrip": false,
      "rstrip": false,
      "normalized": false,
      "special": true
    },
    {
      "id": 144,
      "content": "<unused_audio6>",
      "single_word": false,
      "lstrip": false,
      "rstrip": false,
      "normalized": false,
      "special": true
    },
    {
      "id": 145,
      "content": "<unused_audio7>",
      "single_word": false,
      "lstrip": false,
      "rstrip": false,
      "normalized": false,
      "special": true
    },
    {
      "id": 146,
      "content": "<unused_audio8>",
      "single_word": false,
      "lstrip": false,
      "rstrip": false,
      "normalized": false,
      "special": true
    },
    {
      "id": 147,
      "content": "<unused_audio9>",
      "single_word": false,
      "lstrip": false,
      "rstrip": false,
      "normalized": false,
      "special": true
    },
    {
      "id": 148,
      "content": "<unused_audio10>",
      "single_word": false,
      "lstrip": false,
      "rstrip": false,
      "normalized": false,
      "special": true
    },
    {
      "id": 149,
      "content": "<unused_audio11>",
      "single_word": false,
      "lstrip": false,
      "rstrip": false,
      "normalized": false,
      "special": true
    },
    {
      "id": 150,
      "content": "<unused_audio12>",
      "single_word": false,
      "lstrip": false,
      "rstrip": false,
      "normalized": false,
      "special": true
    },
    {
      "id": 151,
      "content": "<unused_audio13>",
      "single_word": false,
      "lstrip": false,
      "rstrip": false,
      "normalized": false,
      "special": true
    },
    {
      "id": 152,
      "content": "<unused_audio14>",
      "single_word": false,
      "lstrip": false,
      "rstrip": false,
      "normalized": false,
      "special": true
    },
    {
      "id": 153,
      "content": "<unused_audio15>",
      "single_word": false,
      "lstrip": false,
      "rstrip": false,
      "normalized": false,
      "special": true
    },
    {
      "id": 154,
      "content": "<unused_audio16>",
      "single_word": false,
      "lstrip": false,
      "rstrip": false,
      "normalized": false,
      "special": true
    },
    {
      "id": 155,
      "content": "<unused_audio17>",
      "single_word": false,
      "lstrip": false,
      "rstrip": false,
      "normalized": false,
      "special": true
    },
    {
      "id": 156,
      "content": "<unused_audio18>",
      "single_word": false,
      "lstrip": false,
      "rstrip": false,
      "normalized": false,
      "special": true
    },
    {
      "id": 157,
      "content": "<unused_audio19>",
      "single_word": false,
      "lstrip": false,
      "rstrip": false,
      "normalized": false,
      "special": true
    },
    {
      "id": 158,
      "content": "<unused_audio20>",
      "single_word": false,
      "lstrip": false,
      "rstrip": false,
      "normalized": false,
      "special": true
    },
    {
      "id": 159,
      "content": "<unused_audio21>",
      "single_word": false,
      "lstrip": false,
      "rstrip": false,
      "normalized": false,
      "special": true
    },
    {
      "id": 160,
      "content": "<unused_audio22>",
      "single_word": false,
      "lstrip": false,
      "rstrip": false,
      "normalized": false,
      "special": true
    },
    {
      "id": 161,
      "content": "<unused_audio23>",
      "single_word": false,
      "lstrip": false,
      "rstrip": false,
      "normalized": false,
      "special": true
    },
    {
      "id": 162,
      "content": "<unused_audio24>",
      "single_word": false,
      "lstrip": false,
      "rstrip": false,
      "normalized": false,
      "special": true
    },
    {
      "id": 163,
      "content": "<unused_audio25>",
      "single_word": false,
      "lstrip": false,
      "rstrip": false,
      "normalized": false,
      "special": true
    },
    {
      "id": 164,
      "content": "<unused_audio26>",
      "single_word": false,
      "lstrip": false,
      "rstrip": false,
      "normalized": false,
      "special": true
    },
    {
      "id": 165,
      "content": "<unused_audio27>",
      "single_word": false,
      "lstrip": false,
      "rstrip": false,
      "normalized": false,
      "special": true
    },
    {
      "id": 166,
      "content": "<unused_audio28>",
      "single_word": false,
      "lstrip": false,
      "rstrip": false,
      "normalized": false,
      "special": true
    },
    {
      "id": 167,
      "content": "<unused_audio29>",
      "single_word": false,
      "lstrip": false,
      "rstrip": false,
      "normalized": false,
      "special": true
    },
    {
      "id": 168,
      "content": "<unused_audio30>",
      "single_word": false,
      "lstrip": false,
      "rstrip": false,
      "normalized": false,
      "special": true
    },
    {
      "id": 169,
      "content": "<unused_audio31>",
      "single_word": false,
      "lstrip": false,
      "rstrip": false,
      "normalized": false,
      "special": true
    },
    {
      "id": 170,
      "content": "<unused_audio32>",
      "single_word": false,
      "lstrip": false,
      "rstrip": false,
      "normalized": false,
      "special": true
    },
    {
      "id": 171,
      "content": "<unused_audio33>",
      "single_word": false,
      "lstrip": false,
      "rstrip": false,
      "normalized": false,
      "special": true
    },
    {
      "id": 172,
      "content": "<unused_audio34>",
      "single_word": false,
      "lstrip": false,
      "rstrip": false,
      "normalized": false,
      "special": true
    },
    {
      "id": 173,
      "content": "<unused_audio35>",
      "single_word": false,
      "lstrip": false,
      "rstrip": false,
      "normalized": false,
      "special": true
    },
    {
      "id": 174,
      "content": "<unused_audio36>",
      "single_word": false,
      "lstrip": false,
      "rstrip": false,
      "normalized": false,
      "special": true
    },
    {
      "id": 175,
      "content": "<unused_audio37>",
      "single_word": false,
      "lstrip": false,
      "rstrip": false,
      "normalized": false,
      "special": true
    },
    {
      "id": 176,
      "content": "<unused_audio38>",
      "single_word": false,
      "lstrip": false,
      "rstrip": false,
      "normalized": false,
      "special": true
    },
    {
      "id": 177,
      "content": "<unused_audio39>",
      "single_word": false,
      "lstrip": false,
      "rstrip": false,
      "normalized": false,
      "special": true
    },
    {
      "id": 178,
      "content": "<unused_audio40>",
      "single_word": false,
      "lstrip": false,
      "rstrip": false,
      "normalized": false,
      "special": true
    },
    {
      "id": 179,
      "content": "<unused_audio41>",
      "single_word": false,
      "lstrip": false,
      "rstrip": false,
      "normalized": false,
      "special": true
    },
    {
      "id": 180,
      "content": "<unused_audio42>",
      "single_word": false,
      "lstrip": false,
      "rstrip": false,
      "normalized": false,
      "special": true
    },
    {
      "id": 181,
      "content": "<unused_audio43>",
      "single_word": false,
      "lstrip": false,
      "rstrip": false,
      "normalized": false,
      "special": true
    },
    {
      "id": 182,
      "content": "<unused_audio44>",
      "single_word": false,
      "lstrip": false,
      "rstrip": false,
      "normalized": false,
      "special": true
    },
    {
      "id": 183,
      "content": "<unused_audio45>",
      "single_word": false,
      "lstrip": false,
      "rstrip": false,
      "normalized": false,
      "special": true
    },
    {
      "id": 184,
      "content": "<unused_audio46>",
      "single_word": false,
      "lstrip": false,
      "rstrip": false,
      "normalized": false,
      "special": true
    },
    {
      "id": 185,
      "content": "<unused_audio47>",
      "single_word": false,
      "lstrip": false,
      "rstrip": false,
      "normalized": false,
      "special": true
    },
    {
      "id": 186,
      "content": "<unused_audio48>",
      "single_word": false,
      "lstrip": false,
      "rstrip": false,
      "normalized": false,
      "special": true
    },
    {
      "id": 187,
      "content": "<unused_audio49>",
      "single_word": false,
      "lstrip": false,
      "rstrip": false,
      "normalized": false,
      "special": true
    },
    {
      "id": 188,
      "content": "<unused_audio50>",
      "single_word": false,
      "lstrip": false,
      "rstrip": false,
      "normalized": false,
      "special": true
    },
    {
      "id": 189,
      "content": "<unused_audio51>",
      "single_word": false,
      "lstrip": false,
      "rstrip": false,
      "normalized": false,
      "special": true
    },
    {
      "id": 190,
      "content": "<unused_audio52>",
      "single_word": false,
      "lstrip": false,
      "rstrip": false,
      "normalized": false,
      "special": true
    },
    {
      "id": 191,
      "content": "<unused_audio53>",
      "single_word": false,
      "lstrip": false,
      "rstrip": false,
      "normalized": false,
      "special": true
    },
    {
      "id": 192,
      "content": "<unused_audio54>",
      "single_word": false,
      "lstrip": false,
      "rstrip": false,
      "normalized": false,
      "special": true
    },
    {
      "id": 193,
      "content": "<unused_audio55>",
      "single_word": false,
      "lstrip": false,
      "rstrip": false,
      "normalized": false,
      "special": true
    },
    {
      "id": 194,
      "content": "<unused_audio56>",
      "single_word": false,
      "lstrip": false,
      "rstrip": false,
      "normalized": false,
      "special": true
    },
    {
      "id": 195,
      "content": "<unused_audio57>",
      "single_word": false,
      "lstrip": false,
      "rstrip": false,
      "normalized": false,
      "special": true
    },
    {
      "id": 196,
      "content": "<unused_audio58>",
      "single_word": false,
      "lstrip": false,
      "rstrip": false,
      "normalized": false,
      "special": true
    },
    {
      "id": 197,
      "content": "<unused_audio59>",
      "single_word": false,
      "lstrip": false,
      "rstrip": false,
      "normalized": false,
      "special": true
    },
    {
      "id": 198,
      "content": "<unused_audio60>",
      "single_word": false,
      "lstrip": false,
      "rstrip": false,
      "normalized": false,
      "special": true
    },
    {
      "id": 199,
      "content": "<unused_audio61>",
      "single_word": false,
      "lstrip": false,
      "rstrip": false,
      "normalized": false,
      "special": true
    },
    {
      "id": 200,
      "content": "<unused_audio62>",
      "single_word": false,
      "lstrip": false,
      "rstrip": false,
      "normalized": false,
      "special": true
    },
    {
      "id": 201,
      "content": "<unused_audio63>",
      "single_word": false,
      "lstrip": false,
      "rstrip": false,
      "normalized": false,
      "special": true
    },
    {
      "id": 202,
      "content": "<unused_audio64>",
      "single_word": false,
      "lstrip": false,
      "rstrip": false,
      "normalized": false,
      "special": true
    },
    {
      "id": 203,
      "content": "<unused_audio65>",
      "single_word": false,
      "lstrip": false,
      "rstrip": false,
      "normalized": false,
      "special": true
    },
    {
      "id": 204,
      "content": "<unused_audio66>",
      "single_word": false,
      "lstrip": false,
      "rstrip": false,
      "normalized": false,
      "special": true
    },
    {
      "id": 205,
      "content": "<unused_audio67>",
      "single_word": false,
      "lstrip": false,
      "rstrip": false,
      "normalized": false,
      "special": true
    },
    {
      "id": 206,
      "content": "<unused_audio68>",
      "single_word": false,
      "lstrip": false,
      "rstrip": false,
      "normalized": false,
      "special": true
    },
    {
      "id": 207,
      "content": "<unused_audio69>",
      "single_word": false,
      "lstrip": false,
      "rstrip": false,
      "normalized": false,
      "special": true
    },
    {
      "id": 208,
      "content": "<unused_audio70>",
      "single_word": false,
      "lstrip": false,
      "rstrip": false,
      "normalized": false,
      "special": true
    },
    {
      "id": 209,
      "content": "<unused_audio71>",
      "single_word": false,
      "lstrip": false,
      "rstrip": false,
      "normalized": false,
      "special": true
    },
    {
      "id": 210,
      "content": "<unused_audio72>",
      "single_word": false,
      "lstrip": false,
      "rstrip": false,
      "normalized": false,
      "special": true
    },
    {
      "id": 211,
      "content": "<unused_audio73>",
      "single_word": false,
      "lstrip": false,
      "rstrip": false,
      "normalized": false,
      "special": true
    },
    {
      "id": 212,
      "content": "<unused_audio74>",
      "single_word": false,
      "lstrip": false,
      "rstrip": false,
      "normalized": false,
      "special": true
    },
    {
      "id": 213,
      "content": "<unused_audio75>",
      "single_word": false,
      "lstrip": false,
      "rstrip": false,
      "normalized": false,
      "special": true
    },
    {
      "id": 214,
      "content": "<unused_audio76>",
      "single_word": false,
      "lstrip": false,
      "rstrip": false,
      "normalized": false,
      "special": true
    },
    {
      "id": 215,
      "content": "<unused_audio77>",
      "single_word": false,
      "lstrip": false,
      "rstrip": false,
      "normalized": false,
      "special": true
    },
    {
      "id": 216,
      "content": "<unused_audio78>",
      "single_word": false,
      "lstrip": false,
      "rstrip": false,
      "normalized": false,
      "special": true
    },
    {
      "id": 217,
      "content": "<unused_audio79>",
      "single_word": false,
      "lstrip": false,
      "rstrip": false,
      "normalized": false,
      "special": true
    },
    {
      "id": 218,
      "content": "<unused_audio80>",
      "single_word": false,
      "lstrip": false,
      "rstrip": false,
      "normalized": false,
      "special": true
    },
    {
      "id": 219,
      "content": "<unused_audio81>",
      "single_word": false,
      "lstrip": false,
      "rstrip": false,
      "normalized": false,
      "special": true
    },
    {
      "id": 220,
      "content": "<unused_audio82>",
      "single_word": false,
      "lstrip": false,
      "rstrip": false,
      "normalized": false,
      "special": true
    },
    {
      "id": 221,
      "content": "<unused_audio83>",
      "single_word": false,
      "lstrip": false,
      "rstrip": false,
      "normalized": false,
      "special": true
    },
    {
      "id": 222,
      "content": "<unused_audio84>",
      "single_word": false,
      "lstrip": false,
      "rstrip": false,
      "normalized": false,
      "special": true
    },
    {
      "id": 223,
      "content": "<unused_audio85>",
      "single_word": false,
      "lstrip": false,
      "rstrip": false,
      "normalized": false,
      "special": true
    },
    {
      "id": 224,
      "content": "<unused_audio86>",
      "single_word": false,
      "lstrip": false,
      "rstrip": false,
      "normalized": false,
      "special": true
    },
    {
      "id": 225,
      "content": "<unused_audio87>",
      "single_word": false,
      "lstrip": false,
      "rstrip": false,
      "normalized": false,
      "special": true
    },
    {
      "id": 226,
      "content": "<unused_audio88>",
      "single_word": false,
      "lstrip": false,
      "rstrip": false,
      "normalized": false,
      "special": true
    },
    {
      "id": 227,
      "content": "<unused_audio89>",
      "single_word": false,
      "lstrip": false,
      "rstrip": false,
      "normalized": false,
      "special": true
    },
    {
      "id": 228,
      "content": "<unused_audio90>",
      "single_word": false,
      "lstrip": false,
      "rstrip": false,
      "normalized": false,
      "special": true
    },
    {
      "id": 229,
      "content": "<unused_audio91>",
      "single_word": false,
      "lstrip": false,
      "rstrip": false,
      "normalized": false,
      "special": true
    },
    {
      "id": 230,
      "content": "<unused_audio92>",
      "single_word": false,
      "lstrip": false,
      "rstrip": false,
      "normalized": false,
      "special": true
    },
    {
      "id": 231,
      "content": "<unused_audio93>",
      "single_word": false,
      "lstrip": false,
      "rstrip": false,
      "normalized": false,
      "special": true
    },
    {
      "id": 232,
      "content": "<unused_audio94>",
      "single_word": false,
      "lstrip": false,
      "rstrip": false,
      "normalized": false,
      "special": true
    },
    {
      "id": 233,
      "content": "<unused_audio95>",
      "single_word": false,
      "lstrip": false,
      "rstrip": false,
      "normalized": false,
      "special": true
    },
    {
      "id": 234,
      "content": "<unused_audio96>",
      "single_word": false,
      "lstrip": false,
      "rstrip": false,
      "normalized": false,
      "special": true
    },
    {
      "id": 235,
      "content": "<unused_audio97>",
      "single_word": false,
      "lstrip": false,
      "rstrip": false,
      "normalized": false,
      "special": true
    },
    {
      "id": 236,
      "content": "<unused_audio98>",
      "single_word": false,
      "lstrip": false,
      "rstrip": false,
      "normalized": false,
      "special": true
    },
    {
      "id": 237,
      "content": "<unused_audio99>",
      "single_word": false,
      "lstrip": false,
      "rstrip": false,
      "normalized": false,
      "special": true
    },
    {
      "id": 238,
      "content": "<unused_audio100>",
      "single_word": false,
      "lstrip": false,
      "rstrip": false,
      "normalized": false,
      "special": true
    },
    {
      "id": 239,
      "content": "<unused_audio101>",
      "single_word": false,
      "lstrip": false,
      "rstrip": false,
      "normalized": false,
      "special": true
    },
    {
      "id": 240,
      "content": "<unused_audio102>",
      "single_word": false,
      "lstrip": false,
      "rstrip": false,
      "normalized": false,
      "special": true
    },
    {
      "id": 241,
      "content": "<unused_audio103>",
      "single_word": false,
      "lstrip": false,
      "rstrip": false,
      "normalized": false,
      "special": true
    },
    {
      "id": 242,
      "content": "<unused_audio104>",
      "single_word": false,
      "lstrip": false,
      "rstrip": false,
      "normalized": false,
      "special": true
    },
    {
      "id": 243,
      "content": "<unused_audio105>",
      "single_word": false,
      "lstrip": false,
      "rstrip": false,
      "normalized": false,
      "special": true
    },
    {
      "id": 244,
      "content": "<unused_audio106>",
      "single_word": false,
      "lstrip": false,
      "rstrip": false,
      "normalized": false,
      "special": true
    },
    {
      "id": 245,
      "content": "<unused_audio107>",
      "single_word": false,
      "lstrip": false,
      "rstrip": false,
      "normalized": false,
      "special": true
    },
    {
      "id": 246,
      "content": "<unused_audio108>",
      "single_word": false,
      "lstrip": false,
      "rstrip": false,
      "normalized": false,
      "special": true
    },
    {
      "id": 247,
      "content": "<unused_audio109>",
      "single_word": false,
      "lstrip": false,
      "rstrip": false,
      "normalized": false,
      "special": true
    },
    {
      "id": 248,
      "content": "<unused_audio110>",
      "single_word": false,
      "lstrip": false,
      "rstrip": false,
      "normalized": false,
      "special": true
    },
    {
      "id": 249,
      "content": "<unused_audio111>",
      "single_word": false,
      "lstrip": false,
      "rstrip": false,
      "normalized": false,
      "special": true
    },
    {
      "id": 250,
      "content": "<unused_audio112>",
      "single_word": false,
      "lstrip": false,
      "rstrip": false,
      "normalized": false,
      "special": true
    },
    {
      "id": 251,
      "content": "<unused_audio113>",
      "single_word": false,
      "lstrip": false,
      "rstrip": false,
      "normalized": false,
      "special": true
    },
    {
      "id": 252,
      "content": "<unused_audio114>",
      "single_word": false,
      "lstrip": false,
      "rstrip": false,
      "normalized": false,
      "special": true
    },
    {
      "id": 253,
      "content": "<unused_audio115>",
      "single_word": false,
      "lstrip": false,
      "rstrip": false,
      "normalized": false,
      "special": true
    },
    {
      "id": 254,
      "content": "<unused_audio116>",
      "single_word": false,
      "lstrip": false,
      "rstrip": false,
      "normalized": false,
      "special": true
    },
    {
      "id": 255,
      "content": "<unused_audio117>",
      "single_word": false,
      "lstrip": false,
      "rstrip": false,
      "normalized": false,
      "special": true
    },
    {
      "id": 256,
      "content": "<unused_audio118>",
      "single_word": false,
      "lstrip": false,
      "rstrip": false,
      "normalized": false,
      "special": true
    },
    {
      "id": 257,
      "content": "<unused_audio119>",
      "single_word": false,
      "lstrip": false,
      "rstrip": false,
      "normalized": false,
      "special": true
    },
    {
      "id": 258,
      "content": "<unused_audio120>",
      "single_word": false,
      "lstrip": false,
      "rstrip": false,
      "normalized": false,
      "special": true
    },
    {
      "id": 259,
      "content": "<unused_audio121>",
      "single_word": false,
      "lstrip": false,
      "rstrip": false,
      "normalized": false,
      "special": true
    },
    {
      "id": 260,
      "content": "<unused_audio122>",
      "single_word": false,
      "lstrip": false,
      "rstrip": false,
      "normalized": false,
      "special": true
    },
    {
      "id": 261,
      "content": "<unused_audio123>",
      "single_word": false,
      "lstrip": false,
      "rstrip": false,
      "normalized": false,
      "special": true
    },
    {
      "id": 262,
      "content": "<unused_audio124>",
      "single_word": false,
      "lstrip": false,
      "rstrip": false,
      "normalized": false,
      "special": true
    },
    {
      "id": 263,
      "content": "<unused_audio125>",
      "single_word": false,
      "lstrip": false,
      "rstrip": false,
      "normalized": false,
      "special": true
    }
  ],
  "normalizer": {
    "type": "Replace",
    "pattern": {
      "String": " "
    },
    "content": "▁"
  },
  "pre_tokenizer": {
    "type": "Split",
    "pattern": {
      "String": " "
    },
    "behavior": "MergedWithPrevious",
    "invert": false
  },
  "post_processor": {
    "type": "TemplateProcessing",
    "single": [
      {
        "SpecialToken": {
          "id": "<bos>",
          "type_id": 0
        }
      },
      {
        "Sequence": {
          "id": "A",
          "type_id": 0
        }
      }
    ],
    "pair": [
      {
        "SpecialToken": {
          "id": "<bos>",
          "type_id": 0
        }
      },
      {
        "Sequence": {
          "id": "A",
          "type_id": 0
        }
      },
      {
        "SpecialToken": {
          "id": "<bos>",
          "type_id": 1
        }
      },
      {
        "Sequence": {
          "id": "B",
          "type_id": 1
        }
      }
    ],
    "special_tokens": {
      "<bos>": {
        "id": "<bos>",
        "ids": [
          2
        ],
        "tokens": [
          "<bos>"
        ]
      }
    }
  },
  "decoder": {
    "type": "Sequence",
    "decoders": [
      {
        "type": "Replace",
        "pattern": {
          "String": "▁"
        },
        "content": " "
      },
      {
        "type": "ByteFallback"
      },
      {
        "type": "Fuse"
      }
    ]
  },
  "model": {
    "type": "BPE",
    "dropout": null,
    "unk_token": "<unk>",
    "continuing_subword_prefix": null,
    "end_of_word_suffix": null,
    "fuse_unk": true,
    "byte_fallback": true,
    "ignore_merges": false,
    "vocab": {
      "<pad>": 0,
      "<eos>": 1,
      "<bos>": 2,
      "<unk>": 3,
      "<start_of_turn>": 4,
      "<end_of_turn>": 5,
      "<start_of_image>": 6,
      "<start_of_audio>": 7,
      "<end_of_image>": 8,
      "<image_soft_token>": 9,
      "<unused_image0>": 10,
      "<unused_image1>": 11,
      "<unused_image2>": 12,
      "<unused_image3>": 13,
      "<unused_image4>": 14,
      "<unused_image5>": 15,
      "<unused_image6>": 16,
      "<unused_image7>": 17,
      "<unused_image8>": 18,
      "<unused_image9>": 19,
      "<unused_image10>": 20,
      "<unused_image11>": 21,
      "<unused_image12>": 22,
      "<unused_image13>": 23,
      "<unused_image14>": 24,
      "<unused_image15>": 25,
      "<unused_image16>": 26,
      "<unused_image17>": 27,
      "<unused_image18>": 28,
      "<unused_image19>": 29,
      "<unused_image20>": 30,
      "<unused_image21>": 31,
      "<unused_image22>": 32,
      "<unused_image23>": 33,
      "<unused_image24>": 34,
      "<unused_image25>": 35,
      "<unused_image26>": 36,
      "<unused_image27>": 37,
      "<unused_image28>": 38,
      "<unused_image29>": 39,
      "<unused_image30>": 40,
      "<unused_image31>": 41,
      "<unused_image32>": 42,
      "<unused_image33>": 43,
      "<unused_image34>": 44,
      "<unused_image35>": 45,
      "<unused_image36>": 46,
      "<unused_image37>": 47,
      "<unused_image38>": 48,
      "<unused_image39>": 49,
      "<unused_image40>": 50,
      "<unused_image41>": 51,
      "<unused_image42>": 52,
      "<unused_image43>": 53,
      "<unused_image44>": 54,
      "<unused_image45>": 55,
      "<unused_image46>": 56,
      "<unused_image47>": 57,
      "<unused_image48>": 58,
      "<unused_image49>": 59,
      "<unused_image50>": 60,
      "<unused_image51>": 61,
      "<unused_image52>": 62,
      "<unused_image53>": 63,
      "<unused_image54>": 64,
      "<unused_image55>": 65,
      "<unused_image56>": 66,
      "<unused_image57>": 67,
      "<unused_image58>": 68,
      "<unused_image59>": 69,
      "<unused_image60>": 70,
      "<unused_image61>": 71,
      "<unused_image62>": 72,
      "<unused_image63>": 73,
      "<unused_image64>": 74,
      "<unused_image65>": 75,
      "<unused_image66>": 76,
      "<unused_image67>": 77,
      "<unused_image68>": 78,
      "<unused_image69>": 79,
      "<unused_image70>": 80,
      "<unused_image71>": 81,
      "<unused_image72>": 82,
      "<unused_image73>": 83,
      "<unused_image74>": 84,
      "<unused_image75>": 85,
      "<unused_image76>": 86,
      "<unused_image77>": 87,
      "<unused_image78>": 88,
      "<unused_image79>": 89,
      "<unused_image80>": 90,
      "<unused_image81>": 91,
      "<unused_image82>": 92,
      "<unused_image83>": 93,
      "<unused_image84>": 94,
      "<unused_image85>": 95,
      "<unused_image86>": 96,
      "<unused_image87>": 97,
      "<unused_image88>": 98,
      "<unused_image89>": 99,
      "<unused_image90>": 100,
      "<unused_image91>": 101,
      "<unused_image92>": 102,
      "<unused_image93>": 103,
      "<unused_image94>": 104,
      "<unused_image95>": 105,
      "<unused_image96>": 106,
      "<unused_image97>": 107,
      "<unused_image98>": 108,
      "<unused_image99>": 109,
      "<unused_image100>": 110,
      "<unused_image101>": 111,
      "<unused_image102>": 112,
      "<unused_image103>": 113,
      "<unused_image104>": 114,
      "<unused_image105>": 115,
      "<unused_image106>": 116,
      "<unused_image107>": 117,
      "<unused_image108>": 118,
      "<unused_image109>": 119,
      "<unused_image110>": 120,
      "<unused_image111>": 121,
      "<unused_image112>": 122,
      "<unused_image113>": 123,
      "<unused_image114>": 124,
      "<unused_image115>": 125,
      "<unused_image116>": 126,
      "<unused_image117>": 127,
      "<unused_image118>": 128,
      "<unused_image119>": 129,
      "<unused_image120>": 130,
      "<unused_image121>": 131,
      "<unused_image122>": 132,
      "<unused_image123>": 133,
      "<unused_image124>": 134,
      "<unused_image125>": 135,
      "<end_of_audio>": 136,
      "<audio_soft_token>": 137,
      "<unused_audio0>": 138,
      "<unused_audio1>": 139,
      "<unused_audio2>": 140,
      "<unused_audio3>": 141,
      "<unused_audio4>": 142,
      "<unused_audio5>": 143,
      "<unused_audio6>": 144,
      "<unused_audio7>": 145,
      "<unused_audio8>": 146,
      "<unused_audio9>": 147,
      "<unused_audio10>": 148,
      "<unused_audio11>": 149,
      "<unused_audio12>": 150,
      "<unused_audio13>": 151,
      "<unused_audio14>": 152,
      "<unused_audio15>": 153,
      "<unused_audio16>": 154,
      "<unused_audio17>": 155,
      "<unused_audio18>": 156,
      "<unused_audio19>": 157,
      "<unused_audio20>": 158,
      "<unused_audio21>": 159,
      "<unused_audio22>": 160,
      "<unused_audio23>": 161,
      "<unused_audio24>": 162,
      "<unused_audio25>": 163,
      "<unused_audio26>": 164,
      "<unused_audio27>": 165,
      "<unused_audio28>": 166,
      "<unused_audio29>": 167,
      "<unused_audio30>": 168,
      "<unused_audio31>": 169,
      "<unused_audio32>": 170,
      "<unused_audio33>": 171,
      "<unused_audio34>": 172,
      "<unused_audio35>": 173,
      "<unused_audio36>": 174,
      "<unused_audio37>": 175,
      "<unused_audio38>": 176,
      "<unused_audio39>": 177,
      "<unused_audio40>": 178,
      "<unused_audio41>": 179,
      "<unused_audio42>": 180,
      "<unused_audio43>": 181,
      "<unused_audio44>": 182,
      "<unused_audio45>": 183,
      "<unused_audio46>": 184,
      "<unused_audio47>": 185,
      "<unused_audio48>": 186,
      "<unused_audio49>": 187,
      "<unused_audio50>": 188,
      "<unused_audio51>": 189,
      "<unused_audio52>": 190,
      "<unused_audio53>": 191,
      "<unused_audio54>": 192,
      "<unused_audio55>": 193,
      "<unused_audio56>": 194,
      "<unused_audio57>": 195,
      "<unused_audio58>": 196,
      "<unused_audio59>": 197,
      "<unused_audio60>": 198,
      "<unused_audio61>": 199,
      "<unused_audio62>": 200,
      "<unused_audio63>": 201,
      "<unused_audio64>": 202,
      "<unused_audio65>": 203,
      "<unused_audio66>": 204,
      "<unused_audio67>": 205,
      "<unused_audio68>": 206,
      "<unused_audio69>": 207,
      "<unused_audio70>": 208,
      "<unused_audio71>": 209,
      "<unused_audio72>": 210,
      "<unused_audio73>": 211,
      "<unused_audio74>": 212,
      "<unused_audio75>": 213,
      "<unused_audio76>": 214,
      "<unused_audio77>": 215,
      "<unused_audio78>": 216,
      "<unused_audio79>": 217,
      "<unused_audio80>": 218,
      "<unused_audio81>": 219,
      "<unused_audio82>": 220,
      "<unused_audio83>": 221,
      "<unused_audio84>": 222,
      "<unused_audio85>": 223,
      "<unused_audio86>": 224,
      "<unused_audio87>": 225,
      "<unused_audio88>": 226,
      "<unused_audio89>": 227,
      "<unused_audio90>": 228,
      "<unused_audio91>": 229,
      "<unused_audio92>": 230,
      "<unused_audio93>": 231,
      "<unused_audio94>": 232,
      "<unused_audio95>": 233,
      "<unused_audio96>": 234,
      "<unused_audio97>": 235,
      "<unused_audio98>": 236,
      "<unused_audio99>": 237,
      "<unused_audio100>": 238,
      "<unused_audio101>": 239,
      "<unused_audio102>": 240,
      "<unused_audio103>": 241,
      "<unused_audio104>": 242,
      "<unused_audio105>": 243,
      "<unused_audio106>": 244,
      "<unused_audio107>": 245,
      "<unused_audio108>": 246,
      "<unused_audio109>": 247,
      "<unused_audio110>": 248,
      "<unused_audio111>": 249,
      "<unused_audio112>": 250,
      "<unused_audio113>": 251,
      "<unused_audio114>": 252,
      "<unused_audio115>": 253,
      "<unused_audio116>": 254,
      "<unused_audio117>": 255,
      "<unused_audio118>": 256,
      "<unused_audio119>": 257,
      "<unused_audio120>": 258,
      "<unused_audio121>": 259,
      "<unused_audio122>": 260,
      "<unused_audio123>": 261,
      "<unused_audio124>": 262,
      "<unused_audio125>": 263,
      "!": 264,
      "\"": 265,
      "#": 266,
      "$": 267,
      "%": 268,
      "&": 269,
      "'": 270,
      "(": 271,
      ")": 272,
      "*": 273,
      "+": 274,
      ",": 275,
      "-": 276,
      ".": 277,
      "/": 278,
      "0": 279,
      "1": 280,
      "2": 281,
      "3": 282,
      "4": 283,
      "5": 284,
      "6": 285,
      "7": 286,
      "8": 287,
      "9": 288,
      ":": 289,
      ";": 290,
      "=": 291,
      "?": 292,
      "@": 293,
      "A": 294,
      "B": 295,
      "C": 296,
      "D": 297,
      "E": 298,
      "F": 299,
      "G": 300,
      "H": 301,
      "I": 302,
      "J": 303,
      "K": 304,
      "L": 305,
      "M": 306,
      "N": 307,
      "O": 308,
      "P": 309,
      "Q": 310,
      "R": 311,
      "S": 312,
      "T": 313,
      "U": 314,
      "V": 315,
      "W": 316,
      "X": 317,
      "Y": 318,
      "Z": 319,
      "[": 320,
      "\\": 321,
      "]": 322,
      "_": 323,
      "`": 324,
      "a": 325,
      "b": 326,
      "c": 327,
      "d": 328,
      "e": 329,
      "f": 330,
      "g": 331,
      "h": 332,
      "i": 333,
      "j": 334,
      "k": 335,
      "l": 336,
      "m": 337,
      "n": 338,
      "o": 339,
      "p": 340,
      "q": 341,
      "r": 342,
      "s": 343,
      "t": 344,
      "u": 345,
      "v": 346,
      "w": 347,
      "x": 348,
      "y": 349,
      "z": 350,
      "~": 351,
      "": 352,
      "": 353,
      "": 354,
      "": 355,
      "": 356,
      " ": 357,
      "¡": 358,
      "¢": 359,
      "£": 360,
      "¥": 361,
      "§": 362,
      "¨": 363,
      "©": 364,
      "«": 365,
      "­": 366,
      "°": 367,
      "±": 368,
      "²": 369,
      "³": 370,
      "´": 371,
      "µ": 372,
      "¶": 373,
      "·": 374,
      "¸": 375,
      "¹": 376,
      "º": 377,
      "»": 378,
      "¼": 379,
      "½": 380,
      "¾": 381,
      "¿": 382,
      "Â": 383,
      "Ã": 384,
      "É": 385,
      "Ð": 386,
      "Ñ": 387,
      "à": 388,
      "á": 389,
      "â": 390,
      "ä": 391,
      "ç": 392,
      "è": 393,
      "é": 394,
      "ê": 395,
      "ë": 396,
      "í": 397,
      "î": 398,
      "ï": 399,
      "ñ": 400,
      "ò": 401,
      "ó": 402,
      "ô": 403,
      "ö": 404,
      "ù": 405,
      "ú": 406,
      "ü": 407,
      "ý": 408,
      "ł": 409,
      "Œ": 410,
      "œ": 411,
      "Š": 412,
      "š": 413,
      "Ÿ": 414,
      "Ž": 415,
      "ž": 416,
      "ƒ": 417,
      "ˆ": 418,
      "˚": 419,
      "˜": 420,
      "́": 421,
      "Φ": 422,
      "Χ": 423,
      "ό": 424,
      "Ё": 425,
      "І": 426,
      "А": 427,
      "Б": 428,
      "В": 429,
      "Г": 430,
      "Д": 431,
      "Е": 432,
      "Ж": 433,
      "З": 434,
      "И": 435,
      "Й": 436,
      "К": 437,
      "Л": 438,
      "М": 439,
      "Н": 440,
      "О": 441,
      "П": 442,
      "Р": 443,
      "С": 444,
      "Т": 445,
      "У": 446,
      "Ф": 447,
      "Х": 448,
      "Ц": 449,
      "Ч": 450,
      "Ш": 451,
      "Щ": 452,
      "Ы": 453,
      "Ь": 454,
      "Э": 455,
      "Ю": 456,
      "Я": 457,
      "а": 458,
      "б": 459,
      "в": 460,
      "г": 461,
      "д": 462,
      "е": 463,
      "ж": 464,
      "з": 465,
      "и": 466,
      "й": 467,
      "к": 468,
      "л": 469,
      "м": 470,
      "н": 471,
      "о": 472,
      "п": 473,
      "р": 474,
      "с": 475,
      "т": 476,
      "у": 477,
      "ф": 478,
      "х": 479,
      "ц": 480,
      "ч": 481,
      "ш": 482,
      "щ": 483,
      "ъ": 484,
      "ы": 485,
      "ь": 486,
      "э": 487,
      "ю": 488,
      "я": 489,
      "ё": 490,
      "і": 491,
      "ґ": 492,
      "ὀ": 493,
      "​": 494,
      "‑": 495,
      "–": 496,
      "—": 497,
      "‘": 498,
      "’": 499,
      "‚": 500,
      "“": 501,
      "”": 502,
      "„": 503,
      "†": 504,
      "‡": 505,
      "•": 506,
      "…": 507,
      "‰": 508,
      "‹": 509,
      "›": 510,
      "€": 511,
      "№": 512,
      "↔": 513,
      "−": 514,
      "≤": 515,
      "▁": 516,
      "●": 517,
      "": 518,
      "": 519,
      "": 520,
      "": 521,
      "": 522,
      "ﯾ": 523,
      "�": 524,
      "ст": 525,
      "▁п": 526,
      ",▁": 527,
      "е▁": 528,
      "и▁": 529,
      "о▁": 530,
      "ен": 531,
      "ра": 532,
      "но": 533,
      "ро": 534,
      "на": 535,
      "я▁": 536,
      "ко": 537,
      "ре": 538,
      "то": 539,
      "ль": 540,
      "ны": 541,
      "в▁": 542,
      "ит": 543,
      "й▁": 544,
      "▁по": 545,
      "ва": 546,
      "во": 547,
      "ни": 548,
      "ет": 549,
      "м▁": 550,
      "а▁": 551,
      "ь▁": 552,
      "х▁": 553,
      "ени": 554,
      "ер": 555,
      "ли": 556,
      "ка": 557,
      "го": 558,
      "не": 559,
      "со": 560,
      "ри": 561,
      "до": 562,
      "мо": 563,
      "да": 564,
      "ми": 565,
      "ки": 566,
      "за": 567,
      "ла": 568,
      "го▁": 569,
      "ци": 570,
      "ле": 571,
      "ы▁": 572,
      "че": 573,
      "бо": 574,
      "ло": 575,
      "де": 576,
      "ти": 577,
      "то▁": 578,
      "та": 579,
      "т▁": 580,
      "у▁": 581,
      "▁про": 582,
      "ств": 583,
      "ся▁": 584,
      "на▁": 585,
      "к▁": 586,
      "об": 587,
      "вы": 588,
      "ста": 589,
      "те": 590,
      "ет▁": 591,
      "ру": 592,
      "ли▁": 593,
      "ско": 594,
      ",▁ч": 595,
      "ю▁": 596,
      "сп": 597,
      "ма": 598,
      "ть▁": 599,
      "но▁": 600,
      "си": 601,
      "не▁": 602,
      "из": 603,
      "ди": 604,
      "ност": 605,
      "ски": 606,
      "ме": 607,
      "ве": 608,
      "се": 609,
      "ры": 610,
      "сто": 611,
      "ля": 612,
      "ча": 613,
      "с▁": 614,
      "ви": 615,
      "от": 616,
      "▁при": 617,
      "бы": 618,
      "▁пре": 619,
      "раз": 620,
      "ите": 621,
      "кото": 622,
      "стра": 623,
      "ги": 624,
      "хо": 625,
      "мен": 626,
      "ных▁": 627,
      ",▁что▁": 628,
      "ду": 629,
      "ин": 630,
      "су": 631,
      "ми▁": 632,
      "ной▁": 633,
      "ще": 634,
      "итель": 635,
      "ные▁": 636,
      "он": 637,
      "ения▁": 638,
      "га": 639,
      "ну": 640,
      "бе": 641,
      "дол": 642,
      "щи": 643,
      "лю": 644,
      "са": 645,
      "ение▁": 646,
      "рав": 647,
      "▁пол": 648,
      "ити": 649,
      "ть": 650,
      "мер": 651,
      "ного▁": 652,
      "чи": 653,
      "л▁": 654,
      "па": 655,
      "же▁": 656,
      "ля▁": 657,
      "мож": 658,
      "которы": 659,
      "сво": 660,
      "ита": 661,
      "ить▁": 662,
      "бу": 663,
      "ку": 664,
      "по": 665,
      "ба": 666,
      "ся": 667,
      "ки▁": 668,
      "зи": 669,
      "сти": 670,
      "ши": 671,
      "как▁": 672,
      "ор": 673,
      "коно": 674,
      "мы": 675,
      "ства": 676,
      "ется▁": 677,
      "вани": 678,
      "вер": 679,
      "кон": 680,
      "да▁": 681,
      "ны▁": 682,
      "чески": 683,
      "м,▁": 684,
      "жи": 685,
      "вля": 686,
      "кономи": 687,
      "для▁": 688,
      "бы▁": 689,
      "▁под": 690,
      "ствен": 691,
      "е,▁": 692,
      "экономи": 693,
      "му▁": 694,
      "ют▁": 695,
      "ла▁": 696,
      "жа": 697,
      "дер": 698,
      "сле": 699,
      "фи": 700,
      "это": 701,
      "и,▁": 702,
      "лу": 703,
      "ло▁": 704,
      "му": 705,
      "ко▁": 706,
      "▁полити": 707,
      "ня": 708,
      "боль": 709,
      "вре": 710,
      "вро": 711,
      "ения": 712,
      "зна": 713,
      "гра": 714,
      "–▁": 715,
      "▁по▁": 716,
      "спо": 717,
      "ей": 718,
      "ный▁": 719,
      "ют": 720,
      "зо": 721,
      "лен": 722,
      "воз": 723,
      "ос": 724,
      "кра": 725,
      "ным▁": 726,
      "це": 727,
      ",▁что": 728,
      "ден": 729,
      "ред": 730,
      "ющи": 731,
      "ческо": 732,
      "ка▁": 733,
      "▁пред": 734,
      "нов": 735,
      "ран": 736,
      "боле": 737,
      "ше": 738,
      "цен": 739,
      "В▁": 740,
      "сь▁": 741,
      "ар": 742,
      "все": 743,
      "ции▁": 744,
      "н▁": 745,
      "долж": 746,
      "же": 747,
      "вать▁": 748,
      "соб": 749,
      "ство": 750,
      "от▁": 751,
      "жд": 752,
      "за▁": 753,
      "явля": 754,
      ",▁которы": 755,
      "▁пе": 756,
      "аль": 757,
      ",▁по": 758,
      "гу": 759,
      "би": 760,
      "ем▁": 761,
      "год": 762,
      "тель": 763,
      "ход": 764,
      "вроп": 765,
      "ска": 766,
      "более▁": 767,
      "▁в▁": 768,
      "кти": 769,
      "м.": 770,
      "ров": 771,
      "дар": 772,
      "ности▁": 773,
      "ство▁": 774,
      "▁прав": 775,
      "и.": 776,
      "оп": 777,
      "ное▁": 778,
      "ША": 779,
      "США": 780,
      "больш": 781,
      "дру": 782,
      "мы▁": 783,
      "рабо": 784,
      "их▁": 785,
      "из▁": 786,
      "так": 787,
      "вод": 788,
      "ту": 789,
      "это▁": 790,
      "мери": 791,
      "стви": 792,
      "дей": 793,
      "ная▁": 794,
      "тер": 795,
      "ит▁": 796,
      "ить": 797,
      "гла": 798,
      "од": 799,
      "ис": 800,
      "ыва": 801,
      "сти▁": 802,
      "я,▁": 803,
      "ша": 804,
      "гда▁": 805,
      "врем": 806,
      "спе": 807,
      "▁пере": 808,
      "ность▁": 809,
      "сту": 810,
      "й,▁": 811,
      "ти▁": 812,
      "лько▁": 813,
      "или▁": 814,
      "ства▁": 815,
      "нан": 816,
      "тре": 817,
      "она": 818,
      "сте": 819,
      "но,▁": 820,
      "того": 821,
      "00": 822,
      "сли▁": 823,
      "рез": 824,
      "буд": 825,
      "про": 826,
      "лож": 827,
      "его▁": 828,
      "вет": 829,
      "лени": 830,
      "финан": 831,
      "та▁": 832,
      "став": 833,
      "ную▁": 834,
      "стоя": 835,
      "рова": 836,
      "ря": 837,
      "кан": 838,
      "ние▁": 839,
      "ты": 840,
      "род": 841,
      "х,▁": 842,
      "клю": 843,
      "▁и▁": 844,
      "▁пра": 845,
      "гово": 846,
      "тра": 847,
      "судар": 848,
      "ле▁": 849,
      "фор": 850,
      "слу": 851,
      "Европ": 852,
      "отно": 853,
      "се▁": 854,
      "Кита": 855,
      "▁правитель": 856,
      "▁го": 857,
      "сть▁": 858,
      "ей▁": 859,
      "мно": 860,
      "Но▁": 861,
      "ку▁": 862,
      "рас": 863,
      "чен": 864,
      "в,▁": 865,
      "е.": 866,
      "обще": 867,
      "ются▁": 868,
      ",▁чтобы▁": 869,
      "ться▁": 870,
      "жда": 871,
      "ком": 872,
      "нима": 873,
      "й.": 874,
      "также▁": 875,
      "может▁": 876,
      "ан": 877,
      "ном▁": 878,
      "ными▁": 879,
      "шени": 880,
      "государ": 881,
      "тр": 882,
      "тор": 883,
      "дела": 884,
      "возмож": 885,
      "образ": 886,
      "ству": 887,
      "они▁": 888,
      "ят": 889,
      "до▁": 890,
      "каза": 891,
      "е▁по": 892,
      "ща": 893,
      "след": 894,
      ",▁а▁": 895,
      "которо": 896,
      "бле": 897,
      "Со": 898,
      "ния▁": 899,
      "сред": 900,
      "ак": 901,
      "ность": 902,
      "▁пер": 903,
      "во▁": 904,
      "Ко": 905,
      "ской▁": 906,
      "еди": 907,
      ",▁в▁": 908,
      "финансо": 909,
      ":▁": 910,
      "сторо": 911,
      "буду": 912,
      "является▁": 913,
      "ма▁": 914,
      "19": 915,
      "лет": 916,
      "мест": 917,
      "при": 918,
      "вой▁": 919,
      "ты▁": 920,
      "могу": 921,
      "время▁": 922,
      "ления▁": 923,
      "таки": 924,
      "будет▁": 925,
      "други": 926,
      "вой": 927,
      "юще": 928,
      "ских▁": 929,
      "ция▁": 930,
      "все▁": 931,
      "По": 932,
      "-▁": 933,
      "▁пробле": 934,
      "зда": 935,
      "прав": 936,
      "ского▁": 937,
      "д▁": 938,
      "ходи": 939,
      ",▁которые▁": 940,
      "сси": 941,
      "ной": 942,
      "чем▁": 943,
      "обе": 944,
      "»▁": 945,
      "оста": 946,
      "ональ": 947,
      "ни▁": 948,
      "образо": 949,
      "демо": 950,
      "мир": 951,
      "уч": 952,
      "зыва": 953,
      "том": 954,
      ",▁и▁": 955,
      "когда▁": 956,
      "пас": 957,
      "ке▁": 958,
      "стро": 959,
      "вед": 960,
      "фе": 961,
      "в.": 962,
      "▁па": 963,
      "суще": 964,
      ",▁как▁": 965,
      "▁поддер": 966,
      "руп": 967,
      "ление▁": 968,
      "только▁": 969,
      "созда": 970,
      "он▁": 971,
      "ктив": 972,
      "ще▁": 973,
      "бан": 974,
      "гро": 975,
      "если▁": 976,
      "народ": 977,
      "сло": 978,
      "част": 979,
      "жду": 980,
      "так▁": 981,
      "кой▁": 982,
      "нен": 983,
      "крати": 984,
      "▁проти": 985,
      "зиден": 986,
      "жен": 987,
      "нии▁": 988,
      "способ": 989,
      "вания▁": 990,
      "знач": 991,
      "необ": 992,
      "ных": 993,
      ".▁": 994,
      "кри": 995,
      "вых▁": 996,
      "ву": 997,
      "ем": 998,
      "тру": 999,
      "страна": 1000,
      "нача": 1001,
      "рост": 1002,
      "На": 1003,
      "систе": 1004,
      "Во": 1005,
      "иту": 1006,
      "мерикан": 1007,
      "▁пар": 1008,
      "я.": 1009,
      "▁произ": 1010,
      "логи": 1011,
      "лич": 1012,
      "ступ": 1013,
      "вя": 1014,
      "точ": 1015,
      "ра▁": 1016,
      "ми.": 1017,
      "мини": 1018,
      "сь": 1019,
      "име": 1020,
      "том▁": 1021,
      "без": 1022,
      "и▁по": 1023,
      "ется": 1024,
      "гло": 1025,
      "стран": 1026,
      "200": 1027,
      "необходи": 1028,
      "Ка": 1029,
      "им": 1030,
      "вид": 1031,
      "смо": 1032,
      "вые▁": 1033,
      "времен": 1034,
      "ждународ": 1035,
      "ров▁": 1036,
      "циаль": 1037,
      "стре": 1038,
      "ские▁": 1039,
      "кризи": 1040,
      "ее▁": 1041,
      "сч": 1042,
      "было▁": 1043,
      "вла": 1044,
      "пу": 1045,
      "ца": 1046,
      "▁пу": 1047,
      "са▁": 1048,
      "миро": 1049,
      "вопро": 1050,
      "Од": 1051,
      "▁президен": 1052,
      "уров": 1053,
      "само": 1054,
      "ми,▁": 1055,
      "ха": 1056,
      "американ": 1057,
      "лись▁": 1058,
      "станов": 1059,
      "разв": 1060,
      "дав": 1061,
      "▁помо": 1062,
      "Та": 1063,
      "испо": 1064,
      "экономическо": 1065,
      "цион": 1066,
      "быть▁": 1067,
      "бед": 1068,
      "ительно▁": 1069,
      "жени": 1070,
      "США▁": 1071,
      "лан": 1072,
      "еще▁": 1073,
      "могут▁": 1074,
      "ль▁": 1075,
      "наци": 1076,
      "кре": 1077,
      "ван": 1078,
      "сле▁": 1079,
      "многи": 1080,
      "уль": 1081,
      "жду▁": 1082,
      "ческих▁": 1083,
      "дан": 1084,
      "тов▁": 1085,
      "чес": 1086,
      "Амери": 1087,
      "лиш": 1088,
      "инте": 1089,
      "рын": 1090,
      "г▁": 1091,
      "вра": 1092,
      "глоба": 1093,
      "ы,▁": 1094,
      "эти": 1095,
      "лли": 1096,
      "лове": 1097,
      "низ": 1098,
      "пи": 1099,
      "и▁в▁": 1100,
      "следо": 1101,
      "доб": 1102,
      "измен": 1103,
      "тя": 1104,
      "реде": 1105,
      "важ": 1106,
      "демократи": 1107,
      "тро": 1108,
      "ключа": 1109,
      "объ": 1110,
      "х.": 1111,
      "грани": 1112,
      "ком▁": 1113,
      "реш": 1114,
      "ская▁": 1115,
      "ульта": 1116,
      "ного": 1117,
      "Не": 1118,
      "что▁": 1119,
      "бли": 1120,
      "ставля": 1121,
      "были▁": 1122,
      "ится▁": 1123,
      "▁послед": 1124,
      "согла": 1125,
      ",▁на": 1126,
      "Ира": 1127,
      "между▁": 1128,
      "ков▁": 1129,
      "0▁": 1130,
      "Рос": 1131,
      "р▁": 1132,
      "инве": 1133,
      "исполь": 1134,
      "ческие▁": 1135,
      "Росси": 1136,
      "пре": 1137,
      "ва▁": 1138,
      "реги": 1139,
      "воен": 1140,
      "международ": 1141,
      "сер": 1142,
      "исто": 1143,
      "результа": 1144,
      "луч": 1145,
      "сколь": 1146,
      "пер": 1147,
      "основ": 1148,
      "гани": 1149,
      "ные": 1150,
      "действи": 1151,
      "пол": 1152,
      "За": 1153,
      "должны▁": 1154,
      "вши": 1155,
      "ы.": 1156,
      "кры": 1157,
      "три": 1158,
      "Одна": 1159,
      "челове": 1160,
      "уве": 1161,
      "Ин": 1162,
      "том,▁что▁": 1163,
      "ответ": 1164,
      "сдела": 1165,
      "свя": 1166,
      ",▁но▁": 1167,
      "вание▁": 1168,
      "случа": 1169,
      "страны▁": 1170,
      "▁пла": 1171,
      "со▁": 1172,
      "ри▁": 1173,
      "те▁": 1174,
      "ника": 1175,
      "даже▁": 1176,
      "высо": 1177,
      "котора": 1178,
      "себ": 1179,
      "она▁": 1180,
      "ез": 1181,
      "вли": 1182,
      "вого▁": 1183,
      "дви": 1184,
      "тех": 1185,
      "кую▁": 1186,
      "стру": 1187,
      "больше▁": 1188,
      "».": 1189,
      "ению▁": 1190,
      "ня▁": 1191,
      "ю,▁": 1192,
      "раи": 1193,
      "С▁": 1194,
      "кур": 1195,
      "жиз": 1196,
      "ления": 1197,
      "Это▁": 1198,
      "зопас": 1199,
      "спро": 1200,
      "выбо": 1201,
      "них▁": 1202,
      "которые▁": 1203,
      "иться▁": 1204,
      "глобаль": 1205,
      "эк": 1206,
      "яв": 1207,
      "труд": 1208,
      "лся▁": 1209,
      "нер": 1210,
      "ции,▁": 1211,
      "был▁": 1212,
      "емы": 1213,
      "сегод": 1214,
      "ский▁": 1215,
      "мень": 1216,
      "милли": 1217,
      "ности,▁": 1218,
      "Бо": 1219,
      "тив": 1220,
      "ору": 1221,
      "зави": 1222,
      "европ": 1223,
      "эф": 1224,
      "дости": 1225,
      "европей": 1226,
      "развити": 1227,
      "следу": 1228,
      "кто": 1229,
      "сть": 1230,
      "ры▁": 1231,
      "ровать▁": 1232,
      "жива": 1233,
      "личи": 1234,
      "эффе": 1235,
      "дов▁": 1236,
      "%▁": 1237,
      "▁предо": 1238,
      "тен": 1239,
      "м▁и▁": 1240,
      "кла": 1241,
      "отношени": 1242,
      ",▁при": 1243,
      "обеспе": 1244,
      "ческой▁": 1245,
      "лага": 1246,
      "сро": 1247,
      "й▁в▁": 1248,
      "ген": 1249,
      "долла": 1250,
      "де▁": 1251,
      "свобо": 1252,
      "Из": 1253,
      "опреде": 1254,
      "кту": 1255,
      "стан": 1256,
      "бр": 1257,
      "ней": 1258,
      "спор": 1259,
      "обо": 1260,
      "уча": 1261,
      ")▁": 1262,
      "государствен": 1263,
      "безопас": 1264,
      "али": 1265,
      "ным": 1266,
      "кор": 1267,
      "ней▁": 1268,
      "ую▁": 1269,
      "страны": 1270,
      "рь": 1271,
      "ному▁": 1272,
      "лы": 1273,
      "то,▁что▁": 1274,
      "вто": 1275,
      "▁производ": 1276,
      "будут▁": 1277,
      "рован": 1278,
      "уже▁": 1279,
      "вос": 1280,
      "бла": 1281,
      "инвести": 1282,
      "емо": 1283,
      "ю.": 1284,
      "неч": 1285,
      "стаби": 1286,
      "использо": 1287,
      "кап": 1288,
      "доста": 1289,
      "зу": 1290,
      "чет": 1291,
      "сили": 1292,
      "ен▁": 1293,
      "этого▁": 1294,
      "дж": 1295,
      "ядер": 1296,
      "и▁у": 1297,
      "ствитель": 1298,
      "силь": 1299,
      ";▁": 1300,
      "заци": 1301,
      "нало": 1302,
      "20": 1303,
      "работа": 1304,
      "рефор": 1305,
      "лось▁": 1306,
      "деся": 1307,
      "самы": 1308,
      "стран▁": 1309,
      "спа": 1310,
      "зво": 1311,
      "пад": 1312,
      "которая▁": 1313,
      "каж": 1314,
      "что": 1315,
      "ме▁": 1316,
      "разви": 1317,
      "и▁и▁": 1318,
      "или": 1319,
      "ющих▁": 1320,
      "цы▁": 1321,
      "националь": 1322,
      "ческий▁": 1323,
      "смотр": 1324,
      "держа": 1325,
      "ки.": 1326,
      "сла": 1327,
      "конц": 1328,
      "гре": 1329,
      "долго": 1330,
      "Се": 1331,
      "капита": 1332,
      "мас": 1333,
      "я▁на▁": 1334,
      "Па": 1335,
      "лась▁": 1336,
      "сою": 1337,
      "ман": 1338,
      "И▁": 1339,
      "обла": 1340,
      "мн": 1341,
      "насе": 1342,
      "интере": 1343,
      "ний▁": 1344,
      "хот": 1345,
      "им▁": 1346,
      "▁парти": 1347,
      "казыва": 1348,
      "тем▁": 1349,
      "которых▁": 1350,
      "вну": 1351,
      "вз": 1352,
      "усло": 1353,
      "▁поддерж": 1354,
      "энер": 1355,
      "фер": 1356,
      "гражда": 1357,
      ",▁который▁": 1358,
      "стве▁": 1359,
      "году▁": 1360,
      "ститу": 1361,
      "ут": 1362,
      "ят▁": 1363,
      "влия": 1364,
      "ный": 1365,
      "▁приня": 1366,
      "Однако▁": 1367,
      "х▁по": 1368,
      "этом▁": 1369,
      "благо": 1370,
      "собствен": 1371,
      "истори": 1372,
      "пример": 1373,
      "м▁образо": 1374,
      "осно": 1375,
      "для": 1376,
      "▁при▁": 1377,
      "Если▁": 1378,
      "член": 1379,
      "Гер": 1380,
      "как": 1381,
      "теги": 1382,
      "счита": 1383,
      "ности.": 1384,
      "была▁": 1385,
      "значитель": 1386,
      "эффектив": 1387,
      "▁помощ": 1388,
      "енно▁": 1389,
      "▁проце": 1390,
      "вне": 1391,
      ",▁когда▁": 1392,
      "кто▁": 1393,
      "Япо": 1394,
      "других▁": 1395,
      "теле": 1396,
      "чески▁": 1397,
      "▁года": 1398,
      "▁после▁": 1399,
      "й▁и▁": 1400,
      "может": 1401,
      "▁против▁": 1402,
      "ше▁": 1403,
      "Израи": 1404,
      "шения▁": 1405,
      "ке": 1406,
      "▁году": 1407,
      "иде": 1408,
      "него▁": 1409,
      "Бу": 1410,
      "торго": 1411,
      "угро": 1412,
      "ограни": 1413,
      "валю": 1414,
      "стратеги": 1415,
      "скольку▁": 1416,
      "того,▁": 1417,
      "чение▁": 1418,
      "особ": 1419,
      "ки,▁": 1420,
      "Герма": 1421,
      "структу": 1422,
      "контро": 1423,
      "един": 1424,
      "развива": 1425,
      "жения▁": 1426,
      "Аф": 1427,
      "грам": 1428,
      "большин": 1429,
      "раль": 1430,
      "тов": 1431,
      "м▁по": 1432,
      "я▁по": 1433,
      "ющие▁": 1434,
      "и▁не": 1435,
      "лет▁": 1436,
      "существу": 1437,
      "успе": 1438,
      "мог": 1439,
      "органи": 1440,
      "управ": 1441,
      "ков": 1442,
      "Но": 1443,
      "вый▁": 1444,
      "хран": 1445,
      "зависи": 1446,
      "вле": 1447,
      ",▁про": 1448,
      "можно▁": 1449,
      "ется▁в▁": 1450,
      "говор": 1451,
      "серь": 1452,
      "шей▁": 1453,
      "его": 1454,
      "ту▁": 1455,
      "сил": 1456,
      "сы▁": 1457,
      "мо▁": 1458,
      "ур": 1459,
      "цию▁": 1460,
      "вая▁": 1461,
      "сроч": 1462,
      "сни": 1463,
      "▁прош": 1464,
      ",▁не": 1465,
      "компа": 1466,
      "м▁в▁": 1467,
      "ении▁": 1468,
      "эти▁": 1469,
      "Инди": 1470,
      "гда": 1471,
      "ких▁": 1472,
      "внутр": 1473,
      "лик": 1474,
      "голо": 1475,
      "▁процес": 1476,
      "того▁": 1477,
      "состоя": 1478,
      "своих▁": 1479,
      "ниче": 1480,
      "лети": 1481,
      "социаль": 1482,
      "зы": 1483,
      "сторон": 1484,
      "дву": 1485,
      "сов▁": 1486,
      "оказа": 1487,
      "Са": 1488,
      "Фран": 1489,
      "бю": 1490,
      "глав": 1491,
      "кого▁": 1492,
      "сколько▁": 1493,
      "стабиль": 1494,
      "имо": 1495,
      "ОН": 1496,
      "должа": 1497,
      "являются▁": 1498,
      "Европей": 1499,
      "Восто": 1500,
      "ции.": 1501,
      "Ме": 1502,
      "они": 1503,
      "инф": 1504,
      "▁призна": 1505,
      "▁предпо": 1506,
      "сей": 1507,
      "чу": 1508,
      "свои▁": 1509,
      "ун": 1510,
      "кой": 1511,
      "форма": 1512,
      "ств▁": 1513,
      "▁приве": 1514,
      "▁под▁": 1515,
      "веро": 1516,
      "199": 1517,
      "сокра": 1518,
      "круп": 1519,
      "свобод": 1520,
      "личе": 1521,
      "свою▁": 1522,
      "люд": 1523,
      "каче": 1524,
      "шение▁": 1525,
      "оче": 1526,
      "регу": 1527,
      "ция": 1528,
      "фак": 1529,
      "пе": 1530,
      "требу": 1531,
      "0-": 1532,
      "ения.": 1533,
      "оди": 1534,
      "хся▁": 1535,
      "достаточ": 1536,
      "реаль": 1537,
      "ности": 1538,
      "ческого▁": 1539,
      "Ра": 1540,
      "тем": 1541,
      ",▁по▁": 1542,
      "заключа": 1543,
      "▁прави": 1544,
      "министра": 1545,
      "▁програм": 1546,
      "себя▁": 1547,
      "нее▁": 1548,
      "груп": 1549,
      "увелич": 1550,
      "то▁время▁": 1551,
      "кли": 1552,
      "очен": 1553,
      "мира": 1554,
      "жение▁": 1555,
      "траль": 1556,
      "рак": 1557,
      "услови": 1558,
      "кро": 1559,
      "своей▁": 1560,
      "ё▁": 1561,
      "больши": 1562,
      "стин": 1563,
      "Ве": 1564,
      "мати": 1565,
      "мь": 1566,
      "количе": 1567,
      "руко": 1568,
      "ение": 1569,
      "ением▁": 1570,
      "Ази": 1571,
      "обществен": 1572,
      "наход": 1573,
      "единен": 1574,
      "яза": 1575,
      "ния": 1576,
      "откры": 1577,
      "зации▁": 1578,
      "евро": 1579,
      "итуа": 1580,
      "ок": 1581,
      "большо": 1582,
      "ключ": 1583,
      "обра": 1584,
      "кие▁": 1585,
      "ством▁": 1586,
      "много▁": 1587,
      "яс": 1588,
      "ствова": 1589,
      "работ": 1590,
      "неф": 1591,
      "нем▁": 1592,
      "ыта": 1593,
      "собо": 1594,
      "»,▁": 1595,
      "этих▁": 1596,
      "настоя": 1597,
      "хоро": 1598,
      "много": 1599,
      "дов": 1600,
      ").": 1601,
      "ровани": 1602,
      "наде": 1603,
      "▁продолжа": 1604,
      ",▁чтобы": 1605,
      "уда": 1606,
      "ции": 1607,
      "ителе": 1608,
      "бира": 1609,
      "ства.": 1610,
      "ться": 1611,
      "друго": 1612,
      "будуще": 1613,
      "еть▁": 1614,
      "треб": 1615,
      "всего▁": 1616,
      "я▁и▁": 1617,
      "защ": 1618,
      "руковод": 1619,
      "ЕС": 1620,
      "конф": 1621,
      "е▁в▁": 1622,
      "ожи": 1623,
      "мента": 1624,
      "техно": 1625,
      "нет": 1626,
      "смотря▁на▁": 1627,
      "ения,▁": 1628,
      "▁процен": 1629,
      "но▁по": 1630,
      "обеспеч": 1631,
      "лег": 1632,
      "очень▁": 1633,
      "ситуа": 1634,
      "экономического▁": 1635,
      "мет": 1636,
      "относ": 1637,
      "необходимо": 1638,
      "серьез": 1639,
      "сегодня": 1640,
      "направ": 1641,
      "без▁": 1642,
      "нуж": 1643,
      "‑▁": 1644,
      "же,▁": 1645,
      "тить▁": 1646,
      "режи": 1647,
      "ро▁": 1648,
      "▁прошло": 1649,
      "знача": 1650,
      "сейча": 1651,
      "ыт": 1652,
      "Да": 1653,
      "этой▁": 1654,
      "терро": 1655,
      "обяза": 1656,
      "вмест": 1657,
      "распро": 1658,
      "хи": 1659,
      "пен": 1660,
      "тому▁": 1661,
      "кита": 1662,
      "сказа": 1663,
      "Ма": 1664,
      "ским▁": 1665,
      "пла": 1666,
      "стой": 1667,
      "ную": 1668,
      "сы": 1669,
      "▁противо": 1670,
      "я▁в▁": 1671,
      "акти": 1672,
      "технологи": 1673,
      "шен": 1674,
      "всех▁": 1675,
      "китай": 1676,
      "опас": 1677,
      "бога": 1678,
      "▁политики▁": 1679,
      "га▁": 1680,
      "брита": 1681,
      "где▁": 1682,
      "исследо": 1683,
      "многие▁": 1684,
      "ет,▁что▁": 1685,
      "ное": 1686,
      "в▁по": 1687,
      "ми▁и▁": 1688,
      "наи": 1689,
      "мене": 1690,
      ",▁поскольку▁": 1691,
      "стрем": 1692,
      "развивающи": 1693,
      "но-": 1694,
      "сут": 1695,
      "цев▁": 1696,
      "уни": 1697,
      "201": 1698,
      "внима": 1699,
      "дет": 1700,
      "то▁время▁как▁": 1701,
      "есть▁": 1702,
      "ны.": 1703,
      "борь": 1704,
      "ара": 1705,
      "того,▁что▁": 1706,
      "огро": 1707,
      "й▁по": 1708,
      "ная": 1709,
      "▁представ": 1710,
      "которой▁": 1711,
      "еся▁": 1712,
      "▁–▁": 1713,
      "не▁только▁": 1714,
      "ке,▁": 1715,
      "ью▁": 1716,
      "решени": 1717,
      "▁правительство▁": 1718,
      "которое▁": 1719,
      "ностью▁": 1720,
      "лидер": 1721,
      "нет▁": 1722,
      "ях▁": 1723,
      "десяти": 1724,
      "сур": 1725,
      "ятся▁": 1726,
      "Оба": 1727,
      "шта": 1728,
      "вероят": 1729,
      "тори": 1730,
      "террори": 1731,
      "усили": 1732,
      "ы▁в▁": 1733,
      "таких▁": 1734,
      "над": 1735,
      "защит": 1736,
      "дене": 1737,
      "означа": 1738,
      "ностран": 1739,
      "ются": 1740,
      "включа": 1741,
      "т.": 1742,
      "бюдж": 1743,
      "пример,▁": 1744,
      "вает▁": 1745,
      "мыш": 1746,
      "регули": 1747,
      "чь▁": 1748,
      "ге": 1749,
      "оружи": 1750,
      "▁причи": 1751,
      "ху": 1752,
      "▁перегово": 1753,
      "сто▁": 1754,
      "ним▁": 1755,
      "роста▁": 1756,
      "лишь▁": 1757,
      "сен": 1758,
      "ад": 1759,
      "ны,▁": 1760,
      "Шта": 1761,
      "▁на▁": 1762,
      "избе": 1763,
      "недав": 1764,
      "жела": 1765,
      "внутрен": 1766,
      "многих▁": 1767,
      "иг": 1768,
      "для▁того": 1769,
      "стороны▁": 1770,
      "Про": 1771,
      "щен": 1772,
      "5▁": 1773,
      "ново": 1774,
      "бо▁": 1775,
      "ют,▁что▁": 1776,
      "йти▁": 1777,
      "связа": 1778,
      "нов▁": 1779,
      "верен": 1780,
      "ными": 1781,
      "ющей▁": 1782,
      "вым▁": 1783,
      "бро": 1784,
      "чной▁": 1785,
      "рис": 1786,
      "иностран": 1787,
      "хва": 1788,
      "такие▁": 1789,
      ",▁а▁также▁": 1790,
      "кред": 1791,
      "сотруд": 1792,
      "слиш": 1793,
      "Как▁": 1794,
      "ян": 1795,
      "ском▁": 1796,
      "особенно▁": 1797,
      "но.": 1798,
      "лиде": 1799,
      "ООН": 1800,
      "▁перед": 1801,
      "▁пери": 1802,
      "граждан": 1803,
      "воль": 1804,
      "▁позво": 1805,
      "Вели": 1806,
      "),▁": 1807,
      "▁практи": 1808,
      "циа": 1809,
      "итет": 1810,
      "десятилети": 1811,
      "кци": 1812,
      "край": 1813,
      "и▁про": 1814,
      "щее▁": 1815,
      "стри": 1816,
      "волю": 1817,
      "ресур": 1818,
      "пло": 1819,
      "��": 1820,
      "лестин": 1821,
      "фон": 1822,
      "информа": 1823,
      "чис": 1824,
      "союз": 1825,
      "яви": 1826,
      "лиз": 1827,
      "▁правительства▁": 1828,
      "ы▁на▁": 1829,
      "ка.": 1830,
      "спу": 1831,
      "восстанов": 1832,
      "▁полу": 1833,
      "ших▁": 1834,
      "этому▁": 1835,
      "кси": 1836,
      "Соединен": 1837,
      "имен": 1838,
      "ка,▁": 1839,
      "одна": 1840,
      "не.": 1841,
      "Коре": 1842,
      "ы▁и▁": 1843,
      "всем▁": 1844,
      "бюджет": 1845,
      "тин": 1846,
      "ана": 1847,
      "слож": 1848,
      "гля": 1849,
      "ства,▁": 1850,
      "▁предпри": 1851,
      "щих▁": 1852,
      "ть.": 1853,
      "стиму": 1854,
      "ствовать▁": 1855,
      "другие▁": 1856,
      "миллиар": 1857,
      "ники▁": 1858,
      "вест": 1859,
      "дель": 1860,
      "из-": 1861,
      "ть,▁что▁": 1862,
      "должен▁": 1863,
      "требо": 1864,
      "об▁": 1865,
      "е▁и▁": 1866,
      "Си": 1867,
      "тому": 1868,
      "рыно": 1869,
      "больше": 1870,
      "Ре": 1871,
      "финанси": 1872,
      "фун": 1873,
      "утвер": 1874,
      "глу": 1875,
      "дра": 1876,
      "полн": 1877,
      "ожида": 1878,
      "зр": 1879,
      "лее▁": 1880,
      "фиц": 1881,
      "закон": 1882,
      "ответствен": 1883,
      "налого": 1884,
      "е▁с▁": 1885,
      "внеш": 1886,
      "мире": 1887,
      "ке.": 1888,
      "любо": 1889,
      "слишком▁": 1890,
      "эле": 1891,
      "куль": 1892,
      "огром": 1893,
      "ческая▁": 1894,
      "▁года▁": 1895,
      "ников▁": 1896,
      "либо▁": 1897,
      "ВП": 1898,
      "конеч": 1899,
      "дохо": 1900,
      "го,▁": 1901,
      "кр": 1902,
      "доро": 1903,
      "странах▁": 1904,
      "Ми": 1905,
      "▁представля": 1906,
      "о▁том,▁что▁": 1907,
      "нес": 1908,
      "инфля": 1909,
      "лиц": 1910,
      "наб": 1911,
      "Ли": 1912,
      "ера": 1913,
      "этот▁": 1914,
      "мя": 1915,
      "стойчи": 1916,
      "ети": 1917,
      "также": 1918,
      "ВВП": 1919,
      "широ": 1920,
      "зависимо": 1921,
      "Евро": 1922,
      "ЕС▁": 1923,
      "момен": 1924,
      "е,▁чем▁": 1925,
      "м▁образом,▁": 1926,
      "ваться▁": 1927,
      "суль": 1928,
      "рост▁": 1929,
      "энерги": 1930,
      "втор": 1931,
      "ческим▁": 1932,
      "иты": 1933,
      "ек": 1934,
      "ды": 1935,
      "их": 1936,
      "вин": 1937,
      "балан": 1938,
      "течение▁": 1939,
      "конфлик": 1940,
      "на▁по": 1941,
      "Сою": 1942,
      "наза": 1943,
      "конкур": 1944,
      "сегодня▁": 1945,
      "выз": 1946,
      "ат": 1947,
      "Более▁": 1948,
      "чно▁": 1949,
      "щая▁": 1950,
      "▁пло": 1951,
      "чти▁": 1952,
      "Афри": 1953,
      "Китай▁": 1954,
      "чер": 1955,
      "должна▁": 1956,
      "зя": 1957,
      "К▁": 1958,
      "щение▁": 1959,
      "на.": 1960,
      "совер": 1961,
      ",▁если▁": 1962,
      "будет": 1963,
      "Дей": 1964,
      "щения▁": 1965,
      "централь": 1966,
      "конкурен": 1967,
      "люде": 1968,
      "рабочи": 1969,
      "исход": 1970,
      "рави": 1971,
      "итыва": 1972,
      "и▁с▁": 1973,
      "▁произо": 1974,
      "нару": 1975,
      "▁процент": 1976,
      "-то▁": 1977,
      "нии,▁": 1978,
      "Это": 1979,
      "следова": 1980,
      "действитель": 1981,
      "на▁про": 1982,
      "ское▁": 1983,
      "не,▁": 1984,
      "мировой▁": 1985,
      "игра": 1986,
      "собы": 1987,
      "людей": 1988,
      "сно": 1989,
      "зада": 1990,
      "ей.": 1991,
      "над▁": 1992,
      "дея": 1993,
      "мед": 1994,
      "избира": 1995,
      "Пу": 1996,
      "лле": 1997,
      "нци": 1998,
      "ческую▁": 1999,
      "креп": 2000,
      "том,▁": 2001,
      "Тур": 2002,
      "ража": 2003,
      "▁предлож": 2004,
      "То": 2005,
      "рования▁": 2006,
      "циональ": 2007,
      "менее▁": 2008,
      "▁получ": 2009,
      "ритори": 2010,
      "МВ": 2011,
      "исла": 2012,
      "культу": 2013,
      "обязатель": 2014,
      "уровен": 2015,
      "Кон": 2016,
      "один▁": 2017,
      "институ": 2018,
      "ять▁": 2019,
      "скоре": 2020,
      "дел": 2021,
      "ром▁": 2022,
      "следстви": 2023,
      "отношении▁": 2024,
      "МВФ": 2025,
      "кое▁": 2026,
      "суд": 2027,
      "возможно,▁": 2028,
      "даль": 2029,
      "сегодняш": 2030,
      "нец": 2031,
      "расши": 2032,
      "имеет▁": 2033,
      "экспор": 2034,
      "заключается▁в▁": 2035,
      "qu": 2036,
      "ot": 2037,
      "сты": 2038,
      "да.": 2039,
      "определен": 2040,
      "▁президента▁": 2041,
      "ций▁": 2042,
      "могут": 2043,
      "обы": 2044,
      "Для▁": 2045,
      "сутстви": 2046,
      "▁перед▁": 2047,
      "вор": 2048,
      "Ха": 2049,
      "кар": 2050,
      "кая▁": 2051,
      "бра": 2052,
      "раздо▁": 2053,
      "сейчас▁": 2054,
      "соответ": 2055,
      "меша": 2056,
      "На▁": 2057,
      "лось": 2058,
      "на,▁": 2059,
      "фо": 2060,
      "составля": 2061,
      "льз": 2062,
      "грес": 2063,
      "меся": 2064,
      "из-за▁": 2065,
      "сделать▁": 2066,
      "ги▁": 2067,
      "обре": 2068,
      "разу": 2069,
      "шего▁": 2070,
      "групп": 2071,
      "вают▁": 2072,
      "той▁": 2073,
      "кло": 2074,
      "конце▁": 2075,
      "клима": 2076,
      "пон": 2077,
      "мьер": 2078,
      "г.": 2079,
      "лению▁": 2080,
      ",▁не▁": 2081,
      "доступ": 2082,
      "экономики▁": 2083,
      "когда": 2084,
      "должно▁": 2085,
      "власти▁": 2086,
      "степен": 2087,
      "чув": 2088,
      "не▁по": 2089,
      "вс": 2090,
      "вал▁": 2091,
      "долларов▁": 2092,
      "дефиц": 2093,
      "Действитель": 2094,
      "два": 2095,
      "ступа": 2096,
      "Они▁": 2097,
      "не▁мене": 2098,
      "▁принци": 2099,
      "Запа": 2100,
      "срав": 2101,
      "▁проду": 2102,
      "рон": 2103,
      ",▁пре": 2104,
      "регио": 2105,
      "нию▁": 2106,
      "оз": 2107,
      "цель": 2108,
      "дис": 2109,
      "котору": 2110,
      "хотя▁": 2111,
      "кий▁": 2112,
      "стави": 2113,
      "минист": 2114,
      "долгосроч": 2115,
      "гну": 2116,
      "▁поддержива": 2117,
      "место▁": 2118,
      "связ": 2119,
      "сма": 2120,
      "а▁в▁": 2121,
      "ках▁": 2122,
      "▁пример": 2123,
      "стоимо": 2124,
      "миллио": 2125,
      "До": 2126,
      "Мо": 2127,
      "▁году▁": 2128,
      "–▁это▁": 2129,
      "сек": 2130,
      "кну": 2131,
      "своего▁": 2132,
      "яти": 2133,
      "для▁того,▁чтобы▁": 2134,
      "у▁в▁": 2135,
      "несколько▁": 2136,
      "▁палестин": 2137,
      "стать▁": 2138,
      "▁повы": 2139,
      "спра": 2140,
      "мышлен": 2141,
      "ции▁в▁": 2142,
      "ли▁в▁": 2143,
      "сан": 2144,
      "умень": 2145,
      "шин": 2146,
      "пор": 2147,
      "гораздо▁": 2148,
      "качестве▁": 2149,
      "стоян": 2150,
      "тся▁": 2151,
      "ей,▁": 2152,
      "так▁и▁": 2153,
      "доволь": 2154,
      "одно": 2155,
      "а▁также▁": 2156,
      "Велико": 2157,
      "ре▁": 2158,
      "исп": 2159,
      "к.": 2160,
      "шения": 2161,
      "США,▁": 2162,
      "По▁": 2163,
      "Тем▁": 2164,
      "расту": 2165,
      "кредит": 2166,
      "оцен": 2167,
      "ход▁": 2168,
      "мисси": 2169,
      "администра": 2170,
      "нам▁": 2171,
      "часть▁": 2172,
      "дом▁": 2173,
      "через": 2174,
      "вен": 2175,
      "чему▁": 2176,
      "увеличи": 2177,
      "цу": 2178,
      "готов": 2179,
      "Га": 2180,
      "Юж": 2181,
      "ТО": 2182,
      "лись": 2183,
      "▁последние▁": 2184,
      "Великобрита": 2185,
      "ным,▁": 2186,
      "Буш": 2187,
      "▁перспе": 2188,
      "во▁время▁": 2189,
      "люда": 2190,
      "Таки": 2191,
      "мьер-": 2192,
      "ным.": 2193,
      "са.": 2194,
      "настоящее▁": 2195,
      "рели": 2196,
      "перь▁": 2197,
      "мере▁": 2198,
      "Бе": 2199,
      "экономический▁": 2200,
      "может▁быть▁": 2201,
      "сотрудниче": 2202,
      "со▁стороны▁": 2203,
      "день": 2204,
      "При": 2205,
      "0-х▁": 2206,
      "валют": 2207,
      "результате▁": 2208,
      "вет▁": 2209,
      "▁проблемы▁": 2210,
      "▁получа": 2211,
      "уровень▁": 2212,
      "quot": 2213,
      "Когда▁": 2214,
      "но,▁что▁": 2215,
      "относительно▁": 2216,
      "сматри": 2217,
      "Гре": 2218,
      "вали▁": 2219,
      "самом▁": 2220,
      "ений▁": 2221,
      "актив": 2222,
      "конец": 2223,
      "револю": 2224,
      "Север": 2225,
      "комму": 2226,
      "нико": 2227,
      "сти.": 2228,
      "к,▁": 2229,
      "го▁по": 2230,
      "мощ": 2231,
      "довер": 2232,
      "мой▁": 2233,
      "креди": 2234,
      "чин": 2235,
      "мыс": 2236,
      "ми▁в▁": 2237,
      "еврозо": 2238,
      "гаран": 2239,
      "и▁за": 2240,
      "ждения▁": 2241,
      "Совет": 2242,
      "шие▁": 2243,
      "имеют▁": 2244,
      "щие▁": 2245,
      "системы▁": 2246,
      "Кро": 2247,
      "два▁": 2248,
      "большинство▁": 2249,
      "тран": 2250,
      "Боль": 2251,
      "тов,▁": 2252,
      "установ": 2253,
      "л,▁что▁": 2254,
      "члено": 2255,
      "▁просто▁": 2256,
      "дума": 2257,
      "Бли": 2258,
      "ён": 2259,
      "ем,▁": 2260,
      "ров.": 2261,
      "Дж": 2262,
      "устойчи": 2263,
      "▁политика▁": 2264,
      "обеща": 2265,
      "т,▁": 2266,
      "ким▁": 2267,
      "встре": 2268,
      "и▁при": 2269,
      "новых▁": 2270,
      "ведли": 2271,
      "крити": 2272,
      "религи": 2273,
      "мусуль": 2274,
      "людей▁": 2275,
      "удов": 2276,
      "това": 2277,
      "бере": 2278,
      "йся▁": 2279,
      "ния,▁": 2280,
      "осуще": 2281,
      "сель": 2282,
      "гаранти": 2283,
      "скую▁": 2284,
      "да,▁": 2285,
      "Кроме▁": 2286,
      "Ближ": 2287,
      "такой▁": 2288,
      "хозя": 2289,
      "улуч": 2290,
      "сохран": 2291,
      "извест": 2292,
      "смер": 2293,
      "не▁в▁": 2294,
      "198": 2295,
      "мина": 2296,
      "мени": 2297,
      "событи": 2298,
      "ности▁и▁": 2299,
      "орга": 2300,
      "вания": 2301,
      "тради": 2302,
      "некоторые▁": 2303,
      "офи": 2304,
      "масшта": 2305,
      "Действительно,▁": 2306,
      "одной▁": 2307,
      "лько": 2308,
      "Однако": 2309,
      "жении▁": 2310,
      "не▁менее,▁": 2311,
      "щую▁": 2312,
      "могли▁": 2313,
      "справедли": 2314,
      "сообще": 2315,
      "вы▁": 2316,
      "шо": 2317,
      "рой▁": 2318,
      "секто": 2319,
      "тому▁что▁": 2320,
      "ющий▁": 2321,
      "либе": 2322,
      "ству▁": 2323,
      "мы.": 2324,
      "ряд": 2325,
      "возможность▁": 2326,
      "та.": 2327,
      "огранич": 2328,
      "▁пыта": 2329,
      "США.": 2330,
      "ма.": 2331,
      "вести▁": 2332,
      "жды": 2333,
      "очеред": 2334,
      "е▁про": 2335,
      "e▁": 2336,
      "заня": 2337,
      "утвержда": 2338,
      "ему▁": 2339,
      "хра": 2340,
      "▁политической▁": 2341,
      "расхо": 2342,
      "разде": 2343,
      "населения▁": 2344,
      "денеж": 2345,
      "которую▁": 2346,
      "л▁в▁": 2347,
      "оши": 2348,
      "ть▁по": 2349,
      "ть,▁": 2350,
      "вза": 2351,
      "региональ": 2352,
      "Об": 2353,
      "наш": 2354,
      "территори": 2355,
      "называ": 2356,
      "Ла": 2357,
      "ческое▁": 2358,
      "ится": 2359,
      "Америки▁": 2360,
      "Пер": 2361,
      "лин": 2362,
      "воору": 2363,
      "Китая▁": 2364,
      "необходимо▁": 2365,
      "нор": 2366,
      "сравн": 2367,
      "пыт": 2368,
      "современ": 2369,
      "е▁при": 2370,
      "жать▁": 2371,
      "ствует▁": 2372,
      "торгов": 2373,
      "ради": 2374,
      "ляр": 2375,
      "выбора": 2376,
      "мы,▁": 2377,
      "крат": 2378,
      "мире▁": 2379,
      "Мы▁": 2380,
      "вую▁": 2381,
      "гип": 2382,
      "случае▁": 2383,
      "чи▁": 2384,
      "через▁": 2385,
      "свой▁": 2386,
      "США▁и▁": 2387,
      "араб": 2388,
      "сно▁": 2389,
      "достаточно▁": 2390,
      "исключ": 2391,
      "богаты": 2392,
      "авто": 2393,
      "собой▁": 2394,
      "твра": 2395,
      "мира▁": 2396,
      "того,▁как▁": 2397,
      "развивающихся▁": 2398,
      "банков": 2399,
      "мир▁": 2400,
      "кам": 2401,
      "тели▁": 2402,
      "среди▁": 2403,
      "здра": 2404,
      "ква": 2405,
      "должны": 2406,
      "воду▁": 2407,
      "осталь": 2408,
      "участи": 2409,
      "дать▁": 2410,
      "▁показа": 2411,
      "демон": 2412,
      "гие▁": 2413,
      "▁предостав": 2414,
      "хозяй": 2415,
      "мигра": 2416,
      "быст": 2417,
      "дца": 2418,
      "роста": 2419,
      "тов.": 2420,
      "воо": 2421,
      "ит▁в▁": 2422,
      "деятель": 2423,
      "ского": 2424,
      "организаци": 2425,
      "▁предотвра": 2426,
      "с,▁": 2427,
      "▁потреб": 2428,
      "вое▁": 2429,
      "ори": 2430,
      "жест": 2431,
      "Пре": 2432,
      "лении▁": 2433,
      "цией▁": 2434,
      "росси": 2435,
      "▁премьер-": 2436,
      "является": 2437,
      "никогда▁": 2438,
      "&quot": 2439,
      "НА": 2440,
      "осуществ": 2441,
      "с.": 2442,
      "▁последстви": 2443,
      "кру": 2444,
      "совет": 2445,
      "войны▁": 2446,
      "часто▁": 2447,
      "оборо": 2448,
      "Ни": 2449,
      "Укра": 2450,
      "тому,▁что▁": 2451,
      "дипло": 2452,
      "эксп": 2453,
      "ли,▁": 2454,
      "ью": 2455,
      "нова": 2456,
      "чрез": 2457,
      "двух▁": 2458,
      "раиль": 2459,
      "расшир": 2460,
      "ологи": 2461,
      "борьб": 2462,
      "доход": 2463,
      "израиль": 2464,
      "которого▁": 2465,
      "окру": 2466,
      "иму": 2467,
      "ители▁": 2468,
      "ции▁и▁": 2469,
      "бер": 2470,
      "рование▁": 2471,
      "ене": 2472,
      "новые▁": 2473,
      "ности▁в▁": 2474,
      "угроз": 2475,
      "неш": 2476,
      "занима": 2477,
      "теку": 2478,
      "анти": 2479,
      "ющим▁": 2480,
      "Все": 2481,
      "сре": 2482,
      "щий▁": 2483,
      "беспо": 2484,
      "уди": 2485,
      "использу": 2486,
      "ной,▁": 2487,
      "ные▁по": 2488,
      "очевид": 2489,
      "работи": 2490,
      "массо": 2491,
      "моло": 2492,
      "▁президент▁": 2493,
      "нять▁": 2494,
      "Сегод": 2495,
      "Сири": 2496,
      "бре": 2497,
      "Ва": 2498,
      "ма,▁": 2499,
      "Запад": 2500,
      "мере": 2501,
      "источ": 2502,
      "ламен": 2503,
      "Го": 2504,
      "зако": 2505,
      "разру": 2506,
      "Иран": 2507,
      "спубли": 2508,
      "рует▁": 2509,
      "Пути": 2510,
      "ды▁": 2511,
      "дет▁": 2512,
      "распростран": 2513,
      "наблюда": 2514,
      "емых▁": 2515,
      "ли.": 2516,
      "изменения▁": 2517,
      "довери": 2518,
      "Он▁": 2519,
      "и▁не▁": 2520,
      "нему▁": 2521,
      "-либо▁": 2522,
      "единствен": 2523,
      "выбро": 2524,
      "осла": 2525,
      "вопроса": 2526,
      "Ба": 2527,
      "▁право": 2528,
      "учре": 2529,
      "лига": 2530,
      ",▁потому▁что▁": 2531,
      "фа": 2532,
      "ющего▁": 2533,
      "Паки": 2534,
      "безработи": 2535,
      "самом▁де": 2536,
      "воохран": 2537,
      "ку.": 2538,
      "Воз": 2539,
      "те,▁": 2540,
      "▁получи": 2541,
      "теч": 2542,
      "ясь▁": 2543,
      "глубо": 2544,
      "рассматри": 2545,
      "▁поводу▁": 2546,
      "Конеч": 2547,
      "именно▁": 2548,
      "наиболее▁": 2549,
      "дут▁": 2550,
      "▁принима": 2551,
      "мся▁": 2552,
      "ли,▁что▁": 2553,
      "биз": 2554,
      "▁пи": 2555,
      ",▁а▁не▁": 2556,
      "иться": 2557,
      "стол": 2558,
      "роль": 2559,
      "отсутстви": 2560,
      "запад": 2561,
      "ской": 2562,
      "связан": 2563,
      "финансовых▁": 2564,
      "Му": 2565,
      "непо": 2566,
      "то▁же▁": 2567,
      "тех▁по": 2568,
      "крайней▁": 2569,
      "зем": 2570,
      "▁промышлен": 2571,
      "Афгани": 2572,
      "сфер": 2573,
      "страда": 2574,
      "стали▁": 2575,
      "необходимы": 2576,
      "моде": 2577,
      "законо": 2578,
      "ган": 2579,
      "уби": 2580,
      "расп": 2581,
      "всегда▁": 2582,
      "объяс": 2583,
      "следует▁": 2584,
      "Таким▁образом,▁": 2585,
      "1▁": 2586,
      "лить▁": 2587,
      "▁полож": 2588,
      ",▁под": 2589,
      "теперь▁": 2590,
      "лением▁": 2591,
      "официаль": 2592,
      "ления.": 2593,
      "ителей▁": 2594,
      "раст": 2595,
      "существует▁": 2596,
      "ными.": 2597,
      "лы▁": 2598,
      "имуще": 2599,
      "твер": 2600,
      "ете": 2601,
      "миллионов▁": 2602,
      "ты,▁": 2603,
      "клад": 2604,
      "чива": 2605,
      "верну": 2606,
      "му,▁": 2607,
      "и▁на": 2608,
      "экономической▁": 2609,
      "количество▁": 2610,
      "стоит▁": 2611,
      "00▁": 2612,
      "реали": 2613,
      "ствительно▁": 2614,
      "канди": 2615,
      "НАТО": 2616,
      "скорее▁": 2617,
      "ям▁": 2618,
      "ями▁": 2619,
      "ние": 2620,
      "управля": 2621,
      "▁потер": 2622,
      "сты▁": 2623,
      "кризиса▁": 2624,
      "вопрос▁": 2625,
      "ве▁": 2626,
      "▁проте": 2627,
      "s▁": 2628,
      "ерт": 2629,
      "скими▁": 2630,
      "ства▁в▁": 2631,
      "око": 2632,
      "было": 2633,
      "только": 2634,
      "▁почти▁": 2635,
      "датель": 2636,
      "▁политически": 2637,
      "куп": 2638,
      "благодар": 2639,
      "настоящее▁время▁": 2640,
      "обмен": 2641,
      "▁политических▁": 2642,
      "свое▁": 2643,
      "дале": 2644,
      "▁преступ": 2645,
      "ты.": 2646,
      "время,▁": 2647,
      "сов": 2648,
      "ность.": 2649,
      "фици": 2650,
      "кризис▁": 2651,
      "развиты": 2652,
      "здравоохран": 2653,
      "рей": 2654,
      "зация▁": 2655,
      "▁приняти": 2656,
      "сомн": 2657,
      "▁примен": 2658,
      "держива": 2659,
      "внимание▁": 2660,
      "россий": 2661,
      "an": 2662,
      "уровня▁": 2663,
      "Так▁": 2664,
      "Хот": 2665,
      "вом▁": 2666,
      "ведет▁": 2667,
      "Украи": 2668,
      "нас▁": 2669,
      "Во-": 2670,
      "ь,▁": 2671,
      "остается▁": 2672,
      "-пре": 2673,
      "харак": 2674,
      "меди": 2675,
      "пора": 2676,
      "назад": 2677,
      "ев": 2678,
      "кандида": 2679,
      "уверен": 2680,
      "новы": 2681,
      "мар": 2682,
      "финансового▁": 2683,
      "себе▁": 2684,
      "з▁": 2685,
      "сли": 2686,
      "ной▁Коре": 2687,
      "г.▁": 2688,
      "затра": 2689,
      "▁пад": 2690,
      "иметь▁": 2691,
      "та,▁": 2692,
      "служ": 2693,
      "мяг": 2694,
      "▁подоб": 2695,
      "личие▁": 2696,
      "и▁на▁": 2697,
      "в▁200": 2698,
      "сом": 2699,
      "различ": 2700,
      "концо": 2701,
      "жизни▁": 2702,
      "ной.": 2703,
      "начи": 2704,
      "пози": 2705,
      "ение,▁": 2706,
      "облада": 2707,
      "миллиардов▁": 2708,
      "инди": 2709,
      "время": 2710,
      "близ": 2711,
      "тали": 2712,
      "оно▁": 2713,
      "ло▁бы▁": 2714,
      "страны.": 2715,
      "Более▁того,▁": 2716,
      "0%▁": 2717,
      "рам": 2718,
      "ери": 2719,
      "Су": 2720,
      "Бан": 2721,
      "сит▁": 2722,
      "ст▁": 2723,
      "ров,▁": 2724,
      "решения▁": 2725,
      "види": 2726,
      "▁период": 2727,
      "ется,▁": 2728,
      "успеш": 2729,
      "восп": 2730,
      "сти,▁": 2731,
      "слова": 2732,
      "ник": 2733,
      "▁происход": 2734,
      "▁пря": 2735,
      "действительно▁": 2736,
      "структур": 2737,
      "резер": 2738,
      "▁президент": 2739,
      "ну▁": 2740,
      "сосе": 2741,
      "отношения▁": 2742,
      "Цен": 2743,
      "укреп": 2744,
      "дополн": 2745,
      "болез": 2746,
      "ство,▁": 2747,
      "Афганиста": 2748,
      "который▁": 2749,
      "дипломати": 2750,
      "er": 2751,
      "в▁в▁": 2752,
      "развития▁": 2753,
      "целью▁": 2754,
      "ном": 2755,
      "моби": 2756,
      "конститу": 2757,
      "точки▁": 2758,
      "щин": 2759,
      "лизаци": 2760,
      "Ан": 2761,
      "Кроме▁того,▁": 2762,
      "лся": 2763,
      "влияние▁": 2764,
      "распростра": 2765,
      "Я▁": 2766,
      "кта": 2767,
      "цвет": 2768,
      "фран": 2769,
      "в▁и▁": 2770,
      "▁привле": 2771,
      "счет": 2772,
      "жизн": 2773,
      "изи": 2774,
      "льные▁": 2775,
      "несколь": 2776,
      "мби": 2777,
      "конце▁концо": 2778,
      "каса": 2779,
      "экономически": 2780,
      "Ар": 2781,
      "уг": 2782,
      "образовани": 2783,
      "Тем▁не▁менее,▁": 2784,
      "купа": 2785,
      "том▁чи": 2786,
      "включая▁": 2787,
      "около▁": 2788,
      "кую": 2789,
      "От": 2790,
      "аф": 2791,
      "гети": 2792,
      "нынеш": 2793,
      "опера": 2794,
      "созна": 2795,
      "▁парт": 2796,
      "области▁": 2797,
      "лидеры▁": 2798,
      "двига": 2799,
      "облига": 2800,
      "0-х▁го": 2801,
      "Те": 2802,
      "▁предполага": 2803,
      "науч": 2804,
      "элек": 2805,
      "ведения▁": 2806,
      "пят": 2807,
      "безопасности▁": 2808,
      "решение▁": 2809,
      "террориз": 2810,
      "ных▁Шта": 2811,
      "корпора": 2812,
      "некоторых▁": 2813,
      "комп": 2814,
      "худ": 2815,
      "Даже▁": 2816,
      "льно▁": 2817,
      "лити": 2818,
      "щу": 2819,
      "свои": 2820,
      "2▁": 2821,
      "финансовой▁": 2822,
      "Мно": 2823,
      "сопро": 2824,
      "итар": 2825,
      "ящи": 2826,
      "ферен": 2827,
      "▁году.": 2828,
      "оказыва": 2829,
      "убе": 2830,
      "цы": 2831,
      "наз": 2832,
      "нужда": 2833,
      ",▁в▁то▁время▁как▁": 2834,
      "фунда": 2835,
      "находится▁": 2836,
      "а▁не▁": 2837,
      "экономика▁": 2838,
      "ядерного▁": 2839,
      "вступ": 2840,
      "шая▁": 2841,
      "жерт": 2842,
      "на▁в▁": 2843,
      "большой▁": 2844,
      "нии": 2845,
      "цело": 2846,
      "три▁": 2847,
      "щей▁": 2848,
      "значительно▁": 2849,
      "▁парламен": 2850,
      "стандар": 2851,
      "использовать▁": 2852,
      "вше": 2853,
      "ждение▁": 2854,
      "начала▁": 2855,
      "станет▁": 2856,
      "стимули": 2857,
      "части▁": 2858,
      "тери": 2859,
      "самым▁": 2860,
      "ной▁полити": 2861,
      "ку,▁": 2862,
      "ление": 2863,
      "реце": 2864,
      "быстро": 2865,
      "&quot;": 2866,
      "стало▁": 2867,
      "са,▁": 2868,
      "двадца": 2869,
      "тот▁": 2870,
      "\"▁": 2871,
      "т▁в▁": 2872,
      "ным▁образо": 2873,
      "емые▁": 2874,
      "заяв": 2875,
      "впе": 2876,
      "тех,▁": 2877,
      "Европы▁": 2878,
      "точки▁зр": 2879,
      "Егип": 2880,
      "щего▁": 2881,
      "шим▁": 2882,
      "Международ": 2883,
      "лез": 2884,
      "ложи": 2885,
      "вызыва": 2886,
      "пли": 2887,
      "расход": 2888,
      "Пакиста": 2889,
      "возвра": 2890,
      "направлен": 2891,
      "сме": 2892,
      "уро": 2893,
      "кажды": 2894,
      "ть▁в▁": 2895,
      "реша": 2896,
      "нии.": 2897,
      "Японии▁": 2898,
      "▁проек": 2899,
      "услу": 2900,
      "вмеша": 2901,
      "вол": 2902,
      "вели": 2903,
      "теля": 2904,
      "догово": 2905,
      "ню": 2906,
      "льной▁": 2907,
      "цуз": 2908,
      "обсу": 2909,
      "льных▁": 2910,
      "ограничен": 2911,
      "А▁": 2912,
      "чем": 2913,
      "не▁с": 2914,
      "жизни": 2915,
      "энергети": 2916,
      "веден": 2917,
      "Эти▁": 2918,
      "япон": 2919,
      "ителя": 2920,
      "насили": 2921,
      "оппози": 2922,
      "национа": 2923,
      "религиоз": 2924,
      "ность,▁": 2925,
      "люди▁": 2926,
      "мая▁": 2927,
      "все▁еще▁": 2928,
      "чных▁": 2929,
      "было▁бы▁": 2930,
      "тенден": 2931,
      "жения": 2932,
      "▁практически▁": 2933,
      "исследовани": 2934,
      "ира": 2935,
      "води": 2936,
      "лась": 2937,
      "универ": 2938,
      "пря": 2939,
      "кам▁": 2940,
      "кампа": 2941,
      "тол": 2942,
      "руют▁": 2943,
      "государства": 2944,
      "ствуют▁": 2945,
      "взгля": 2946,
      "были": 2947,
      "ство.": 2948,
      "ссив": 2949,
      "ближа": 2950,
      "целе": 2951,
      "жден": 2952,
      "равен": 2953,
      "нием▁": 2954,
      "у▁и▁": 2955,
      "будут": 2956,
      "однако▁": 2957,
      "Так": 2958,
      "котором▁": 2959,
      "голосо": 2960,
      "на▁протя": 2961,
      "с▁по": 2962,
      "on": 2963,
      "ток▁": 2964,
      "ини": 2965,
      "х▁и▁": 2966,
      "эта▁": 2967,
      "новой▁": 2968,
      "большей▁": 2969,
      "ственных▁": 2970,
      "циали": 2971,
      "Конечно,▁": 2972,
      "цвета": 2973,
      "ге▁": 2974,
      "терна": 2975,
      ":▁«": 2976,
      "Германии▁": 2977,
      "страхо": 2978,
      "клон": 2979,
      "скому▁": 2980,
      "конечном▁": 2981,
      "Не▁": 2982,
      "▁поддержа": 2983,
      "традицион": 2984,
      "ла▁в▁": 2985,
      "независимо": 2986,
      "фундамента": 2987,
      "нар": 2988,
      "▁привести▁": 2989,
      "уже": 2990,
      "дов,▁": 2991,
      "всей▁": 2992,
      "финансовые▁": 2993,
      "интегра": 2994,
      "Несмотря▁на▁": 2995,
      "действия▁": 2996,
      "горо": 2997,
      "бывши": 2998,
      "деб": 2999,
      "фир": 3000,
      "ей▁и▁": 3001,
      "Что▁": 3002,
      "чные▁": 3003,
      "самых▁": 3004,
      "распреде": 3005,
      "Пос": 3006,
      "х▁в▁": 3007,
      "стал▁": 3008,
      "страны,▁": 3009,
      "другой▁": 3010,
      "нау": 3011,
      "ение.": 3012,
      "сом▁": 3013,
      "в▁прошло": 3014,
      "шить▁": 3015,
      "Аб": 3016,
      "ное▁по": 3017,
      "своим▁": 3018,
      "ставо": 3019,
      "Соединенных▁Шта": 3020,
      "Европа▁": 3021,
      "человека▁": 3022,
      "достигну": 3023,
      "изо": 3024,
      "ключе": 3025,
      "Китай": 3026,
      "требует▁": 3027,
      "Хотя▁": 3028,
      "быть": 3029,
      "▁проблема": 3030,
      "ляет▁": 3031,
      "▁политические▁": 3032,
      "ния.": 3033,
      "разно": 3034,
      "▁правительства": 3035,
      "факто": 3036,
      "нужно▁": 3037,
      "взаимо": 3038,
      ",▁то▁": 3039,
      "нисти": 3040,
      "ет.": 3041,
      "благодаря▁": 3042,
      "риско": 3043,
      "▁против": 3044,
      "ослаб": 3045,
      "реак": 3046,
      "цена": 3047,
      "▁прав▁": 3048,
      "сектор": 3049,
      "нови": 3050,
      "вари": 3051,
      "чай": 3052,
      "тыся": 3053,
      "кредито": 3054,
      "сих▁по": 3055,
      "оправ": 3056,
      "согласи": 3057,
      "инвесто": 3058,
      "каждо": 3059,
      "-преж": 3060,
      "лки": 3061,
      "столько▁": 3062,
      "чет▁": 3063,
      ",▁пока▁": 3064,
      "Браз": 3065,
      "не▁может▁": 3066,
      "отража": 3067,
      "членов▁": 3068,
      "ра.": 3069,
      "дело": 3070,
      "диа": 3071,
      "▁предлага": 3072,
      "▁поддержку▁": 3073,
      "силы▁": 3074,
      "том▁числе▁": 3075,
      "контроли": 3076,
      "министр▁": 3077,
      "Все▁": 3078,
      "эту▁": 3079,
      "▁понима": 3080,
      "раз▁": 3081,
      "опро": 3082,
      "скор": 3083,
      "▁преимуще": 3084,
      "Пе": 3085,
      "медици": 3086,
      "суб": 3087,
      "высоко": 3088,
      "шло▁": 3089,
      "льзо": 3090,
      "дераль": 3091,
      "семь": 3092,
      "▁помощью▁": 3093,
      "ю▁и▁": 3094,
      "времени": 3095,
      "создать▁": 3096,
      "▁продук": 3097,
      "особен": 3098,
      "инфра": 3099,
      "наро": 3100,
      "сам": 3101,
      "годы▁": 3102,
      "▁подвер": 3103,
      "средо": 3104,
      "ская": 3105,
      "Бразили": 3106,
      "интер": 3107,
      "серва": 3108,
      "в▁этом▁": 3109,
      "но▁и▁": 3110,
      "ительные▁": 3111,
      "▁политику▁": 3112,
      "Дру": 3113,
      "в▁том,▁что▁": 3114,
      "▁права": 3115,
      "восто": 3116,
      "▁года.": 3117,
      "окружа": 3118,
      "▁превра": 3119,
      "существен": 3120,
      "женщин": 3121,
      "ставки▁": 3122,
      "этим▁": 3123,
      "итывая▁": 3124,
      "ЦБ": 3125,
      "▁принцип": 3126,
      "окон": 3127,
      "реа": 3128,
      "197": 3129,
      "тенциаль": 3130,
      "медлен": 3131,
      "способность▁": 3132,
      "отказа": 3133,
      "дальней": 3134,
      "т,▁что▁": 3135,
      "государства▁": 3136,
      "Восточной▁": 3137,
      "жде▁": 3138,
      "000▁": 3139,
      "возможности▁": 3140,
      "удив": 3141,
      "ками▁": 3142,
      "экономических▁": 3143,
      "ков,▁": 3144,
      "ази": 3145,
      "защи": 3146,
      "ция,▁": 3147,
      "учрежд": 3148,
      "рабочих▁": 3149,
      "ющее▁": 3150,
      "сить▁": 3151,
      "Всемир": 3152,
      "лизации▁": 3153,
      "вмешатель": 3154,
      "одна▁": 3155,
      "▁перспекти": 3156,
      "ил": 3157,
      "хода▁": 3158,
      "Де": 3159,
      "инвестици": 3160,
      "демонстри": 3161,
      "зе": 3162,
      "четы": 3163,
      "воспри": 3164,
      "меха": 3165,
      "ле,▁": 3166,
      "стала▁": 3167,
      "ставить▁": 3168,
      "Европе▁": 3169,
      "Америка▁": 3170,
      "живать▁": 3171,
      "во▁всем▁": 3172,
      "душ": 3173,
      "16": 3174,
      "тех▁пор": 3175,
      "Прав": 3176,
      "▁предоставля": 3177,
      "Раз": 3178,
      "Многие▁": 3179,
      "ков.": 3180,
      "был": 3181,
      "▁преду": 3182,
      "ной▁и▁": 3183,
      "Латин": 3184,
      "твор": 3185,
      "му.": 3186,
      "реб": 3187,
      "вар": 3188,
      "мор": 3189,
      "го.": 3190,
      "инстру": 3191,
      "создания▁": 3192,
      "масштаб": 3193,
      "экономические▁": 3194,
      "няя▁": 3195,
      "а,▁": 3196,
      "большую▁": 3197,
      "иностранных▁": 3198,
      "заключается▁в▁том,▁что▁": 3199,
      "Вместо▁": 3200,
      "ра,▁": 3201,
      "роль▁": 3202,
      "года▁": 3203,
      "▁продолж": 3204,
      "сум": 3205,
      "система▁": 3206,
      "писа": 3207,
      "России▁": 3208,
      "убий": 3209,
      "Во▁": 3210,
      "дина": 3211,
      "международных▁": 3212,
      "числен": 3213,
      "веду": 3214,
      "ещ": 3215,
      "ёт▁": 3216,
      "не▁при": 3217,
      "а.": 3218,
      "ья": 3219,
      "счет▁": 3220,
      "автор": 3221,
      "ряд▁": 3222,
      "останов": 3223,
      "гру": 3224,
      "ката": 3225,
      "ских": 3226,
      "друг▁": 3227,
      "После▁": 3228,
      "доров": 3229,
      "но▁в▁": 3230,
      "начале▁": 3231,
      "чтобы▁": 3232,
      "шко": 3233,
      "страна▁": 3234,
      "корруп": 3235,
      "▁году,▁": 3236,
      "евро▁": 3237,
      "женщи": 3238,
      "%.": 3239,
      "еже": 3240,
      "каки": 3241,
      "характер": 3242,
      "ди▁": 3243,
      "доказа": 3244,
      "гиб": 3245,
      "альтерна": 3246,
      "телей▁": 3247,
      "en": 3248,
      "ито": 3249,
      "отдель": 3250,
      "рынки▁": 3251,
      "лежа": 3252,
      "всего,▁": 3253,
      "отношению▁": 3254,
      "прави": 3255,
      "ссо": 3256,
      "участ": 3257,
      "ного▁по": 3258,
      "конце▁концов,▁": 3259,
      "запре": 3260,
      "треть": 3261,
      "банки▁": 3262,
      "чей▁": 3263,
      "региона": 3264,
      "эт": 3265,
      "▁прекра": 3266,
      "ность▁в▁": 3267,
      "границ": 3268,
      "культур": 3269,
      "-Й": 3270,
      "ла.": 3271,
      "ведение▁": 3272,
      "компании▁": 3273,
      "намного▁": 3274,
      "там▁": 3275,
      "бума": 3276,
      "Согла": 3277,
      "становится▁": 3278,
      "основан": 3279,
      "непри": 3280,
      "тем,▁": 3281,
      "ры,▁": 3282,
      "ческой": 3283,
      "хорош": 3284,
      "обеспечить▁": 3285,
      "3▁": 3286,
      "напо": 3287,
      "ские": 3288,
      "Европейского▁": 3289,
      "лича": 3290,
      "▁подход": 3291,
      "ющая▁": 3292,
      "выми▁": 3293,
      "Например,▁": 3294,
      "ными,▁": 3295,
      "мерен": 3296,
      "первы": 3297,
      "избеж": 3298,
      "мусульман": 3299,
      "начина": 3300,
      "ь.": 3301,
      "Некоторые▁": 3302,
      "Ру": 3303,
      "▁поня": 3304,
      "ительных▁": 3305,
      "ления,▁": 3306,
      "француз": 3307,
      "сим": 3308,
      "видете": 3309,
      "быстро▁": 3310,
      "электро": 3311,
      "тако": 3312,
      "лет.": 3313,
      "уничто": 3314,
      "лизи": 3315,
      "ностей▁": 3316,
      "угле": 3317,
      "▁прогрес": 3318,
      "места": 3319,
      "цен▁на▁": 3320,
      "шан": 3321,
      "сбере": 3322,
      "ному": 3323,
      "дов.": 3324,
      "сил▁": 3325,
      "▁принять▁": 3326,
      "цени": 3327,
      "вопрос": 3328,
      "нем▁Восто": 3329,
      "сосредо": 3330,
      "Мекси": 3331,
      "кратко": 3332,
      "убед": 3333,
      "ита▁": 3334,
      "ет▁в▁": 3335,
      "Вы": 3336,
      "сохра": 3337,
      "док": 3338,
      "стреми": 3339,
      "уста": 3340,
      "радика": 3341,
      "меня": 3342,
      "интересо": 3343,
      "сожа": 3344,
      "ла,▁": 3345,
      "ца▁": 3346,
      "вается▁": 3347,
      "стов▁": 3348,
      "тябр": 3349,
      "лучше": 3350,
      "инициа": 3351,
      "”▁": 3352,
      "лод": 3353,
      "%▁в▁": 3354,
      "ватель": 3355,
      "Россия▁": 3356,
      "выра": 3357,
      "разработ": 3358,
      "отношения": 3359,
      "-прежнему▁": 3360,
      "крайней▁мере": 3361,
      "цию": 3362,
      "одного▁": 3363,
      "американских▁": 3364,
      "свидете": 3365,
      "в▁течение▁": 3366,
      "невозмож": 3367,
      "▁права▁": 3368,
      "интереса": 3369,
      "миру": 3370,
      "возгла": 3371,
      "работать▁": 3372,
      "8▁": 3373,
      "Аль": 3374,
      "мя▁": 3375,
      "смог": 3376,
      "гно": 3377,
      "тных▁": 3378,
      "▁пози": 3379,
      "ник▁": 3380,
      "стату": 3381,
      "мире.": 3382,
      "механиз": 3383,
      "аб": 3384,
      "м▁при": 3385,
      "выступа": 3386,
      "▁по▁отношению▁": 3387,
      "случае,▁": 3388,
      "▁партии▁": 3389,
      "Сегодня▁": 3390,
      "рица": 3391,
      "никогда▁не▁": 3392,
      "сет": 3393,
      "нач": 3394,
      "год▁": 3395,
      "мало▁": 3396,
      "пуляр": 3397,
      "странах,▁": 3398,
      "50▁": 3399,
      ",▁чем▁": 3400,
      "▁препят": 3401,
      "ственные▁": 3402,
      "всё▁": 3403,
      "ложен": 3404,
      "▁помощи▁": 3405,
      "ЕЦБ": 3406,
      "в▁Ира": 3407,
      "иска": 3408,
      "эко": 3409,
      "У▁": 3410,
      "арми": 3411,
      "ются▁в▁": 3412,
      "степени▁": 3413,
      "свер": 3414,
      "у▁с▁": 3415,
      "универс": 3416,
      "Ки": 3417,
      "ча▁": 3418,
      "ский": 3419,
      "ющую▁": 3420,
      "азиат": 3421,
      "секре": 3422,
      "мораль": 3423,
      "забо": 3424,
      "государств": 3425,
      "▁производитель": 3426,
      "ещё▁": 3427,
      "Итали": 3428,
      "строитель": 3429,
      "власть▁": 3430,
      "такие▁как▁": 3431,
      "колле": 3432,
      "ложение▁": 3433,
      "определя": 3434,
      "▁процесс▁": 3435,
      "регулировани": 3436,
      "цев": 3437,
      "полити": 3438,
      "Централь": 3439,
      "▁по▁поводу▁": 3440,
      "мето": 3441,
      "воздействи": 3442,
      "иммигра": 3443,
      "норма": 3444,
      "катастро": 3445,
      "ний": 3446,
      "ить▁в▁": 3447,
      "графи": 3448,
      "цены▁на▁": 3449,
      "государственных▁": 3450,
      "▁полностью▁": 3451,
      ",▁которые": 3452,
      "сравнению▁": 3453,
      "▁постоян": 3454,
      "мую▁": 3455,
      "больша": 3456,
      "ить.": 3457,
      "дне": 3458,
      "зован": 3459,
      "у,▁": 3460,
      "суверен": 3461,
      "эффек": 3462,
      "Ча": 3463,
      "не▁является▁": 3464,
      "говоря": 3465,
      "рынка▁": 3466,
      "Хо": 3467,
      "бло": 3468,
      "бизне": 3469,
      "реши": 3470,
      "отрица": 3471,
      "импор": 3472,
      "▁представляет▁": 3473,
      "с▁помощью▁": 3474,
      "упа": 3475,
      "ошиб": 3476,
      "ем.": 3477,
      "напря": 3478,
      "Ближнем▁Восто": 3479,
      "отличие▁": 3480,
      "4▁": 3481,
      "Ор": 3482,
      "кризис": 3483,
      "матери": 3484,
      "британ": 3485,
      "допу": 3486,
      "ООН▁": 3487,
      "следователь": 3488,
      "должен": 3489,
      "ться▁в▁": 3490,
      "возник": 3491,
      "мира.": 3492,
      "означает,▁что▁": 3493,
      "вала▁": 3494,
      "США▁в▁": 3495,
      "времени▁": 3496,
      "теп": 3497,
      "распо": 3498,
      "консерва": 3499,
      "держ": 3500,
      "7▁": 3501,
      "такого▁": 3502,
      "водит▁": 3503,
      "одним▁": 3504,
      "стью▁": 3505,
      "Стра": 3506,
      "обеспечи": 3507,
      "▁года,▁": 3508,
      "эл": 3509,
      "я,▁что▁": 3510,
      "выпла": 3511,
      "части": 3512,
      "▁политического▁": 3513,
      "соглашени": 3514,
      "военной▁": 3515,
      "▁предпоч": 3516,
      "пресси": 3517,
      ",▁несмотря▁на▁": 3518,
      "гри": 3519,
      "лови": 3520,
      "ванием▁": 3521,
      "▁помочь▁": 3522,
      "глобальной▁": 3523,
      "я▁по▁": 3524,
      "стране▁": 3525,
      "ки▁и▁": 3526,
      "внутри▁": 3527,
      "ar": 3528,
      "равно": 3529,
      "средством▁": 3530,
      "таким▁образо": 3531,
      "Возмож": 3532,
      "осозна": 3533,
      "иннова": 3534,
      "ставлен": 3535,
      "они▁не▁": 3536,
      "до▁сих▁по": 3537,
      "ланди": 3538,
      "кажется▁": 3539,
      "стран.": 3540,
      "клас": 3541,
      "бран": 3542,
      "ха▁": 3543,
      "мец": 3544,
      "ислам": 3545,
      "МВФ▁": 3546,
      "Вто": 3547,
      "дл": 3548,
      "ры.": 3549,
      "о▁том,▁": 3550,
      "ных,▁": 3551,
      "выс": 3552,
      "нут▁": 3553,
      "медицин": 3554,
      "Пар": 3555,
      "совмест": 3556,
      "сожалени": 3557,
      "РИ": 3558,
      "чего▁": 3559,
      "ведет▁к▁": 3560,
      "настро": 3561,
      "▁причин": 3562,
      "▁предприяти": 3563,
      "▁процентные▁": 3564,
      ",▁при▁": 3565,
      "неуда": 3566,
      "неизбеж": 3567,
      "льзя▁": 3568,
      "либера": 3569,
      "цев,▁": 3570,
      "▁пара": 3571,
      "чинов": 3572,
      "Бер": 3573,
      "республи": 3574,
      "основе▁": 3575,
      "несмотря▁на▁": 3576,
      "▁полно": 3577,
      "стоятель": 3578,
      "крупней": 3579,
      "ближай": 3580,
      "»▁в▁": 3581,
      "▁план": 3582,
      "вых": 3583,
      "более▁высо": 3584,
      "▁получить▁": 3585,
      "▁по▁отношению▁к▁": 3586,
      "жесто": 3587,
      "ию": 3588,
      "новый▁": 3589,
      "▁право▁": 3590,
      "должны▁быть▁": 3591,
      "надеж": 3592,
      "»▁и▁": 3593,
      "ные▁Шта": 3594,
      "заключ": 3595,
      "столь▁": 3596,
      "▁помощь▁": 3597,
      "идеологи": 3598,
      "вероятно,▁": 3599,
      "Латинской▁": 3600,
      "ино": 3601,
      "военных▁": 3602,
      "меньше▁": 3603,
      "Саудов": 3604,
      "иран": 3605,
      "найти▁": 3606,
      "оконча": 3607,
      "свет": 3608,
      "эн": 3609,
      "экспер": 3610,
      "афри": 3611,
      "ший▁": 3612,
      "ство▁в▁": 3613,
      "сокращ": 3614,
      "20▁": 3615,
      "леч": 3616,
      "–▁и▁": 3617,
      "момент▁": 3618,
      "Фе": 3619,
      "лом▁": 3620,
      "степ": 3621,
      "взя": 3622,
      "хорошо▁": 3623,
      "чены": 3624,
      "ях,▁": 3625,
      "стаи": 3626,
      "евре": 3627,
      "на▁и▁": 3628,
      "это▁не▁": 3629,
      "▁пита": 3630,
      "тогда▁": 3631,
      "▁побед": 3632,
      "можем▁": 3633,
      "▁противостоя": 3634,
      "тех,▁кто▁": 3635,
      "пара": 3636,
      "существо": 3637,
      "назад▁": 3638,
      "африкан": 3639,
      "рази": 3640,
      "ядерного▁оружи": 3641,
      "ум": 3642,
      "вать": 3643,
      "сол": 3644,
      "мом▁": 3645,
      "опу": 3646,
      "196": 3647,
      "▁предполож": 3648,
      "гляд": 3649,
      "Экономи": 3650,
      "себе": 3651,
      "▁природ": 3652,
      "ющими▁": 3653,
      "ить,▁что▁": 3654,
      "смыс": 3655,
      "средств▁": 3656,
      "соответстви": 3657,
      "ном,▁": 3658,
      "например,▁": 3659,
      "льного▁": 3660,
      "у.": 3661,
      "коали": 3662,
      "▁подо": 3663,
      "ником▁": 3664,
      "обвин": 3665,
      "▁правительство": 3666,
      "тыва": 3667,
      "которым▁": 3668,
      "шее▁": 3669,
      "самое▁": 3670,
      "▁поддержки▁": 3671,
      "ю▁в▁": 3672,
      "бесп": 3673,
      "муж": 3674,
      "из▁них▁": 3675,
      "международной▁": 3676,
      "ФР": 3677,
      "ет,▁": 3678,
      "ющиеся▁": 3679,
      "Ро": 3680,
      "смы": 3681,
      "мог▁": 3682,
      "теори": 3683,
      "▁предела": 3684,
      "тем,▁что▁": 3685,
      "столкну": 3686,
      "гна": 3687,
      "▁переда": 3688,
      "точки▁зрения▁": 3689,
      "е▁на▁": 3690,
      "неде": 3691,
      "▁просто": 3692,
      "ционные▁": 3693,
      "сильно▁": 3694,
      "завер": 3695,
      "делает▁": 3696,
      "могут▁быть▁": 3697,
      "услов": 3698,
      "нескольких▁": 3699,
      "Арави": 3700,
      "рач": 3701,
      "всему▁": 3702,
      "ства▁и▁": 3703,
      "ния▁и▁": 3704,
      "министра▁": 3705,
      "Что": 3706,
      "ение▁по": 3707,
      "ла▁бы▁": 3708,
      "за▁счет▁": 3709,
      "справедливо": 3710,
      ",▁которая▁": 3711,
      "замет": 3712,
      "капитала▁": 3713,
      "яз": 3714,
      "выша": 3715,
      "▁прибы": 3716,
      "ностью": 3717,
      "таким▁": 3718,
      "Израиля▁": 3719,
      "ВВП▁": 3720,
      "каждый▁": 3721,
      "на▁протяжении▁": 3722,
      "однако": 3723,
      "т▁на▁": 3724,
      "ительной▁": 3725,
      "тенциа": 3726,
      "таких▁как▁": 3727,
      "либераль": 3728,
      "две▁": 3729,
      "недоста": 3730,
      "ционных▁": 3731,
      "судь": 3732,
      "льзу▁": 3733,
      "Лю": 3734,
      "в▁отношении▁": 3735,
      "как▁и▁": 3736,
      "центра": 3737,
      "стоимость▁": 3738,
      "здоров": 3739,
      "л,▁": 3740,
      "енси": 3741,
      "лев": 3742,
      "люди": 3743,
      "европейских▁": 3744,
      "инструмен": 3745,
      "её▁": 3746,
      "вооружен": 3747,
      "л.": 3748,
      "ется,▁что▁": 3749,
      "Тай": 3750,
      "доби": 3751,
      "опы": 3752,
      "▁перспектив": 3753,
      "ом▁": 3754,
      "ению": 3755,
      "выполн": 3756,
      "так▁называ": 3757,
      "рынка": 3758,
      "тяже": 3759,
      "емой▁": 3760,
      "Европейский▁": 3761,
      "Северной▁Коре": 3762,
      "за.": 3763,
      "бор": 3764,
      "развитых▁": 3765,
      "большая▁": 3766,
      "al": 3767,
      "году": 3768,
      "▁прода": 3769,
      "не▁будет▁": 3770,
      "рованных▁": 3771,
      "обеспечения▁": 3772,
      "одновремен": 3773,
      "шли▁": 3774,
      "ше,▁чем▁": 3775,
      "топли": 3776,
      "вычай": 3777,
      "меры▁": 3778,
      "»▁(": 3779,
      "самой▁": 3780,
      "рос": 3781,
      "ЕС.": 3782,
      "конкуренто": 3783,
      "инфраструкту": 3784,
      "краткосроч": 3785,
      "кими▁": 3786,
      "Буша▁": 3787,
      "ческими▁": 3788,
      "так▁как▁": 3789,
      "чрезмер": 3790,
      "независи": 3791,
      "заболе": 3792,
      "ны▁в▁": 3793,
      "войс": 3794,
      "объясн": 3795,
      "”.": 3796,
      "воро": 3797,
      "ющихся▁": 3798,
      "нового▁": 3799,
      "чат": 3800,
      "международного▁": 3801,
      "видимо": 3802,
      "▁привести▁к▁": 3803,
      "вариан": 3804,
      "была": 3805,
      "▁перемен": 3806,
      "лять▁": 3807,
      "отве": 3808,
      "более▁чем▁": 3809,
      "стран,▁": 3810,
      "рынок▁": 3811,
      "коман": 3812,
      "домо": 3813,
      "дах▁": 3814,
      "зации,▁": 3815,
      "▁проблема▁": 3816,
      "смотре": 3817,
      "9▁": 3818,
      "коро": 3819,
      "ристи": 3820,
      "виду": 3821,
      "увеличение▁": 3822,
      "вместо▁": 3823,
      "отличие▁от▁": 3824,
      "ные▁и▁": 3825,
      "Бара": 3826,
      "даже": 3827,
      "выпол": 3828,
      "ться.": 3829,
      "Во-первы": 3830,
      "5%▁": 3831,
      "▁пенси": 3832,
      "тон": 3833,
      "вании▁": 3834,
      "лучше▁": 3835,
      "Соединенные▁Шта": 3836,
      "любой▁": 3837,
      "разуме": 3838,
      "мл": 3839,
      "мит": 3840,
      "▁перво": 3841,
      "интелле": 3842,
      "глобального▁": 3843,
      "слабо": 3844,
      "нако": 3845,
      "сооб": 3846,
      "долга": 3847,
      "Эта▁": 3848,
      "возоб": 3849,
      "-▁это▁": 3850,
      "2008": 3851,
      "факти": 3852,
      "создание▁": 3853,
      ",▁например,▁": 3854,
      "емого▁": 3855,
      "▁программы▁": 3856,
      "совершен": 3857,
      "ч▁": 3858,
      "ирак": 3859,
      "дикта": 3860,
      "ительного▁": 3861,
      "экономики.": 3862,
      "таким▁образом,▁": 3863,
      "жению▁": 3864,
      "or": 3865,
      "леж": 3866,
      "ровали▁": 3867,
      "▁путем▁": 3868,
      "дда": 3869,
      "–▁в▁": 3870,
      "делать▁": 3871,
      "сов,▁": 3872,
      "том,▁чтобы▁": 3873,
      "значение▁": 3874,
      "недавно▁": 3875,
      "внов": 3876,
      "лют": 3877,
      "В▁конце▁концов,▁": 3878,
      "зай": 3879,
      "хотят▁": 3880,
      "нужден": 3881,
      "▁предпринима": 3882,
      "Правитель": 3883,
      "неспособ": 3884,
      "стара": 3885,
      "ско-": 3886,
      "Поэтому▁": 3887,
      "а▁на▁": 3888,
      "гося▁": 3889,
      "м,▁которые▁": 3890,
      "ке▁и▁": 3891,
      "частью▁": 3892,
      "уровне▁": 3893,
      "Ста": 3894,
      "выпу": 3895,
      "виде": 3896,
      "активо": 3897,
      "▁период▁": 3898,
      "Имен": 3899,
      "Пред": 3900,
      "ника▁": 3901,
      "государственного▁": 3902,
      "коммунисти": 3903,
      "При▁": 3904,
      "действовать▁": 3905,
      "даже▁если▁": 3906,
      "ничего▁": 3907,
      "До▁": 3908,
      "сталки": 3909,
      "сило": 3910,
      "измени": 3911,
      "рабочих▁мест": 3912,
      "вклад": 3913,
      "ид": 3914,
      "общего▁": 3915,
      "импер": 3916,
      "развитие▁": 3917,
      "вторы": 3918,
      "НЬ": 3919,
      "настолько▁": 3920,
      "емле": 3921,
      "ланд": 3922,
      "сосед": 3923,
      "рам▁": 3924,
      "в▁качестве▁": 3925,
      "жимо": 3926,
      "Сред": 3927,
      "сфор": 3928,
      "вынужден": 3929,
      "ных▁и▁": 3930,
      "am": 3931,
      "впол": 3932,
      "мис": 3933,
      "▁пути▁": 3934,
      "достижения▁": 3935,
      "функци": 3936,
      "одоб": 3937,
      "город": 3938,
      "находятся▁": 3939,
      "мусульма": 3940,
      ")▁и▁": 3941,
      "вной▁": 3942,
      "зде": 3943,
      "отка": 3944,
      "щим▁": 3945,
      "бав": 3946,
      "которая": 3947,
      "НЬЮ": 3948,
      "нори": 3949,
      "неравен": 3950,
      "сиди": 3951,
      "строй": 3952,
      "истории▁": 3953,
      "ваются▁": 3954,
      "гор": 3955,
      "дело▁": 3956,
      "различи": 3957,
      "условиях▁": 3958,
      "гео": 3959,
      "a▁": 3960,
      "Бр": 3961,
      "льный▁": 3962,
      "отда": 3963,
      "щая": 3964,
      "игнори": 3965,
      "соответству": 3966,
      "чрезвычай": 3967,
      "ост": 3968,
      "ет▁на▁": 3969,
      "Интер": 3970,
      "экологи": 3971,
      "▁попыт": 3972,
      "вали": 3973,
      "меча": 3974,
      "газ": 3975,
      "сами": 3976,
      "ющейся▁": 3977,
      "Буша": 3978,
      "состоянии▁": 3979,
      "обрат": 3980,
      "означает▁": 3981,
      "риск▁": 3982,
      "г,▁": 3983,
      "▁пя": 3984,
      "за▁последние▁": 3985,
      "отлича": 3986,
      "данный▁": 3987,
      "▁к▁": 3988,
      "деба": 3989,
      "мых▁": 3990,
      "избиратель": 3991,
      "такое▁": 3992,
      "ность▁и▁": 3993,
      "торы▁": 3994,
      "военные▁": 3995,
      "ликвид": 3996,
      "ки▁в▁": 3997,
      "В▁этом▁": 3998,
      "лись▁в▁": 3999,
      "большое▁": 4000,
      "▁примерно▁": 4001,
      "вызо": 4002,
      "ется.": 4003,
      "решения": 4004,
      "субсиди": 4005,
      "коло": 4006,
      "ные,▁": 4007,
      "обнару": 4008,
      "способо": 4009,
      "цеп": 4010,
      "достиг": 4011,
      "уси": 4012,
      "В▁то▁время▁как▁": 4013,
      "большие▁": 4014,
      "К▁сожалени": 4015,
      "удовлет": 4016,
      "нестабиль": 4017,
      "соедин": 4018,
      "средства▁": 4019,
      "Джор": 4020,
      "далеко▁": 4021,
      "зло": 4022,
      "так▁же▁": 4023,
      "давно▁": 4024,
      "чета": 4025,
      "обычно▁": 4026,
      "окружающей▁": 4027,
      "Исла": 4028,
      "ев▁": 4029,
      "рами▁": 4030,
      "сами▁": 4031,
      "Арген": 4032,
      "нарко": 4033,
      "сравнению▁с▁": 4034,
      "нельзя▁": 4035,
      "ление,▁": 4036,
      "ниц": 4037,
      "ними▁": 4038,
      "замед": 4039,
      "тия▁": 4040,
      "основном▁": 4041,
      "могли▁бы▁": 4042,
      "рай": 4043,
      "лидеров▁": 4044,
      "члена": 4045,
      "Испа": 4046,
      "них": 4047,
      "катель": 4048,
      "выгод": 4049,
      "in": 4050,
      "стать": 4051,
      "Полити": 4052,
      "трудо": 4053,
      "Без": 4054,
      "риз": 4055,
      "ения▁в▁": 4056,
      "тю": 4057,
      "но▁про": 4058,
      "кой,▁": 4059,
      "ений.": 4060,
      "соли": 4061,
      "заяви": 4062,
      "ское": 4063,
      "иску": 4064,
      "домини": 4065,
      "лести": 4066,
      "лов": 4067,
      "долга▁": 4068,
      "▁подтвер": 4069,
      "н▁и▁": 4070,
      "объедин": 4071,
      "рецесси": 4072,
      "справ": 4073,
      "множе": 4074,
      "Поскольку▁": 4075,
      "угрожа": 4076,
      ",▁по▁крайней▁мере": 4077,
      "В▁действитель": 4078,
      "ключен": 4079,
      "Подоб": 4080,
      "управления▁": 4081,
      "но▁при": 4082,
      "емый▁": 4083,
      "отношений▁": 4084,
      "Азии▁": 4085,
      "испыта": 4086,
      "в▁прошлом▁": 4087,
      "реаги": 4088,
      "ежегод": 4089,
      "1,": 4090,
      "▁полага": 4091,
      "тинен": 4092,
      "ственной▁": 4093,
      "ют▁в▁": 4094,
      "Европы.": 4095,
      "контроль▁": 4096,
      "этни": 4097,
      "ны▁и▁": 4098,
      "шем▁": 4099,
      "во▁многих▁": 4100,
      "восста": 4101,
      "разум": 4102,
      "законодатель": 4103,
      "тря": 4104,
      "ть▁на▁": 4105,
      "финансовый▁": 4106,
      "мирового▁": 4107,
      "грессив": 4108,
      "значительной▁": 4109,
      "роль▁в▁": 4110,
      "университет": 4111,
      "6▁": 4112,
      "Че": 4113,
      "года": 4114,
      "этого": 4115,
      "прият": 4116,
      "террористи": 4117,
      "Во-первых,▁": 4118,
      "ир": 4119,
      "деми": 4120,
      ",▁ча": 4121,
      "тов▁и▁": 4122,
      "второ": 4123,
      "основа": 4124,
      "избежать▁": 4125,
      "Уч": 4126,
      "немец": 4127,
      "закры": 4128,
      "странам▁": 4129,
      "занято": 4130,
      "сможет▁": 4131,
      "напад": 4132,
      "ми,▁которые▁": 4133,
      "служи": 4134,
      "споря": 4135,
      "Обама▁": 4136,
      "то,▁": 4137,
      "льзу": 4138,
      "целя": 4139,
      "цев.": 4140,
      "связи▁с▁": 4141,
      "сомнен": 4142,
      "ее": 4143,
      "данные▁": 4144,
      "реформы▁": 4145,
      "▁противоре": 4146,
      "лекар": 4147,
      "ляют▁": 4148,
      "хочет▁": 4149,
      "урна": 4150,
      "вызван": 4151,
      "торговли▁": 4152,
      "ру▁": 4153,
      "ций,▁": 4154,
      "ческом▁": 4155,
      "составляет▁": 4156,
      "пы▁": 4157,
      "ений,▁": 4158,
      "нести▁": 4159,
      "тами▁": 4160,
      "тех▁": 4161,
      "другими▁": 4162,
      "правлен": 4163,
      "жизнен": 4164,
      "иться▁к▁": 4165,
      "вызва": 4166,
      "Президен": 4167,
      "свидетель": 4168,
      "кни": 4169,
      "дает▁": 4170,
      "разме": 4171,
      "инду": 4172,
      "власть": 4173,
      "выборов▁": 4174,
      "зависит▁": 4175,
      "факт,▁что▁": 4176,
      "гу▁": 4177,
      "листи": 4178,
      "Израиле": 4179,
      "рев": 4180,
      "сово": 4181,
      "ительный▁": 4182,
      "экономического▁роста": 4183,
      "борьбы▁": 4184,
      "тек": 4185,
      "та▁в▁": 4186,
      "аналоги": 4187,
      "неу": 4188,
      "ющих": 4189,
      ",▁почему▁": 4190,
      "давление▁": 4191,
      "сентябр": 4192,
      "обыч": 4193,
      "лист": 4194,
      "выход": 4195,
      "опи": 4196,
      "компен": 4197,
      "Бы": 4198,
      "физи": 4199,
      "кого": 4200,
      "В▁то▁же▁": 4201,
      "Поль": 4202,
      "пти": 4203,
      "шей": 4204,
      "экономику▁": 4205,
      "американской▁": 4206,
      "того▁как▁": 4207,
      "нюю▁": 4208,
      "▁процвета": 4209,
      "возника": 4210,
      "если▁бы▁": 4211,
      "начать▁": 4212,
      "мые▁": 4213,
      "аргу": 4214,
      "щать▁": 4215,
      "Израиль▁": 4216,
      "соверш": 4217,
      "Мож": 4218,
      "молоды": 4219,
      "Органи": 4220,
      "йдет▁": 4221,
      "рен": 4222,
      "тные▁": 4223,
      "тоже▁": 4224,
      "ться▁на▁": 4225,
      "испол": 4226,
      "снижение▁": 4227,
      ",▁который": 4228,
      "▁поддерживать▁": 4229,
      "до▁сих▁пор▁": 4230,
      "сдер": 4231,
      "а▁и▁": 4232,
      "цию.": 4233,
      "к▁в▁": 4234,
      "спи": 4235,
      "судеб": 4236,
      "здоровь": 4237,
      "ОР": 4238,
      "оцени": 4239,
      "пот": 4240,
      "▁предсе": 4241,
      "шед": 4242,
      "центри": 4243,
      "бедных▁": 4244,
      "Возможно,▁": 4245,
      "в▁пер": 4246,
      "▁поз": 4247,
      "тах▁": 4248,
      "теря": 4249,
      "спек": 4250,
      "жением▁": 4251,
      "и▁по▁": 4252,
      "содержа": 4253,
      "бес": 4254,
      "шению▁": 4255,
      "уровня": 4256,
      "внешней": 4257,
      "эта": 4258,
      "Европы": 4259,
      "мпи": 4260,
      "▁пси": 4261,
      "▁провод": 4262,
      "больше,▁чем▁": 4263,
      "▁проблем▁": 4264,
      "сят▁": 4265,
      "ться▁с▁": 4266,
      "▁прошлого▁": 4267,
      "жизнь▁": 4268,
      "Аргенти": 4269,
      "цию,▁": 4270,
      "континен": 4271,
      "войны": 4272,
      "▁помощи": 4273,
      "европейской▁": 4274,
      "слабы": 4275,
      "гото": 4276,
      "заработ": 4277,
      "▁путь▁": 4278,
      "нами▁": 4279,
      "коле": 4280,
      "сов.": 4281,
      "и,▁в▁": 4282,
      "спуст": 4283,
      "доходов▁": 4284,
      "если": 4285,
      "обви": 4286,
      "разо": 4287,
      ",▁похо": 4288,
      "будь▁": 4289,
      "том,▁что": 4290,
      "язви": 4291,
      "18": 4292,
      "30▁": 4293,
      "Она▁": 4294,
      "состо": 4295,
      "техни": 4296,
      "язы": 4297,
      "Ком": 4298,
      "ты▁и▁": 4299,
      "фесси": 4300,
      "систему▁": 4301,
      "организации▁": 4302,
      "игро": 4303,
      "▁показыва": 4304,
      "на▁Ближнем▁Восто": 4305,
      "Американ": 4306,
      "жить▁": 4307,
      "комисси": 4308,
      "в▁199": 4309,
      "стов": 4310,
      "Китая,▁": 4311,
      "согласно▁": 4312,
      "благосостоя": 4313,
      "Этот▁": 4314,
      "Безопас": 4315,
      "беспокой": 4316,
      "касается▁": 4317,
      "тар": 4318,
      "к▁и▁": 4319,
      "благоприят": 4320,
      "юж": 4321,
      "с▁в▁": 4322,
      "трех▁": 4323,
      "второй▁": 4324,
      "интересы▁": 4325,
      "говорит▁": 4326,
      "ужа": 4327,
      "раста": 4328,
      "запу": 4329,
      "государств▁": 4330,
      "▁процентных▁": 4331,
      "угрозу▁": 4332,
      "и▁полити": 4333,
      "к▁по": 4334,
      "ванию▁": 4335,
      "ровал▁": 4336,
      "еще▁более▁": 4337,
      "дефицит▁": 4338,
      "дже": 4339,
      "за,▁": 4340,
      "стары": 4341,
      "экономики": 4342,
      "ждения": 4343,
      "Япония▁": 4344,
      "нефтя": 4345,
      "▁переговоры▁": 4346,
      "смен": 4347,
      "нос": 4348,
      "пар": 4349,
      "▁подход▁": 4350,
      "ка▁и▁": 4351,
      "Франции▁": 4352,
      "▁правиль": 4353,
      "богат": 4354,
      "своими▁": 4355,
      ",▁пере": 4356,
      "sp": 4357,
      "лу▁": 4358,
      "учены": 4359,
      "чный▁": 4360,
      "ответ▁": 4361,
      "споко": 4362,
      "Обамы▁": 4363,
      "ислами": 4364,
      "Ав": 4365,
      "аген": 4366,
      "не▁и▁": 4367,
      "этот": 4368,
      "действу": 4369,
      "тор▁": 4370,
      "конец,▁": 4371,
      "абсо": 4372,
      "журна": 4373,
      "ер▁": 4374,
      "▁привело▁": 4375,
      "выступ": 4376,
      "говори": 4377,
      "американские▁": 4378,
      "▁плани": 4379,
      "▁перио": 4380,
      "Евросою": 4381,
      "удивитель": 4382,
      "\".": 4383,
      "ба▁": 4384,
      "вряд▁": 4385,
      "гря": 4386,
      "тан": 4387,
      "макро": 4388,
      "день▁": 4389,
      ",▁после▁": 4390,
      "ты▁в▁": 4391,
      "банков▁": 4392,
      "▁пузы": 4393,
      "рамках▁": 4394,
      "ет▁по": 4395,
      "ного▁бан": 4396,
      "промис": 4397,
      "Израиль": 4398,
      "контроля▁": 4399,
      "ситуация▁": 4400,
      "ощ": 4401,
      "ухуд": 4402,
      "сила": 4403,
      "ных▁по": 4404,
      "следствия▁": 4405,
      "сфере▁": 4406,
      "лит▁": 4407,
      "лет▁назад": 4408,
      "Джордж": 4409,
      "гли": 4410,
      "ств.": 4411,
      "власти": 4412,
      ",▁но▁и▁": 4413,
      "европейские▁": 4414,
      "государственные▁": 4415,
      "впечат": 4416,
      "конкурентоспособ": 4417,
      "Ос": 4418,
      "Сар": 4419,
      "столети": 4420,
      "основных▁": 4421,
      "иться▁с▁": 4422,
      "Палести": 4423,
      "индивиду": 4424,
      "ti": 4425,
      "министро": 4426,
      "движимо": 4427,
      "скры": 4428,
      "▁пр": 4429,
      "движения▁": 4430,
      "экономического▁роста▁": 4431,
      "й▁по▁": 4432,
      "▁прео": 4433,
      "рань": 4434,
      "ошибо": 4435,
      "эпо": 4436,
      "с▁целью▁": 4437,
      "мер▁": 4438,
      "губ": 4439,
      "развивающиеся▁": 4440,
      "Пробле": 4441,
      "кой.": 4442,
      "ным▁и▁": 4443,
      "ка▁в▁": 4444,
      "изменения": 4445,
      "самом▁деле,▁": 4446,
      "лодной▁": 4447,
      "не▁могут▁": 4448,
      "резко▁": 4449,
      "часть": 4450,
      "национальной▁": 4451,
      "Латинской▁Амери": 4452,
      "щер": 4453,
      "риска": 4454,
      "договор": 4455,
      "избран": 4456,
      "спас": 4457,
      "большим▁": 4458,
      "Республи": 4459,
      "финансировани": 4460,
      "Конгрес": 4461,
      "оке": 4462,
      "па▁": 4463,
      "роди": 4464,
      "запа": 4465,
      "ственного▁": 4466,
      "аль-": 4467,
      "В▁результате▁": 4468,
      "ить,▁": 4469,
      "выбор": 4470,
      "следующе": 4471,
      "легити": 4472,
      "▁переговоров▁": 4473,
      "сохранить▁": 4474,
      "окружающей▁сред": 4475,
      "уче": 4476,
      "гая▁": 4477,
      "данных▁": 4478,
      "Однако,▁": 4479,
      "Иран▁": 4480,
      "Федераль": 4481,
      "заинтересо": 4482,
      "ли▁бы▁": 4483,
      "ностя": 4484,
      "В▁результа": 4485,
      "газо": 4486,
      "живу": 4487,
      "выборы▁": 4488,
      "снова▁": 4489,
      "Фи": 4490,
      "чь": 4491,
      "рах▁": 4492,
      "мирова": 4493,
      "отношение▁": 4494,
      "Комисси": 4495,
      "требуется▁": 4496,
      "вместе▁с▁": 4497,
      "богатых▁": 4498,
      "жды▁": 4499,
      "все▁более▁": 4500,
      "образования▁": 4501,
      "экономический▁рост": 4502,
      "Суще": 4503,
      "смяг": 4504,
      "ыду": 4505,
      "бежен": 4506,
      "&#": 4507,
      "ил▁": 4508,
      "намер": 4509,
      "сокращение▁": 4510,
      "Большо": 4511,
      "выгляд": 4512,
      "национальных▁": 4513,
      "сторону▁": 4514,
      "интеллекту": 4515,
      "цы,▁": 4516,
      "центр": 4517,
      "Китай,▁": 4518,
      "Германия▁": 4519,
      "для▁того,▁чтобы": 4520,
      "ата": 4521,
      "реди": 4522,
      "сем": 4523,
      "саль": 4524,
      "пред": 4525,
      "лены▁": 4526,
      "исче": 4527,
      "соглашения▁": 4528,
      "▁продолжать▁": 4529,
      "Великобритании▁": 4530,
      "расходов▁": 4531,
      "ориен": 4532,
      "м,▁что▁": 4533,
      "▁политике▁": 4534,
      "зывать▁": 4535,
      "▁причиной▁": 4536,
      "совершенно▁": 4537,
      "абсолют": 4538,
      "Его▁": 4539,
      "сниз": 4540,
      "ше,▁": 4541,
      "то,▁что": 4542,
      "него": 4543,
      "▁подготов": 4544,
      "ют.": 4545,
      "использования▁": 4546,
      "▁позволить▁": 4547,
      "ответственность▁": 4548,
      "конец▁": 4549,
      "доказатель": 4550,
      "есте": 4551,
      "рядо": 4552,
      "лся▁в▁": 4553,
      "лых▁": 4554,
      "либо": 4555,
      "м,▁в▁": 4556,
      "средства": 4557,
      "странах.": 4558,
      "вших▁": 4559,
      "курса▁": 4560,
      "меньшин": 4561,
      "необходимость▁": 4562,
      "ытыва": 4563,
      "отсутствие▁": 4564,
      "Ку": 4565,
      "навли": 4566,
      "никто▁": 4567,
      "замен": 4568,
      "рус": 4569,
      "экстреми": 4570,
      "крайне▁": 4571,
      "миллиардов▁долларов▁": 4572,
      "й▁для▁": 4573,
      "дека": 4574,
      "м,▁и▁": 4575,
      "▁производства▁": 4576,
      "компани": 4577,
      "больших▁": 4578,
      "непосред": 4579,
      "вались▁": 4580,
      "обстоятель": 4581,
      "▁приобре": 4582,
      "использование▁": 4583,
      "четвер": 4584,
      "Израиля": 4585,
      "Хама": 4586,
      "лю▁": 4587,
      "рем": 4588,
      "мало": 4589,
      "разработа": 4590,
      "своем▁": 4591,
      "шел▁": 4592,
      "всего": 4593,
      "безопасности.": 4594,
      "самые▁": 4595,
      "члены▁": 4596,
      "корпоратив": 4597,
      "инициати": 4598,
      "джи": 4599,
      "н▁в▁": 4600,
      ",▁которые▁по": 4601,
      "самого▁": 4602,
      "испытыва": 4603,
      "(в▁": 4604,
      "сдел": 4605,
      "ущер": 4606,
      "какой": 4607,
      "боро": 4608,
      "вержен": 4609,
      "того,▁чтобы▁": 4610,
      "▁плохо": 4611,
      "быстры": 4612,
      "указыва": 4613,
      "выде": 4614,
      "скохозяй": 4615,
      "ительное▁": 4616,
      "▁предыду": 4617,
      "сокращения▁": 4618,
      "сфе": 4619,
      "уязви": 4620,
      "недвижимо": 4621,
      "стом▁": 4622,
      "пра": 4623,
      "мочи": 4624,
      "сохраня": 4625,
      "СЕ": 4626,
      "бин": 4627,
      "чё": 4628,
      "воспо": 4629,
      "уровнем▁": 4630,
      "соглашение▁": 4631,
      "конечном▁ито": 4632,
      "тие▁": 4633,
      "да▁и▁": 4634,
      "▁политики": 4635,
      ",▁как▁и▁": 4636,
      "▁предупре": 4637,
      "Сарко": 4638,
      "че▁": 4639,
      "фиска": 4640,
      "этой": 4641,
      "коммер": 4642,
      "изменение▁": 4643,
      "гено": 4644,
      "захва": 4645,
      "ческих": 4646,
      "энерго": 4647,
      ",▁прежде▁": 4648,
      "динами": 4649,
      "ное,▁": 4650,
      "ций.": 4651,
      "на▁у": 4652,
      "выше▁": 4653,
      "контра": 4654,
      "более": 4655,
      "тов▁в▁": 4656,
      "может▁по": 4657,
      "Клин": 4658,
      "Сей": 4659,
      "нашей▁": 4660,
      "дире": 4661,
      "вания,▁": 4662,
      "десять▁": 4663,
      "режима▁": 4664,
      "Объ": 4665,
      "удовлетвор": 4666,
      "жу": 4667,
      "ли▁по": 4668,
      "бол": 4669,
      "не▁было▁": 4670,
      "▁приор": 4671,
      "0,": 4672,
      "недостаточ": 4673,
      "добы": 4674,
      "бом": 4675,
      "жиль": 4676,
      "другим▁": 4677,
      "банки": 4678,
      "трилли": 4679,
      "Лива": 4680,
      "Согласно▁": 4681,
      "возглавля": 4682,
      "циф": 4683,
      "есть": 4684,
      "семе": 4685,
      "▁подъ": 4686,
      "ление.": 4687,
      "нена": 4688,
      "фондо": 4689,
      "конкре": 4690,
      "конферен": 4691,
      "ная▁с▁": 4692,
      "общественного▁": 4693,
      "наши▁": 4694,
      "К▁сожалению,▁": 4695,
      "ений": 4696,
      "учитывая▁": 4697,
      "особенно▁в▁": 4698,
      "администрация▁": 4699,
      "где": 4700,
      "чного▁": 4701,
      "ены▁": 4702,
      "ние,▁": 4703,
      "чест": 4704,
      "своего": 4705,
      "более▁широ": 4706,
      "едини": 4707,
      "согласо": 4708,
      "Ирана▁": 4709,
      "крупных▁": 4710,
      "климата▁": 4711,
      "зар": 4712,
      "ну.": 4713,
      "которыми▁": 4714,
      "фика": 4715,
      "ше.": 4716,
      "исследования▁": 4717,
      "санк": 4718,
      "объясня": 4719,
      "аргумен": 4720,
      "Ти": 4721,
      "дро": 4722,
      "ена": 4723,
      "но▁не▁": 4724,
      "отмет": 4725,
      "странах": 4726,
      "надца": 4727,
      "сельскохозяй": 4728,
      "Сейча": 4729,
      "Гон": 4730,
      "заслу": 4731,
      "студен": 4732,
      "ятся": 4733,
      "понен": 4734,
      "Большин": 4735,
      "вшего▁": 4736,
      "▁по-прежнему▁": 4737,
      "тес": 4738,
      "сун": 4739,
      "способствова": 4740,
      "импери": 4741,
      "nb": 4742,
      "рожда": 4743,
      "▁прогно": 4744,
      "ется▁на▁": 4745,
      "дерни": 4746,
      "действия": 4747,
      "держать▁": 4748,
      "капитализ": 4749,
      "свою▁очеред": 4750,
      "конечно,▁": 4751,
      "один▁из▁": 4752,
      "Аль-": 4753,
      "Мар": 4754,
      "юри": 4755,
      "доне": 4756,
      "лек": 4757,
      "ходя": 4758,
      "Совета▁": 4759,
      "Во-вторы": 4760,
      "ценари": 4761,
      "НЬЮ-Й": 4762,
      "Ир": 4763,
      "▁прид": 4764,
      "вания.": 4765,
      "НЬЮ-ЙОР": 4766,
      "Ð¾": 4767,
      "ться▁от▁": 4768,
      "безопасности,▁": 4769,
      "стоимости▁": 4770,
      "одной▁из▁": 4771,
      "▁принятия▁": 4772,
      "▁процентных▁ставо": 4773,
      "м,": 4774,
      "стер": 4775,
      "меры": 4776,
      "лений▁": 4777,
      "компромис": 4778,
      "объе": 4779,
      "автомоби": 4780,
      "nbsp": 4781,
      "зрач": 4782,
      "количества▁": 4783,
      "людей,▁": 4784,
      "▁полномочи": 4785,
      "amp": 4786,
      "ал": 4787,
      "неопределен": 4788,
      "отказыва": 4789,
      "кризиса": 4790,
      "▁помога": 4791,
      "ресурсов▁": 4792,
      "сегодняшний▁": 4793,
      "наркоти": 4794,
      "ав": 4795,
      "вые": 4796,
      "значи": 4797,
      "опти": 4798,
      "Япони": 4799,
      "социали": 4800,
      "хов": 4801,
      "ительным▁": 4802,
      "любы": 4803,
      "этому": 4804,
      "вяза": 4805,
      "▁план▁": 4806,
      "160": 4807,
      "Кар": 4808,
      "ипо": 4809,
      "меро": 4810,
      "опла": 4811,
      "увеличения▁": 4812,
      "администрации▁": 4813,
      "состоит▁в▁": 4814,
      "б▁": 4815,
      "модерни": 4816,
      "извле": 4817,
      "хоте": 4818,
      "гатив": 4819,
      "существова": 4820,
      "▁президентом▁": 4821,
      "удар": 4822,
      "сочета": 4823,
      "ств,▁": 4824,
      "стар": 4825,
      "ными▁и▁": 4826,
      "важным▁": 4827,
      "соглас": 4828,
      "Франция▁": 4829,
      "Союз": 4830,
      "▁партнер": 4831,
      "д.": 4832,
      "свою": 4833,
      "▁подчер": 4834,
      "серьё": 4835,
      "Сегодня": 4836,
      "▁партне": 4837,
      "амби": 4838,
      "раба": 4839,
      "мым▁": 4840,
      "ют▁на▁": 4841,
      "остаются▁": 4842,
      "вшие▁": 4843,
      "индий": 4844,
      "воспринима": 4845,
      "сценари": 4846,
      "лась▁в▁": 4847,
      "▁при▁этом▁": 4848,
      "пера": 4849,
      "нефти▁": 4850,
      "находится▁в▁": 4851,
      "кров": 4852,
      "ников": 4853,
      "тые▁": 4854,
      "торгово": 4855,
      "194": 4856,
      "кризиса.": 4857,
      "никами▁": 4858,
      "транс": 4859,
      "легитим": 4860,
      "м▁по▁": 4861,
      "настаи": 4862,
      "затем▁": 4863,
      "ме.": 4864,
      "лумби": 4865,
      "действова": 4866,
      "ная▁Коре": 4867,
      "мировых▁": 4868,
      "голов": 4869,
      "должно▁быть▁": 4870,
      "НАТО▁": 4871,
      "склон": 4872,
      "собра": 4873,
      "трево": 4874,
      "добиться▁": 4875,
      "нефть▁": 4876,
      "▁преодол": 4877,
      "Син": 4878,
      "виз": 4879,
      "ческая": 4880,
      "ли▁к▁": 4881,
      "до▁тех▁пор": 4882,
      "того▁чтобы▁": 4883,
      "условия▁": 4884,
      "-▁и▁": 4885,
      "es": 4886,
      "най": 4887,
      "между": 4888,
      "с▁не": 4889,
      "рынков▁": 4890,
      "человек▁": 4891,
      "Только▁": 4892,
      "вполне▁": 4893,
      "НЬЮ-ЙОРК": 4894,
      "вдо": 4895,
      "фля": 4896,
      "хе": 4897,
      "дел▁": 4898,
      "ли▁на▁": 4899,
      "мо▁от▁": 4900,
      "социальной▁": 4901,
      "открыто": 4902,
      "людей.": 4903,
      "борьбе▁с▁": 4904,
      "гер": 4905,
      "кос": 4906,
      "ные▁на▁": 4907,
      "Китая.": 4908,
      "самый▁": 4909,
      "защиты▁": 4910,
      "▁предотвратить▁": 4911,
      "безработицы▁": 4912,
      "катастроф": 4913,
      "одним▁из▁": 4914,
      "Дан": 4915,
      "осу": 4916,
      "иногда▁": 4917,
      "потреб": 4918,
      "в▁послед": 4919,
      "▁пять▁": 4920,
      "лай": 4921,
      "ения▁и▁": 4922,
      "ядерных▁": 4923,
      "кажется,▁": 4924,
      "ным▁образом▁": 4925,
      "альтернатив": 4926,
      "умерен": 4927,
      "ским": 4928,
      "гласи": 4929,
      "банк▁": 4930,
      "необходимости▁": 4931,
      "ная▁политика▁": 4932,
      "число▁": 4933,
      "-ни": 4934,
      "Сер": 4935,
      "освобо": 4936,
      "ощу": 4937,
      "лица": 4938,
      "мы▁должны▁": 4939,
      "Европе,▁": 4940,
      "большинства▁": 4941,
      "бюро": 4942,
      "зависимости▁": 4943,
      "круг▁": 4944,
      "вряд▁ли▁": 4945,
      "зы▁": 4946,
      "депресси": 4947,
      "ческого": 4948,
      "ходит▁": 4949,
      "решить▁": 4950,
      "больше▁не▁": 4951,
      "вновь▁": 4952,
      "дома": 4953,
      "тай": 4954,
      "гуман": 4955,
      "Националь": 4956,
      "Вой": 4957,
      "становятся▁": 4958,
      "генера": 4959,
      "снижа": 4960,
      "▁противопо": 4961,
      "(и▁": 4962,
      "Мер": 4963,
      "н,▁": 4964,
      "хма": 4965,
      "вое": 4966,
      "ло,▁": 4967,
      "вы.": 4968,
      "золо": 4969,
      "власти.": 4970,
      "курс▁": 4971,
      "Индии▁": 4972,
      "ре.": 4973,
      "своей": 4974,
      "одно▁": 4975,
      "одну▁": 4976,
      "различных▁": 4977,
      "▁препятстви": 4978,
      "исполн": 4979,
      "ду▁": 4980,
      "▁политический▁": 4981,
      "сказыва": 4982,
      "России,▁": 4983,
      "движение▁": 4984,
      "сопротив": 4985,
      "сосредото": 4986,
      "&#160": 4987,
      "Ле": 4988,
      "тной▁": 4989,
      "ра▁в▁": 4990,
      "льным▁": 4991,
      "лизация▁": 4992,
      "новую▁": 4993,
      "тельно▁": 4994,
      ",▁в▁котором▁": 4995,
      "ный▁по": 4996,
      "детей▁": 4997,
      "Ливи": 4998,
      "группы▁": 4999,
      "степени": 5000,
      "нется▁": 5001,
      "ю,▁что▁": 5002,
      "моз": 5003,
      "отвер": 5004,
      "нуть▁": 5005,
      "сам▁": 5006,
      "пов▁": 5007,
      "да▁в▁": 5008,
      "стороны": 5009,
      "устойчиво": 5010,
      "t▁": 5011,
      "МБ": 5012,
      "блич": 5013,
      "в▁про": 5014,
      "иско": 5015,
      "дой▁": 5016,
      "выда": 5017,
      "Китая": 5018,
      "такими▁": 5019,
      "рынке▁": 5020,
      "Южной▁Коре": 5021,
      "распространен": 5022,
      "млр": 5023,
      "донези": 5024,
      "делают▁": 5025,
      "регулирования▁": 5026,
      "▁произошло▁": 5027,
      "ху▁": 5028,
      "ц▁": 5029,
      "ники": 5030,
      "избра": 5031,
      "▁по▁всему▁": 5032,
      "бир": 5033,
      "надлежа": 5034,
      "Чтобы▁": 5035,
      "вкла": 5036,
      "смогут▁": 5037,
      "▁после": 5038,
      "экономике▁": 5039,
      "объяви": 5040,
      "доступ▁к▁": 5041,
      "ников.": 5042,
      "недостат": 5043,
      "Нью": 5044,
      "▁политическую▁": 5045,
      "стороны,▁": 5046,
      "193": 5047,
      "зависит▁от▁": 5048,
      "сдержи": 5049,
      "аре": 5050,
      "наступ": 5051,
      "деж": 5052,
      "реформа": 5053,
      "угрозо": 5054,
      "всего▁лишь▁": 5055,
      "общей▁": 5056,
      "странами▁": 5057,
      "национального▁": 5058,
      "группи": 5059,
      "финансирования▁": 5060,
      "находи": 5061,
      "ите▁": 5062,
      "стве": 5063,
      "ческие": 5064,
      "▁подразуме": 5065,
      "ровать": 5066,
      "ностью.": 5067,
      "▁проблемы": 5068,
      "международные▁": 5069,
      "▁позволи": 5070,
      "Рез": 5071,
      "л-": 5072,
      "уд": 5073,
      "обуч": 5074,
      ",▁в▁которой▁": 5075,
      "жений▁": 5076,
      "легко▁": 5077,
      "шинг": 5078,
      "МА": 5079,
      "такая▁": 5080,
      ",▁позво": 5081,
      "результатом▁": 5082,
      "налогово": 5083,
      "регулиру": 5084,
      "распространя": 5085,
      "Под": 5086,
      "Фон": 5087,
      "чным▁": 5088,
      ",▁в▁том▁числе▁": 5089,
      "стран-": 5090,
      "изменить▁": 5091,
      "мире,▁": 5092,
      "индустри": 5093,
      "гряз": 5094,
      "вопросы▁": 5095,
      "влияния▁": 5096,
      "ресурсы▁": 5097,
      "разруш": 5098,
      "наших▁": 5099,
      ",▁чь": 5100,
      "▁преж": 5101,
      "цели▁": 5102,
      "являются": 5103,
      "ма▁и▁": 5104,
      "лет,▁": 5105,
      "сыгра": 5106,
      "жизни.": 5107,
      "оправда": 5108,
      "серьёз": 5109,
      "в▁последние▁": 5110,
      "ую": 5111,
      "ном▁по": 5112,
      "не▁про": 5113,
      "ций": 5114,
      "▁политическая▁": 5115,
      "государство▁": 5116,
      "созданию▁": 5117,
      "диску": 5118,
      "ников,▁": 5119,
      "бизнес": 5120,
      "отвеча": 5121,
      "10▁": 5122,
      "шую▁": 5123,
      "тогда": 5124,
      "в▁результате▁": 5125,
      "ционной▁": 5126,
      "скорее▁всего,▁": 5127,
      "Большой▁": 5128,
      "Демо": 5129,
      "усу": 5130,
      "вы,▁": 5131,
      "ляри": 5132,
      "са▁в▁": 5133,
      "структури": 5134,
      "снижения▁": 5135,
      "соответствии▁с▁": 5136,
      "Интернет": 5137,
      "ях": 5138,
      "негатив": 5139,
      "сопер": 5140,
      "деше": 5141,
      "разры": 5142,
      "Садда": 5143,
      "многочислен": 5144,
      "ф▁": 5145,
      "▁пока▁": 5146,
      "гом▁": 5147,
      "неправи": 5148,
      "вести": 5149,
      "формиро": 5150,
      "▁пун": 5151,
      "американского▁": 5152,
      "обосно": 5153,
      "сказал▁": 5154,
      "большее▁": 5155,
      "Саудовской▁": 5156,
      "дискусси": 5157,
      "ic": 5158,
      "кое": 5159,
      "те.": 5160,
      "трудно▁": 5161,
      "утся▁": 5162,
      "иммигран": 5163,
      "Шве": 5164,
      "зин": 5165,
      "рациональ": 5166,
      "возраст": 5167,
      "мы▁не▁": 5168,
      "▁публич": 5169,
      ",▁направлен": 5170,
      "стратегии▁": 5171,
      "крот": 5172,
      "элемен": 5173,
      "окаж": 5174,
      "бур": 5175,
      "пута": 5176,
      "явление▁": 5177,
      "надея": 5178,
      "институциональ": 5179,
      "Вашинг": 5180,
      "nbsp;": 5181,
      "лэ": 5182,
      "избы": 5183,
      "весь▁": 5184,
      "результаты▁": 5185,
      "никаких▁": 5186,
      "зарпла": 5187,
      "роят": 5188,
      "т▁и▁": 5189,
      "бар": 5190,
      "Но▁это▁": 5191,
      "государство": 5192,
      "2001": 5193,
      "област": 5194,
      "собственных▁": 5195,
      "большинстве▁": 5196,
      "Большинство▁": 5197,
      "станут▁": 5198,
      "место": 5199,
      "беж": 5200,
      "био": 5201,
      "▁премьер-министра▁": 5202,
      "вызывает▁": 5203,
      "контролиру": 5204,
      "п▁": 5205,
      "совсем▁": 5206,
      "лега": 5207,
      "стов,▁": 5208,
      "ющие": 5209,
      "ной▁политики▁": 5210,
      "социального▁": 5211,
      "самом▁деле▁": 5212,
      "напряжен": 5213,
      "здесь▁": 5214,
      "вати": 5215,
      "довольно▁": 5216,
      "валютного▁": 5217,
      "транспор": 5218,
      "вперед": 5219,
      "искус": 5220,
      "Во-вторых,▁": 5221,
      "Лу": 5222,
      "истин": 5223,
      "опа": 5224,
      "су▁": 5225,
      "слы": 5226,
      "том.": 5227,
      "в▁то▁время▁как▁": 5228,
      "в▁настоящее▁время▁": 5229,
      "ений▁в▁": 5230,
      "часто": 5231,
      "▁правительств▁": 5232,
      "торговли": 5233,
      "двумя▁": 5234,
      "деньги▁": 5235,
      "исключительно▁": 5236,
      "напомина": 5237,
      "▁процентные▁ставки▁": 5238,
      "▁привело▁к▁": 5239,
      "«по": 5240,
      "всп": 5241,
      "состав": 5242,
      "запла": 5243,
      "страли": 5244,
      "констру": 5245,
      "ходят▁": 5246,
      "все▁больше▁": 5247,
      "режим▁": 5248,
      "баланси": 5249,
      "играть▁": 5250,
      "четыре▁": 5251,
      "Саудовской▁Арави": 5252,
      "Гру": 5253,
      "и,▁что▁": 5254,
      "дом": 5255,
      "досто": 5256,
      "демокра": 5257,
      "виде▁": 5258,
      "дефицит": 5259,
      "быстре": 5260,
      "беспоря": 5261,
      "образование▁": 5262,
      "сократить▁": 5263,
      "ЕС,▁": 5264,
      "чения▁": 5265,
      "ти,▁": 5266,
      "Америки": 5267,
      "снизи": 5268,
      "оказаться▁": 5269,
      "информации▁": 5270,
      "Буш▁": 5271,
      "тот▁факт,▁что▁": 5272,
      "льное▁": 5273,
      "заявля": 5274,
      "дела▁": 5275,
      "ти.": 5276,
      "собира": 5277,
      "достичь▁": 5278,
      "пыта": 5279,
      "чная▁": 5280,
      "ноя": 5281,
      "я▁не▁": 5282,
      "лов▁": 5283,
      "облег": 5284,
      "син": 5285,
      "экономики,▁": 5286,
      "сторож": 5287,
      "увеличить▁": 5288,
      "выбросов▁": 5289,
      "щую": 5290,
      "надо▁": 5291,
      "лом": 5292,
      "▁приме": 5293,
      "концеп": 5294,
      "ственно▁": 5295,
      "тур": 5296,
      "возможност": 5297,
      "которому▁": 5298,
      "средне": 5299,
      "195": 5300,
      "сделали▁": 5301,
      "население▁": 5302,
      "Если▁бы▁": 5303,
      "▁после▁того,▁как▁": 5304,
      "существуют▁": 5305,
      "коллектив": 5306,
      "республикан": 5307,
      "СП": 5308,
      "бит": 5309,
      "употреб": 5310,
      "рода▁": 5311,
      "ду.": 5312,
      "работу▁": 5313,
      "o▁": 5314,
      "пы": 5315,
      "ями": 5316,
      "▁потому,▁что▁": 5317,
      "холодной▁": 5318,
      "рабочей▁": 5319,
      "Индонези": 5320,
      "ЕЦБ▁": 5321,
      "консерватив": 5322,
      "доку": 5323,
      "▁проис": 5324,
      "▁подры": 5325,
      "тых▁": 5326,
      "Европы,▁": 5327,
      "частности,▁": 5328,
      "лые▁": 5329,
      "Но,▁": 5330,
      "восстановления▁": 5331,
      "дорого": 5332,
      "дить▁": 5333,
      "ющая": 5334,
      "меч": 5335,
      "века▁": 5336,
      "система": 5337,
      "региона▁": 5338,
      "компания": 5339,
      "беспоко": 5340,
      "За▁": 5341,
      "Хез": 5342,
      "каз": 5343,
      "дают▁": 5344,
      "лав": 5345,
      "основы": 5346,
      "считают▁": 5347,
      "массовой▁": 5348,
      "15▁": 5349,
      "Еще▁": 5350,
      "их▁по": 5351,
      "ём▁": 5352,
      "Коро": 5353,
      "все▁же▁": 5354,
      "ных.": 5355,
      "говорят▁": 5356,
      "▁представляет▁собой▁": 5357,
      "Гонкон": 5358,
      "бри": 5359,
      "распа": 5360,
      "лизован": 5361,
      "▁превыша": 5362,
      "Китае▁": 5363,
      "сейчас": 5364,
      "&#160;": 5365,
      "чу▁": 5366,
      "сом,▁": 5367,
      "ейн": 5368,
      "войны.": 5369,
      "демократии▁": 5370,
      "свободной▁": 5371,
      "расположен": 5372,
      "функциони": 5373,
      "▁пак": 5374,
      "лей": 5375,
      "живо": 5376,
      "этого,▁": 5377,
      ",▁подоб": 5378,
      "или▁даже▁": 5379,
      "Такие▁": 5380,
      "мира,▁": 5381,
      "еврозоны▁": 5382,
      "Вла": 5383,
      "Ри": 5384,
      "рец": 5385,
      "отра": 5386,
      "▁приблиз": 5387,
      "▁подписа": 5388,
      "ванных▁": 5389,
      "модели▁": 5390,
      "отношениях▁": 5391,
      "Нет": 5392,
      "Сле": 5393,
      "упо": 5394,
      "налоги": 5395,
      "способствовать▁": 5396,
      "▁представляют▁": 5397,
      "Европа": 5398,
      "симво": 5399,
      "Второй▁": 5400,
      "Ху": 5401,
      "вый": 5402,
      "Колумби": 5403,
      "данной▁": 5404,
      "▁плате": 5405,
      "рованные▁": 5406,
      ",▁похоже,▁": 5407,
      "Ирланди": 5408,
      "ему": 5409,
      "хи▁": 5410,
      "ре,▁": 5411,
      "нию": 5412,
      "ками": 5413,
      "незначитель": 5414,
      "рий": 5415,
      "выжи": 5416,
      "▁приводит▁": 5417,
      "начало▁": 5418,
      "многосторон": 5419,
      "▁происходит▁": 5420,
      "▁подверга": 5421,
      "▁противоречи": 5422,
      "опаса": 5423,
      "ИН": 5424,
      "агрессив": 5425,
      "нит": 5426,
      "ями.": 5427,
      "ниже▁": 5428,
      "работы▁": 5429,
      "экономическое▁": 5430,
      "как▁прави": 5431,
      "будущем.": 5432,
      "ориенти": 5433,
      "ДП": 5434,
      "ге,▁": 5435,
      "ске": 5436,
      "▁(": 5437,
      "лей▁": 5438,
      "▁приведет▁к▁": 5439,
      "ценных▁": 5440,
      "сти▁и▁": 5441,
      "2007": 5442,
      "2009": 5443,
      "ланти": 5444,
      "следовать▁": 5445,
      "добро": 5446,
      "стабильности▁": 5447,
      "▁причина": 5448,
      "Мини": 5449,
      "широко▁": 5450,
      "▁планет": 5451,
      "еще": 5452,
      "▁потенциаль": 5453,
      "▁предше": 5454,
      "финансов▁": 5455,
      "никакого▁": 5456,
      "хорошо": 5457,
      "в▁пользу▁": 5458,
      "Брита": 5459,
      "агент": 5460,
      "уж": 5461,
      "шла▁": 5462,
      "дек": 5463,
      "▁проведения▁": 5464,
      "носто": 5465,
      "отмен": 5466,
      "возможность": 5467,
      "Почему▁": 5468,
      "только▁в▁": 5469,
      "росту▁": 5470,
      "Азии,▁": 5471,
      "хими": 5472,
      "внимания▁": 5473,
      "Союза▁": 5474,
      "отражает▁": 5475,
      "солда": 5476,
      "В▁действительности,▁": 5477,
      "исчез": 5478,
      "Грузи": 5479,
      "ние.": 5480,
      "более▁эффектив": 5481,
      "▁переход": 5482,
      "восстановить▁": 5483,
      "восстановление▁": 5484,
      "▁принимать▁": 5485,
      "д,▁": 5486,
      "христи": 5487,
      "чить▁": 5488,
      "недо": 5489,
      "непре": 5490,
      "там,▁": 5491,
      "▁продемонстри": 5492,
      "обе▁": 5493,
      "вывод": 5494,
      "своих": 5495,
      "▁предложи": 5496,
      "ту.": 5497,
      "▁первого▁": 5498,
      "▁первый▁": 5499,
      "▁поддержать▁": 5500,
      "▁плат": 5501,
      "любом▁": 5502,
      "интеллектуаль": 5503,
      "Пра": 5504,
      "▁постро": 5505,
      "м▁на▁": 5506,
      "▁правления▁": 5507,
      ",▁а▁также": 5508,
      "экономической": 5509,
      "носторон": 5510,
      "зре": 5511,
      "зап": 5512,
      "север": 5513,
      "начали▁": 5514,
      "взры": 5515,
      "легко": 5516,
      "санкци": 5517,
      "Путин▁": 5518,
      "влияние▁на▁": 5519,
      "равнове": 5520,
      "однако,▁": 5521,
      "гуманитар": 5522,
      "Ви": 5523,
      "Юго": 5524,
      "жения.": 5525,
      "новым▁": 5526,
      "ливи": 5527,
      "кая": 5528,
      "возро": 5529,
      "ющийся▁": 5530,
      "следних▁": 5531,
      "человека": 5532,
      "сопрово": 5533,
      "одновременно▁": 5534,
      "Учитывая▁": 5535,
      "разоча": 5536,
      "Хезбол": 5537,
      "Ша": 5538,
      "дня▁": 5539,
      "зер": 5540,
      "сказу": 5541,
      "единя": 5542,
      "демократических▁": 5543,
      "сексу": 5544,
      "квали": 5545,
      "разногласи": 5546,
      "Блэ": 5547,
      "Их▁": 5548,
      "Тре": 5549,
      "раб": 5550,
      "мол": 5551,
      "л▁бы▁": 5552,
      "ваний▁": 5553,
      "чески,▁": 5554,
      "▁подхо": 5555,
      "это,▁": 5556,
      "специаль": 5557,
      "щает▁": 5558,
      "блико": 5559,
      "использова": 5560,
      "считают,▁что▁": 5561,
      "двусторон": 5562,
      "Рас": 5563,
      "Азии.": 5564,
      "Греции▁": 5565,
      "альтернати": 5566,
      "ФРС▁": 5567,
      "▁противополож": 5568,
      "Крем": 5569,
      "дор": 5570,
      "бое": 5571,
      "теля▁": 5572,
      "экономическая▁": 5573,
      "способности▁": 5574,
      "системы": 5575,
      "месяцев▁": 5576,
      "необходимые▁": 5577,
      "Бра": 5578,
      "ческому▁": 5579,
      "федераль": 5580,
      "ядерной▁": 5581,
      "оккупа": 5582,
      "должна▁быть▁": 5583,
      "сектора▁": 5584,
      "▁потеря": 5585,
      "цены▁": 5586,
      "оставаться▁": 5587,
      "частного▁": 5588,
      "граждан▁": 5589,
      "будущее▁": 5590,
      "налогов▁": 5591,
      "обсужда": 5592,
      "Клинто": 5593,
      "СР": 5594,
      "идет▁": 5595,
      "▁посредством▁": 5596,
      "на▁себя▁": 5597,
      "ной▁в▁": 5598,
      "экономическим▁": 5599,
      "значен": 5600,
      "усилия▁": 5601,
      "разнообраз": 5602,
      "ено": 5603,
      "новая▁": 5604,
      "мани": 5605,
      "га.": 5606,
      "Европе.": 5607,
      "Но▁в▁": 5608,
      "возможно▁": 5609,
      "среднего▁": 5610,
      "обеспоко": 5611,
      "сть.": 5612,
      "регионе.": 5613,
      "осуществля": 5614,
      "Также▁": 5615,
      "-видимо": 5616,
      "АН": 5617,
      "ониз": 5618,
      "с-": 5619,
      "▁пле": 5620,
      "резо": 5621,
      "льная▁": 5622,
      "гон": 5623,
      "стве,▁": 5624,
      "тера": 5625,
      "ственный▁": 5626,
      "▁переме": 5627,
      "спрос▁": 5628,
      "явления▁": 5629,
      "огромные▁": 5630,
      "▁плох": 5631,
      "установлен": 5632,
      "диало": 5633,
      "-либо": 5634,
      "0%": 5635,
      "11▁": 5636,
      "Це": 5637,
      "охва": 5638,
      "шир": 5639,
      "учитыва": 5640,
      "него▁Восто": 5641,
      "большого▁": 5642,
      "будущем▁": 5643,
      "100▁": 5644,
      "роли▁": 5645,
      "корей": 5646,
      "референ": 5647,
      "кана": 5648,
      "как▁в▁": 5649,
      "вшихся▁": 5650,
      "фол": 5651,
      "Проблема▁": 5652,
      "до▁тех▁пор,▁пока▁": 5653,
      "середи": 5654,
      "экономическую▁": 5655,
      "общества▁": 5656,
      "война▁": 5657,
      "ится▁к▁": 5658,
      "избирателе": 5659,
      "остановить▁": 5660,
      "СМ": 5661,
      "реструктури": 5662,
      "▁побе": 5663,
      "▁политика": 5664,
      "служа": 5665,
      "способ▁": 5666,
      "говоря▁": 5667,
      "увеличива": 5668,
      "национализ": 5669,
      "отрицатель": 5670,
      "Ислам": 5671,
      "непро": 5672,
      "весь": 5673,
      "▁преми": 5674,
      "▁превос": 5675,
      "та▁и▁": 5676,
      "глобализаци": 5677,
      "действий▁": 5678,
      "сказать▁": 5679,
      "▁Ð": 5680,
      "наличи": 5681,
      "ве.": 5682,
      "общества": 5683,
      "могуще": 5684,
      "▁паци": 5685,
      "Например": 5686,
      "ческую": 5687,
      "двину": 5688,
      "крупные▁": 5689,
      "направлени": 5690,
      "доходы▁": 5691,
      "душу▁": 5692,
      "авторитар": 5693,
      "смотреть▁": 5694,
      "геополити": 5695,
      "тся": 5696,
      "кол": 5697,
      "ких": 5698,
      "сирий": 5699,
      "▁придержива": 5700,
      "ги,▁": 5701,
      "▁проблему▁": 5702,
      "ной▁перспекти": 5703,
      "Америке▁": 5704,
      "желание▁": 5705,
      "Ниг": 5706,
      "новля": 5707,
      "куля": 5708,
      "Послед": 5709,
      "▁путе": 5710,
      "экономическому▁": 5711,
      "-нибудь▁": 5712,
      "сопровожда": 5713,
      "Факти": 5714,
      "устран": 5715,
      "ётся▁": 5716,
      "какой▁": 5717,
      "мов▁": 5718,
      "он▁не▁": 5719,
      "со▁времен": 5720,
      "глобальных▁": 5721,
      "сена": 5722,
      "союз▁": 5723,
      "столк": 5724,
      "льзова": 5725,
      "ac": 5726,
      "Дэ": 5727,
      "оне": 5728,
      "стве.": 5729,
      "▁государ": 5730,
      "инвестицион": 5731,
      "десятилетия▁": 5732,
      "Президент▁": 5733,
      "зон": 5734,
      "стить▁": 5735,
      "дефол": 5736,
      "у▁них▁": 5737,
      "международное▁": 5738,
      "Индия▁": 5739,
      "оказались▁": 5740,
      "следствие▁": 5741,
      "▁предоставить▁": 5742,
      "изоля": 5743,
      "газет": 5744,
      "Безопасности▁": 5745,
      "2,": 5746,
      "ьет": 5747,
      "вая": 5748,
      "еть": 5749,
      "специали": 5750,
      "системы.": 5751,
      "владель": 5752,
      "вшись▁": 5753,
      "собственные▁": 5754,
      "регионе▁": 5755,
      "Южной▁": 5756,
      "▁парламент": 5757,
      "борьбы▁с▁": 5758,
      "ценных▁бума": 5759,
      "Ðµ": 5760,
      "вовле": 5761,
      "ением": 5762,
      "нее,▁": 5763,
      "сот": 5764,
      "мися▁": 5765,
      "▁продоволь": 5766,
      "сид": 5767,
      "бы▁по": 5768,
      "которые": 5769,
      "миру▁": 5770,
      "видеть▁": 5771,
      "ктов": 5772,
      "▁премьер-министр▁": 5773,
      "ям,▁": 5774,
      "например": 5775,
      "итет▁": 5776,
      "силу": 5777,
      "ну,▁": 5778,
      "долю▁": 5779,
      "ют,▁": 5780,
      "стабилизи": 5781,
      "▁продолжает▁": 5782,
      "▁предприня": 5783,
      "Миро": 5784,
      "рабочие▁": 5785,
      ",▁по▁крайней▁мере,▁": 5786,
      "сомненно,▁": 5787,
      "Ис": 5788,
      "Мак": 5789,
      "вне▁": 5790,
      "моно": 5791,
      "лем▁": 5792,
      "лень": 5793,
      "▁проблемы.": 5794,
      "кроме▁": 5795,
      "защитить▁": 5796,
      "хват": 5797,
      "рейтин": 5798,
      "Мерке": 5799,
      "емая▁": 5800,
      "ск": 5801,
      "вокруг▁": 5802,
      "отча": 5803,
      "долг▁": 5804,
      "ство▁и▁": 5805,
      "ложить▁": 5806,
      "основные▁": 5807,
      "▁партия▁": 5808,
      "Газ": 5809,
      "Объединен": 5810,
      "Лон": 5811,
      "нрав": 5812,
      "ях.": 5813,
      "▁по▁сравнению▁с▁": 5814,
      "биологи": 5815,
      "вший▁": 5816,
      "населения": 5817,
      "цию▁в▁": 5818,
      "связи▁": 5819,
      "Ди": 5820,
      "це▁": 5821,
      "ена▁": 5822,
      "мое▁": 5823,
      "кури": 5824,
      "е.▁": 5825,
      "генети": 5826,
      "тем▁самым▁": 5827,
      "▁правила▁": 5828,
      "ются.": 5829,
      "вопросам▁": 5830,
      "Сейчас▁": 5831,
      ",▁поддержива": 5832,
      "▁почему▁": 5833,
      "циви": 5834,
      "▁професси": 5835,
      "итив": 5836,
      "осторож": 5837,
      "лосо": 5838,
      "то▁время,▁": 5839,
      "▁пропа": 5840,
      "вышение▁": 5841,
      "▁политики.": 5842,
      ",▁что▁по": 5843,
      "ходится▁": 5844,
      "обеих▁": 5845,
      "создан": 5846,
      "национальные▁": 5847,
      "▁поддержка▁": 5848,
      "экономический▁рост▁": 5849,
      "Государ": 5850,
      "ископа": 5851,
      "ста▁": 5852,
      "▁печа": 5853,
      "финансово": 5854,
      "бедстви": 5855,
      "сделал▁": 5856,
      "емое▁": 5857,
      "двух": 5858,
      "нет.": 5859,
      "опублико": 5860,
      "сса": 5861,
      "ускор": 5862,
      "щет": 5863,
      "вось": 5864,
      "Китаем▁": 5865,
      "американцы▁": 5866,
      "Други": 5867,
      "▁пациен": 5868,
      "▁полной▁": 5869,
      "ством": 5870,
      "односторон": 5871,
      "России.": 5872,
      "основной▁": 5873,
      "Германии,▁": 5874,
      "▁процесса▁": 5875,
      "ронта": 5876,
      "доверие▁": 5877,
      "иться.": 5878,
      "тысяч▁": 5879,
      "▁пределами▁": 5880,
      "возобнов": 5881,
      "реко": 5882,
      "нича": 5883,
      "▁просты": 5884,
      "меж": 5885,
      "всегда": 5886,
      ",▁например": 5887,
      "собственной▁": 5888,
      "игры": 5889,
      "▁произой": 5890,
      "▁повышения▁": 5891,
      ")▁в▁": 5892,
      "воци": 5893,
      "годо": 5894,
      "де.": 5895,
      "суди": 5896,
      "контек": 5897,
      "даже▁в▁": 5898,
      "-Йор": 5899,
      "тюрь": 5900,
      "В▁результате,▁": 5901,
      "Нью-Йор": 5902,
      "&nbsp;": 5903,
      "лизо": 5904,
      "человече": 5905,
      "следующих▁": 5906,
      "интересов▁": 5907,
      "взять▁": 5908,
      "ферме": 5909,
      "хвата": 5910,
      "модель▁": 5911,
      "солидар": 5912,
      "рубеж": 5913,
      "стране.": 5914,
      "долго▁": 5915,
      "мировые▁": 5916,
      "враж": 5917,
      "перь": 5918,
      "гораздо▁более▁": 5919,
      "смерт": 5920,
      "Ни▁": 5921,
      "но,": 5922,
      "лоба": 5923,
      "на▁то,▁что▁": 5924,
      "следи": 5925,
      "возраста": 5926,
      "ить▁по": 5927,
      "ставки": 5928,
      "во▁всех▁": 5929,
      "сенсу": 5930,
      "скепти": 5931,
      "ранее▁": 5932,
      "цией": 5933,
      "общи": 5934,
      "силы": 5935,
      "альян": 5936,
      "▁правя": 5937,
      "они▁могут▁": 5938,
      "ющегося▁": 5939,
      "населения.": 5940,
      "Японии,▁": 5941,
      "коммуниз": 5942,
      "конечном▁счет": 5943,
      "▁пенсион": 5944,
      "ура": 5945,
      "ком,▁": 5946,
      "цено": 5947,
      "год.": 5948,
      "объем": 5949,
      "скольку": 5950,
      "случаях▁": 5951,
      "▁правила": 5952,
      "избежа": 5953,
      "те,▁кто▁": 5954,
      "Пере": 5955,
      "ром,▁": 5956,
      "сократи": 5957,
      "дефля": 5958,
      "▁прес": 5959,
      "спосо": 5960,
      "относя": 5961,
      "▁проблем,▁": 5962,
      "глобальный▁": 5963,
      "▁падение▁": 5964,
      "возникнов": 5965,
      "оптими": 5966,
      "ипотеч": 5967,
      "Нигери": 5968,
      "el": 5969,
      "сы,▁": 5970,
      "ла,▁что▁": 5971,
      "▁протя": 5972,
      "ной▁пла": 5973,
      "уровне": 5974,
      "Америки.": 5975,
      "развития.": 5976,
      "ракет": 5977,
      "составляют▁": 5978,
      "ставил▁": 5979,
      "уменьша": 5980,
      "инвестиций▁в▁": 5981,
      "секретар": 5982,
      "жизненно▁": 5983,
      "Австрали": 5984,
      "кому▁": 5985,
      "госпо": 5986,
      "стати": 5987,
      "вание": 5988,
      "ностью,▁": 5989,
      "системе▁": 5990,
      ",▁приня": 5991,
      "определ": 5992,
      "2010": 5993,
      "ограничения▁": 5994,
      "номи": 5995,
      "выража": 5996,
      "дин": 5997,
      "ме,▁": 5998,
      "отста": 5999,
      "газа▁": 6000,
      "цель▁": 6001,
      "опыт": 6002,
      "из▁этих▁": 6003,
      "власти,▁": 6004,
      "▁последних▁": 6005,
      "миллиона▁": 6006,
      "может▁привести▁к▁": 6007,
      "гражданского▁": 6008,
      "Турции▁": 6009,
      "исключением▁": 6010,
      "жесткой▁": 6011,
      "связанные▁": 6012,
      "и▁пере": 6013,
      "й,▁которые▁": 6014,
      "чную▁": 6015,
      "кисло": 6016,
      "тили▁": 6017,
      "▁правительства.": 6018,
      "ма▁в▁": 6019,
      ",▁принима": 6020,
      "долларов": 6021,
      "тем▁не▁менее,▁": 6022,
      "влиятель": 6023,
      "десятилетий▁": 6024,
      "требования▁": 6025,
      "Ближнего▁Восто": 6026,
      "течение▁по": 6027,
      "Теперь▁": 6028,
      "юриди": 6029,
      "йте▁": 6030,
      "ото": 6031,
      "тки": 6032,
      "и▁его▁": 6033,
      "заставить▁": 6034,
      "обще▁": 6035,
      "выро": 6036,
      "исыва": 6037,
      "Недав": 6038,
      "▁поддержке▁": 6039,
      "ситуации▁": 6040,
      "днев": 6041,
      "заслужива": 6042,
      "Глоба": 6043,
      "вся": 6044,
      "етен": 6045,
      "малень": 6046,
      "дин▁": 6047,
      "ны▁с▁": 6048,
      "проти": 6049,
      "ным▁по": 6050,
      "момент": 6051,
      "▁привлекатель": 6052,
      "РИД": 6053,
      "ощря": 6054,
      "Вер": 6055,
      "джа": 6056,
      "и▁для▁": 6057,
      "не▁име": 6058,
      "вес": 6059,
      "власт": 6060,
      "цам▁": 6061,
      "рованной▁": 6062,
      "для▁по": 6063,
      "текущего▁": 6064,
      "Парти": 6065,
      "индивидуаль": 6066,
      "Вене": 6067,
      "Гу": 6068,
      "вал": 6069,
      "монет": 6070,
      "дами▁": 6071,
      "▁провед": 6072,
      "скаже": 6073,
      ",▁насколько▁": 6074,
      "действие▁": 6075,
      "тряс": 6076,
      "зависимости▁от▁": 6077,
      "\",▁": 6078,
      "Ахма": 6079,
      "ВИ": 6080,
      "ува": 6081,
      "шар": 6082,
      "заключен": 6083,
      "чей": 6084,
      "▁привержен": 6085,
      "еще▁не▁": 6086,
      "первые▁": 6087,
      "иться▁в▁": 6088,
      "корре": 6089,
      "инвестиции▁в▁": 6090,
      "мнение▁": 6091,
      "дефицита▁": 6092,
      "дисбалан": 6093,
      "квар": 6094,
      "угрозы▁": 6095,
      "▁падения▁": 6096,
      "Аль-Ка": 6097,
      "Они": 6098,
      "зм▁": 6099,
      "чита": 6100,
      "щению▁": 6101,
      "но,▁по": 6102,
      "оставля": 6103,
      "частных▁": 6104,
      "государственный▁": 6105,
      "вместе▁": 6106,
      "▁препара": 6107,
      "из▁которых▁": 6108,
      "чены▁": 6109,
      "может▁стать▁": 6110,
      "говорить▁": 6111,
      "силу▁": 6112,
      "группа": 6113,
      "но-кредит": 6114,
      "тех▁пор▁": 6115,
      "фактически▁": 6116,
      "Именно▁": 6117,
      "одобр": 6118,
      "Лондо": 6119,
      "15": 6120,
      "вшей▁": 6121,
      "ями,▁": 6122,
      "вообще▁": 6123,
      "не▁смог": 6124,
      "обраща": 6125,
      "Дол": 6126,
      "блоки": 6127,
      "совокуп": 6128,
      "рекомен": 6129,
      "re": 6130,
      "Аса": 6131,
      "вшей": 6132,
      "ими▁": 6133,
      "йского▁": 6134,
      "остро": 6135,
      ",▁возможно,▁": 6136,
      "нео": 6137,
      "недоволь": 6138,
      "сист": 6139,
      "стую▁": 6140,
      "ждая▁": 6141,
      "обога": 6142,
      "удалось▁": 6143,
      "компетен": 6144,
      "четыре": 6145,
      "Основ": 6146,
      "усугуб": 6147,
      "выбра": 6148,
      "▁присутстви": 6149,
      "гать▁": 6150,
      "во▁внимание▁": 6151,
      "иться▁на▁": 6152,
      "говоря,▁": 6153,
      "центральные▁": 6154,
      "Турция▁": 6155,
      "арабских▁": 6156,
      "демонстра": 6157,
      "Демократи": 6158,
      "ада": 6159,
      "дня": 6160,
      "иден": 6161,
      "ра▁и▁": 6162,
      "руя▁": 6163,
      "макси": 6164,
      "вез": 6165,
      "друз": 6166,
      "это▁было▁": 6167,
      "анта": 6168,
      "следовательно,▁": 6169,
      "декабр": 6170,
      "сеть▁": 6171,
      "щения": 6172,
      ",▁с▁": 6173,
      "валь": 6174,
      "ении": 6175,
      "веще": 6176,
      "шими▁": 6177,
      "американцев▁": 6178,
      "движени": 6179,
      "лет▁назад▁": 6180,
      "должен▁быть▁": 6181,
      "кий▁уровень▁": 6182,
      "сообщество▁": 6183,
      "территории▁": 6184,
      "связанных▁": 6185,
      "м:▁": 6186,
      "▁похо": 6187,
      "еры▁": 6188,
      "тами": 6189,
      "консенсу": 6190,
      "▁подня": 6191,
      "ной▁по": 6192,
      "темпы▁": 6193,
      "обязан": 6194,
      "утверждают,▁что▁": 6195,
      "Так▁что▁": 6196,
      "отдельных▁": 6197,
      "враждеб": 6198,
      "бет": 6199,
      "года.": 6200,
      "ском": 6201,
      "отчет": 6202,
      ",▁что▁в▁": 6203,
      "верси": 6204,
      "▁правительства,▁": 6205,
      "▁получают▁": 6206,
      "израильтя": 6207,
      "▁предпочт": 6208,
      "такую▁": 6209,
      "измер": 6210,
      "ителя▁": 6211,
      "итель▁": 6212,
      "няя": 6213,
      "ным▁в▁": 6214,
      "войны,▁": 6215,
      "высокие▁": 6216,
      "несет▁": 6217,
      "обязательства": 6218,
      "условно,▁": 6219,
      "колони": 6220,
      "Финан": 6221,
      "рабатыва": 6222,
      "▁приблизительно▁": 6223,
      "ro": 6224,
      "Сто": 6225,
      "гг.▁": 6226,
      "водо": 6227,
      "воду": 6228,
      "ги.": 6229,
      "орди": 6230,
      "спокой": 6231,
      "В▁отличие▁от▁": 6232,
      "Пока▁": 6233,
      "▁помог": 6234,
      "данном▁": 6235,
      "Конститу": 6236,
      "Запад▁": 6237,
      "▁президентских▁": 6238,
      "сектор▁": 6239,
      "друг▁дру": 6240,
      "х,▁которые▁": 6241,
      "заключается▁": 6242,
      "вклад▁в▁": 6243,
      "Организации▁": 6244,
      "монопо": 6245,
      "25▁": 6246,
      "встан": 6247,
      "све": 6248,
      "ле.": 6249,
      "стади": 6250,
      "лено▁": 6251,
      "тый▁": 6252,
      "финансовым▁": 6253,
      "числа▁": 6254,
      "убедить▁": 6255,
      "иденти": 6256,
      "le": 6257,
      "щении▁": 6258,
      "рами": 6259,
      "но▁с▁": 6260,
      "▁предна": 6261,
      "время.": 6262,
      "спекуля": 6263,
      "или▁в▁": 6264,
      "ном▁и▁": 6265,
      "низки": 6266,
      "снова": 6267,
      "Вашингто": 6268,
      "Венесу": 6269,
      "II": 6270,
      "мость▁": 6271,
      "де,▁": 6272,
      "ются▁на▁": 6273,
      "страну▁": 6274,
      "еще▁больше▁": 6275,
      "ограничи": 6276,
      "▁продолжают▁": 6277,
      "ВВП.": 6278,
      "денежно-кредит": 6279,
      "Соединенные▁Штаты▁": 6280,
      "▁пяти▁": 6281,
      "группиров": 6282,
      "м,▁по": 6283,
      "носит▁": 6284,
      "дом.": 6285,
      "л▁на▁": 6286,
      "▁политики,▁": 6287,
      "ты▁на▁": 6288,
      "времена▁": 6289,
      "будущего▁": 6290,
      "внутренних▁": 6291,
      "глуб": 6292,
      "против,▁": 6293,
      "тланти": 6294,
      "рони": 6295,
      "мый▁": 6296,
      "ленных▁": 6297,
      "Китай▁и▁": 6298,
      "долговремен": 6299,
      "компаний▁": 6300,
      "требуют▁": 6301,
      "атмо": 6302,
      "лись.": 6303,
      "неэффектив": 6304,
      "мы▁можем▁": 6305,
      "емся▁": 6306,
      "развитию▁": 6307,
      "Германи": 6308,
      "▁писа": 6309,
      "40▁": 6310,
      "репута": 6311,
      "заем": 6312,
      "дем▁": 6313,
      "▁политическим▁": 6314,
      "знамен": 6315,
      "точно▁": 6316,
      "Тали": 6317,
      "этих": 6318,
      "явно▁": 6319,
      "инвесторы▁": 6320,
      "чрезвычайно▁": 6321,
      "к.▁": 6322,
      "озабо": 6323,
      "сы.": 6324,
      "хар": 6325,
      "добав": 6326,
      "такти": 6327,
      "ственным▁": 6328,
      "ванные▁": 6329,
      "людь": 6330,
      "▁получен": 6331,
      "могут▁по": 6332,
      "лось,▁что▁": 6333,
      "словами,▁": 6334,
      "Серби": 6335,
      "сексуаль": 6336,
      "воря": 6337,
      "ении,▁": 6338,
      "▁провер": 6339,
      "свое": 6340,
      "ценност": 6341,
      "турец": 6342,
      "ложения▁": 6343,
      "рассмотр": 6344,
      "важных▁": 6345,
      "десяти▁": 6346,
      "ское▁правительство▁": 6347,
      "заработной▁пла": 6348,
      "гне": 6349,
      "едва▁": 6350,
      "реза": 6351,
      "моти": 6352,
      "кистан": 6353,
      "м,▁а▁": 6354,
      "▁политику": 6355,
      "создании▁": 6356,
      "началь": 6357,
      "новое▁": 6358,
      "лось,▁": 6359,
      "выборах▁": 6360,
      "бюрократи": 6361,
      "▁провести▁": 6362,
      "арен": 6363,
      "тель▁": 6364,
      "во▁время": 6365,
      "необходимы▁": 6366,
      "десят": 6367,
      "2012": 6368,
      "надлеж": 6369,
      "расходы▁": 6370,
      "спустя▁": 6371,
      "дам▁": 6372,
      "с▁Ира": 6373,
      "гар": 6374,
      "как▁«": 6375,
      "ленной▁": 6376,
      "инвесторо": 6377,
      "высоки": 6378,
      "2011": 6379,
      "энергии▁": 6380,
      "всю▁": 6381,
      "В-": 6382,
      "аспек": 6383,
      "не▁у": 6384,
      "не▁за": 6385,
      "ведут▁": 6386,
      "вива": 6387,
      "ственное▁": 6388,
      "экономикой▁": 6389,
      "филь": 6390,
      ",▁по-видимо": 6391,
      "меньшей▁": 6392,
      "конца▁": 6393,
      "китайские▁": 6394,
      "г▁в▁": 6395,
      "раун": 6396,
      "то,▁чтобы▁": 6397,
      "соста": 6398,
      "конкури": 6399,
      "лены": 6400,
      "лен▁": 6401,
      "возможностей▁": 6402,
      "ления▁в▁": 6403,
      "демократии.": 6404,
      "фери": 6405,
      "вероятность▁": 6406,
      "Союз▁": 6407,
      "распространение▁": 6408,
      "▁прав▁человека▁": 6409,
      "элит": 6410,
      "сила▁": 6411,
      "доля▁": 6412,
      "шать▁": 6413,
      "анья": 6414,
      "цами▁": 6415,
      "развития,▁": 6416,
      "сть,▁": 6417,
      "миллиарда▁": 6418,
      "деятельности▁": 6419,
      "Правительство▁": 6420,
      "егип": 6421,
      "наказа": 6422,
      "ющимся▁": 6423,
      "водят▁": 6424,
      "местных▁": 6425,
      "военного▁": 6426,
      "жизнеспособ": 6427,
      "капитала": 6428,
      "Тайван": 6429,
      "множество▁": 6430,
      "обвиня": 6431,
      "ответственность▁за▁": 6432,
      "Нетанья": 6433,
      "Если": 6434,
      "зор": 6435,
      "▁популяр": 6436,
      "мимо▁": 6437,
      "В▁течение▁": 6438,
      "ту,▁": 6439,
      "ровала▁": 6440,
      "инвестиций▁": 6441,
      "успех▁": 6442,
      "эпи": 6443,
      "ению,▁": 6444,
      "давля": 6445,
      "люб": 6446,
      "мули": 6447,
      "данного▁": 6448,
      "важные▁": 6449,
      "геро": 6450,
      "частично▁": 6451,
      "контроль▁над▁": 6452,
      "вспо": 6453,
      "не▁только": 6454,
      "ровую▁": 6455,
      "Но▁если▁": 6456,
      "банкрот": 6457,
      "важную▁": 6458,
      "вшиеся▁": 6459,
      "человека.": 6460,
      "климата.": 6461,
      "По▁мере▁": 6462,
      "вую▁очеред": 6463,
      "▁протекци": 6464,
      "сосредоточ": 6465,
      "жи▁": 6466,
      "ьют": 6467,
      "у▁на▁": 6468,
      "развед": 6469,
      "ки▁на▁": 6470,
      "ловероят": 6471,
      "%▁от▁": 6472,
      "▁предложение▁": 6473,
      "Северной▁": 6474,
      "расширение▁": 6475,
      "накоп": 6476,
      "вдох": 6477,
      "-бюджет": 6478,
      "Йе": 6479,
      "дно▁": 6480,
      "оте": 6481,
      "тща": 6482,
      "задолжен": 6483,
      "▁приз": 6484,
      "верх": 6485,
      "ла▁к▁": 6486,
      "▁политическое▁": 6487,
      "общество▁": 6488,
      "▁проблемо": 6489,
      "фек": 6490,
      "2006": 6491,
      "кажется": 6492,
      "могло▁": 6493,
      "руководство▁": 6494,
      "Западной▁": 6495,
      "кладыва": 6496,
      "националисти": 6497,
      "каждой▁": 6498,
      "компенса": 6499,
      "семь▁": 6500,
      "om": 6501,
      "уго": 6502,
      "нее": 6503,
      "сом.": 6504,
      "рин": 6505,
      "минима": 6506,
      "с▁точки▁зрения▁": 6507,
      "отрас": 6508,
      "▁призыва": 6509,
      "ительную▁": 6510,
      "виду▁": 6511,
      "оборон": 6512,
      "сотрудничества▁": 6513,
      "▁причин▁": 6514,
      "ьетна": 6515,
      "их,▁": 6516,
      "более▁по": 6517,
      "▁первой▁": 6518,
      "Наи": 6519,
      "этими▁": 6520,
      ",▁чтобы▁по": 6521,
      "▁перифери": 6522,
      "расширя": 6523,
      "связь▁": 6524,
      "Путина▁": 6525,
      "Во▁время▁": 6526,
      "р,▁": 6527,
      "бой": 6528,
      "выгоду▁": 6529,
      "разд": 6530,
      "▁правительством▁": 6531,
      "ющей": 6532,
      "▁проблемы,▁": 6533,
      "са▁и▁": 6534,
      "лось▁в▁": 6535,
      "рыночной▁": 6536,
      "действительности▁": 6537,
      "углекисло": 6538,
      "материа": 6539,
      "Влади": 6540,
      "Гор": 6541,
      "а▁к▁": 6542,
      "нее.": 6543,
      "ли▁и▁": 6544,
      "не▁менее▁": 6545,
      "стов.": 6546,
      "▁по▁мере▁": 6547,
      "лись▁на▁": 6548,
      "границы▁": 6549,
      "Пари": 6550,
      "Палестин": 6551,
      "ится.": 6552,
      "▁предпочита": 6553,
      "d▁": 6554,
      "Ад": 6555,
      "И,▁": 6556,
      "Иор": 6557,
      "тного▁": 6558,
      "уз": 6559,
      "докла": 6560,
      "лад": 6561,
      "таком▁": 6562,
      "вели▁": 6563,
      "▁претен": 6564,
      "сущ": 6565,
      "м,▁но▁": 6566,
      "остави": 6567,
      "▁процеду": 6568,
      "1989": 6569,
      "богатые▁": 6570,
      "Пеки": 6571,
      "остав": 6572,
      "ним": 6573,
      "маляри": 6574,
      "с▁друго": 6575,
      "л▁к▁": 6576,
      "бая▁": 6577,
      "соблюд": 6578,
      ",▁поэтому▁": 6579,
      "государства.": 6580,
      "стратегия▁": 6581,
      "Абба": 6582,
      "мог▁бы▁": 6583,
      "описа": 6584,
      "обстоятельства": 6585,
      "а▁по": 6586,
      "гмати": 6587,
      "жения,▁": 6588,
      "здоро": 6589,
      "охра": 6590,
      "и▁что▁": 6591,
      "навы": 6592,
      "м▁для▁": 6593,
      "меня▁": 6594,
      "чисто": 6595,
      "вред": 6596,
      "▁переворо": 6597,
      "общества.": 6598,
      "остава": 6599,
      "начал▁": 6600,
      "2004": 6601,
      "данным▁": 6602,
      "человека,▁": 6603,
      "обороны▁": 6604,
      "резерв": 6605,
      "секторе▁": 6606,
      "особенности▁": 6607,
      "учреждения": 6608,
      "находятся▁в▁": 6609,
      "колеба": 6610,
      "ответ▁на▁": 6611,
      "Ахмади": 6612,
      "CO": 6613,
      "наследи": 6614,
      "вало▁": 6615,
      "видов▁": 6616,
      "своему▁": 6617,
      "В▁настоящее▁время▁": 6618,
      "объек": 6619,
      "обеспечение▁": 6620,
      "инвестиции▁": 6621,
      "социальных▁": 6622,
      "конфронта": 6623,
      "конфликт▁": 6624,
      "▁произош": 6625,
      "современной▁": 6626,
      "углекислого▁": 6627,
      "-▁в▁": 6628,
      "Как": 6629,
      "НП": 6630,
      "Эр": 6631,
      "чное▁": 6632,
      "носят▁": 6633,
      "за▁пределами▁": 6634,
      "тами.": 6635,
      "обходи": 6636,
      "барь": 6637,
      "цен▁": 6638,
      "создает▁": 6639,
      "лый▁": 6640,
      "инвестиция": 6641,
      "идея▁": 6642,
      "закончи": 6643,
      "готовы▁": 6644,
      "Муба": 6645,
      "Существует▁": 6646,
      "квалифици": 6647,
      "гг.": 6648,
      "указа": 6649,
      "роз": 6650,
      "скан": 6651,
      "тупи": 6652,
      "священ": 6653,
      "стремление▁": 6654,
      "территориаль": 6655,
      "необходимых▁": 6656,
      "В▁прошло": 6657,
      "и▁пре": 6658,
      "кле": 6659,
      "ям.": 6660,
      "в▁мире▁": 6661,
      "микро": 6662,
      "ительная▁": 6663,
      "туаль": 6664,
      "сти▁в▁": 6665,
      "шая": 6666,
      "правитель": 6667,
      "ядерное▁": 6668,
      "могла▁": 6669,
      "целью": 6670,
      "ставили▁": 6671,
      "an▁": 6672,
      "самм": 6673,
      "Саркоз": 6674,
      "МБРИД": 6675,
      "▁пунк": 6676,
      "ноябр": 6677,
      "весьма▁": 6678,
      "МБРИДЖ": 6679,
      "17": 6680,
      "it": 6681,
      "и▁другие▁": 6682,
      "не▁хвата": 6683,
      "отстав": 6684,
      "ны▁для▁": 6685,
      "работо": 6686,
      "лись▁с▁": 6687,
      "экономическом▁": 6688,
      "могла▁бы▁": 6689,
      "организо": 6690,
      "защиту▁": 6691,
      "дисци": 6692,
      "устанавли": 6693,
      "Объединенных▁": 6694,
      "Ахмадине": 6695,
      "вме": 6696,
      "ющую": 6697,
      "”,▁": 6698,
      "затруд": 6699,
      "обер": 6700,
      "отсут": 6701,
      "стране": 6702,
      "консуль": 6703,
      "жало": 6704,
      "ходе▁": 6705,
      "ться▁к▁": 6706,
      "емым▁": 6707,
      "успеха": 6708,
      "участие▁в▁": 6709,
      "Другие▁": 6710,
      "суверенитет": 6711,
      "Без▁": 6712,
      "ва,▁": 6713,
      "нищет": 6714,
      "бой▁": 6715,
      "общих▁": 6716,
      "не▁может": 6717,
      "шает▁": 6718,
      "финансовой": 6719,
      "▁пада": 6720,
      "объяв": 6721,
      "аналити": 6722,
      "чувство▁": 6723,
      "рецеден": 6724,
      "бывший▁": 6725,
      "о▁том,▁как▁": 6726,
      "-то": 6727,
      "ВА": 6728,
      "скро": 6729,
      "сдержива": 6730,
      "сте▁": 6731,
      "на▁пути▁": 6732,
      "сор": 6733,
      "▁призы": 6734,
      "всеми▁": 6735,
      "важно▁": 6736,
      "важней": 6737,
      ",▁начи": 6738,
      "С▁другой▁": 6739,
      "рованного▁": 6740,
      "увеличению▁": 6741,
      "лось.": 6742,
      "&quot;▁": 6743,
      "Барак▁": 6744,
      "диктату": 6745,
      "▁председатель": 6746,
      "докумен": 6747,
      "референду": 6748,
      "Джа": 6749,
      "двой": 6750,
      "торов▁": 6751,
      "зали": 6752,
      "▁присоедин": 6753,
      "бы,▁": 6754,
      "гиган": 6755,
      "или▁же▁": 6756,
      "стей▁": 6757,
      "ционного▁": 6758,
      "хотят": 6759,
      "значительные▁": 6760,
      "денег▁": 6761,
      "большего▁": 6762,
      "беспрецеден": 6763,
      "▁превосход": 6764,
      ";▁и▁": 6765,
      "счасть": 6766,
      "эмо": 6767,
      "о▁не": 6768,
      "ростом▁": 6769,
      "кам,▁": 6770,
      "обслужи": 6771,
      "разных▁": 6772,
      "га,▁": 6773,
      "же.": 6774,
      ",▁которым▁": 6775,
      "ция▁в▁": 6776,
      "▁проблемой▁": 6777,
      "труда▁": 6778,
      "развития": 6779,
      "внезап": 6780,
      "успехо": 6781,
      "▁привели▁к▁": 6782,
      "лицом▁": 6783,
      "Европо": 6784,
      "▁площа": 6785,
      "Хамас": 6786,
      "доверия▁": 6787,
      "Бал": 6788,
      "компьют": 6789,
      "интервен": 6790,
      "большая▁часть▁": 6791,
      "беспоряд": 6792,
      "статисти": 6793,
      "Ð¸": 6794,
      "Кэ": 6795,
      "м,▁чтобы▁": 6796,
      "ный,▁": 6797,
      "сона": 6798,
      "заставля": 6799,
      "ляя▁": 6800,
      "винов": 6801,
      "долгово": 6802,
      "которых": 6803,
[...]
