{
  "version": "1.0",
  "truncation": null,
  "padding": null,
  "added_tokens": [
    {
      "id": 0,
      "content": "<pad>",
      "single_word": false,
      "lstrip": false,
      "rstrip": false,
      "normalized": false,
      "special": true
    },
    {
      "id": 1,
      "content": "<eos>",
      "single_word": false,
      "lstrip": false,
      "rstrip": false,
      "normalized": false,
      "special": true
    },
    {
      "id": 2,
      "content": "<bos>",
      "single_word": false,
      "lstrip": false,
      "rstrip": false,
      "normalized": false,
      "special": true
    },
    {
      "id": 3,
      "content": "<unk>",
      "single_word": false,
      "lstrip": false,
      "rstrip": false,
      "normalized": false,
      "special": true
    },
    {
      "id": 4,
      "content": "<start_of_turn>",
      "single_word": false,
      "lstrip": false,
      "rstrip": false,
      "normalized": false,
      "special": true
    },
    {
      "id": 5,
      "content": "<end_of_turn>",
      "single_word": false,
      "lstrip": false,
      "rstrip": false,
      "normalized": false,
      "special": true
    },
    {
      "id": 6,
      "content": "<start_of_image>",
      "single_word": false,
      "lstrip": false,
      "rstrip": false,
      "normalized": false,
      "special": true
    },
    {
      "id": 7,
      "content": "<start_of_audio>",
      "single_word": false,
      "lstrip": false,
      "rstrip": false,
      "normalized": false,
      "special": true
    },
    {
      "id": 8,
      "content": "<end_of_image>",
      "single_word": false,
      "lstrip": false,
      "rstrip": false,
      "normalized": false,
      "special": true
    },
    {
      "id": 9,
      "content": "<image_soft_token>",
      "single_word": false,
      "lstrip": false,
      "rstrip": false,
      "normalized": false,
      "special": true
    },
    {
      "id": 10,
      "content": "<unused_image0>",
      "single_word": false,
      "lstrip": false,
      "rstrip": false,
      "normalized": false,
      "special": true
    },
    {
      "id": 11,
      "content": "<unused_image1>",
      "single_word": false,
      "lstrip": false,
      "rstrip": false,
      "normalized": false,
      "special": true
    },
    {
      "id": 12,
      "content": "<unused_image2>",
      "single_word": false,
      "lstrip": false,
      "rstrip": false,
      "normalized": false,
      "special": true
    },
    {
      "id": 13,
      "content": "<unused_image3>",
      "single_word": false,
      "lstrip": false,
      "rstrip": false,
      "normalized": false,
      "special": true
    },
    {
      "id": 14,
      "content": "<unused_image4>",
      "single_word": false,
      "lstrip": false,
      "rstrip": false,
      "normalized": false,
      "special": true
    },
    {
      "id": 15,
      "content": "<unused_image5>",
      "single_word": false,
      "lstrip": false,
      "rstrip": false,
      "normalized": false,
      "special": true
    },
    {
      "id": 16,
      "content": "<unused_image6>",
      "single_word": false,
      "lstrip": false,
      "rstrip": false,
      "normalized": false,
      "special": true
    },
    {
      "id": 17,
      "content": "<unused_image7>",
      "single_word": false,
      "lstrip": false,
      "rstrip": false,
      "normalized": false,
      "special": true
    },
    {
      "id": 18,
      "content": "<unused_image8>",
      "single_word": false,
      "lstrip": false,
      "rstrip": false,
      "normalized": false,
      "special": true
    },
    {
      "id": 19,
      "content": "<unused_image9>",
      "single_word": false,
      "lstrip": false,
      "rstrip": false,
      "normalized": false,
      "special": true
    },
    {
      "id": 20,
      "content": "<unused_image10>",
      "single_word": false,
      "lstrip": false,
      "rstrip": false,
      "normalized": false,
      "special": true
    },
    {
      "id": 21,
      "content": "<unused_image11>",
      "single_word": false,
      "lstrip": false,
      "rstrip": false,
      "normalized": false,
      "special": true
    },
    {
      "id": 22,
      "content": "<unused_image12>",
      "single_word": false,
      "lstrip": false,
      "rstrip": false,
      "normalized": false,
      "special": true
    },
    {
      "id": 23,
      "content": "<unused_image13>",
      "single_word": false,
      "lstrip": false,
      "rstrip": false,
      "normalized": false,
      "special": true
    },
    {
      "id": 24,
      "content": "<unused_image14>",
      "single_word": false,
      "lstrip": false,
      "rstrip": false,
      "normalized": false,
      "special": true
    },
    {
      "id": 25,
      "content": "<unused_image15>",
      "single_word": false,
      "lstrip": false,
      "rstrip": false,
      "normalized": false,
      "special": true
    },
    {
      "id": 26,
      "content": "<unused_image16>",
      "single_word": false,
      "lstrip": false,
      "rstrip": false,
      "normalized": false,
      "special": true
    },
    {
      "id": 27,
      "content": "<unused_image17>",
      "single_word": false,
      "lstrip": false,
      "rstrip": false,
      "normalized": false,
      "special": true
    },
    {
      "id": 28,
      "content": "<unused_image18>",
      "single_word": false,
      "lstrip": false,
      "rstrip": false,
      "normalized": false,
      "special": true
    },
    {
      "id": 29,
      "content": "<unused_image19>",
      "single_word": false,
      "lstrip": false,
      "rstrip": false,
      "normalized": false,
      "special": true
    },
    {
      "id": 30,
      "content": "<unused_image20>",
      "single_word": false,
      "lstrip": false,
      "rstrip": false,
      "normalized": false,
      "special": true
    },
    {
      "id": 31,
      "content": "<unused_image21>",
      "single_word": false,
      "lstrip": false,
      "rstrip": false,
      "normalized": false,
      "special": true
    },
    {
      "id": 32,
      "content": "<unused_image22>",
      "single_word": false,
      "lstrip": false,
      "rstrip": false,
      "normalized": false,
      "special": true
    },
    {
      "id": 33,
      "content": "<unused_image23>",
      "single_word": false,
      "lstrip": false,
      "rstrip": false,
      "normalized": false,
      "special": true
    },
    {
      "id": 34,
      "content": "<unused_image24>",
      "single_word": false,
      "lstrip": false,
      "rstrip": false,
      "normalized": false,
      "special": true
    },
    {
      "id": 35,
      "content": "<unused_image25>",
      "single_word": false,
      "lstrip": false,
      "rstrip": false,
      "normalized": false,
      "special": true
    },
    {
      "id": 36,
      "content": "<unused_image26>",
      "single_word": false,
      "lstrip": false,
      "rstrip": false,
      "normalized": false,
      "special": true
    },
    {
      "id": 37,
      "content": "<unused_image27>",
      "single_word": false,
      "lstrip": false,
      "rstrip": false,
      "normalized": false,
      "special": true
    },
    {
      "id": 38,
      "content": "<unused_image28>",
      "single_word": false,
      "lstrip": false,
      "rstrip": false,
      "normalized": false,
      "special": true
    },
    {
      "id": 39,
      "content": "<unused_image29>",
      "single_word": false,
      "lstrip": false,
      "rstrip": false,
      "normalized": false,
      "special": true
    },
    {
      "id": 40,
      "content": "<unused_image30>",
      "single_word": false,
      "lstrip": false,
      "rstrip": false,
      "normalized": false,
      "special": true
    },
    {
      "id": 41,
      "content": "<unused_image31>",
      "single_word": false,
      "lstrip": false,
      "rstrip": false,
      "normalized": false,
      "special": true
    },
    {
      "id": 42,
      "content": "<unused_image32>",
      "single_word": false,
      "lstrip": false,
      "rstrip": false,
      "normalized": false,
      "special": true
    },
    {
      "id": 43,
      "content": "<unused_image33>",
      "single_word": false,
      "lstrip": false,
      "rstrip": false,
      "normalized": false,
      "special": true
    },
    {
      "id": 44,
      "content": "<unused_image34>",
      "single_word": false,
      "lstrip": false,
      "rstrip": false,
      "normalized": false,
      "special": true
    },
    {
      "id": 45,
      "content": "<unused_image35>",
      "single_word": false,
      "lstrip": false,
      "rstrip": false,
      "normalized": false,
      "special": true
    },
    {
      "id": 46,
      "content": "<unused_image36>",
      "single_word": false,
      "lstrip": false,
      "rstrip": false,
      "normalized": false,
      "special": true
    },
    {
      "id": 47,
      "content": "<unused_image37>",
      "single_word": false,
      "lstrip": false,
      "rstrip": false,
      "normalized": false,
      "special": true
    },
    {
      "id": 48,
      "content": "<unused_image38>",
      "single_word": false,
      "lstrip": false,
      "rstrip": false,
      "normalized": false,
      "special": true
    },
    {
      "id": 49,
      "content": "<unused_image39>",
      "single_word": false,
      "lstrip": false,
      "rstrip": false,
      "normalized": false,
      "special": true
    },
    {
      "id": 50,
      "content": "<unused_image40>",
      "single_word": false,
      "lstrip": false,
      "rstrip": false,
      "normalized": false,
      "special": true
    },
    {
      "id": 51,
      "content": "<unused_image41>",
      "single_word": false,
      "lstrip": false,
      "rstrip": false,
      "normalized": false,
      "special": true
    },
    {
      "id": 52,
      "content": "<unused_image42>",
      "single_word": false,
      "lstrip": false,
      "rstrip": false,
      "normalized": false,
      "special": true
    },
    {
      "id": 53,
      "content": "<unused_image43>",
      "single_word": false,
      "lstrip": false,
      "rstrip": false,
      "normalized": false,
      "special": true
    },
    {
      "id": 54,
      "content": "<unused_image44>",
      "single_word": false,
      "lstrip": false,
      "rstrip": false,
      "normalized": false,
      "special": true
    },
    {
      "id": 55,
      "content": "<unused_image45>",
      "single_word": false,
      "lstrip": false,
      "rstrip": false,
      "normalized": false,
      "special": true
    },
    {
      "id": 56,
      "content": "<unused_image46>",
      "single_word": false,
      "lstrip": false,
      "rstrip": false,
      "normalized": false,
      "special": true
    },
    {
      "id": 57,
      "content": "<unused_image47>",
      "single_word": false,
      "lstrip": false,
      "rstrip": false,
      "normalized": false,
      "special": true
    },
    {
      "id": 58,
      "content": "<unused_image48>",
      "single_word": false,
      "lstrip": false,
      "rstrip": false,
      "normalized": false,
      "special": true
    },
    {
      "id": 59,
      "content": "<unused_image49>",
      "single_word": false,
      "lstrip": false,
      "rstrip": false,
      "normalized": false,
      "special": true
    },
    {
      "id": 60,
      "content": "<unused_image50>",
      "single_word": false,
      "lstrip": false,
      "rstrip": false,
      "normalized": false,
      "special": true
    },
    {
      "id": 61,
      "content": "<unused_image51>",
      "single_word": false,
      "lstrip": false,
      "rstrip": false,
      "normalized": false,
      "special": true
    },
    {
      "id": 62,
      "content": "<unused_image52>",
      "single_word": false,
      "lstrip": false,
      "rstrip": false,
      "normalized": false,
      "special": true
    },
    {
      "id": 63,
      "content": "<unused_image53>",
      "single_word": false,
      "lstrip": false,
      "rstrip": false,
      "normalized": false,
      "special": true
    },
    {
      "id": 64,
      "content": "<unused_image54>",
      "single_word": false,
      "lstrip": false,
      "rstrip": false,
      "normalized": false,
      "special": true
    },
    {
      "id": 65,
      "content": "<unused_image55>",
      "single_word": false,
      "lstrip": false,
      "rstrip": false,
      "normalized": false,
      "special": true
    },
    {
      "id": 66,
      "content": "<unused_image56>",
      "single_word": false,
      "lstrip": false,
      "rstrip": false,
      "normalized": false,
      "special": true
    },
    {
      "id": 67,
      "content": "<unused_image57>",
      "single_word": false,
      "lstrip": false,
      "rstrip": false,
      "normalized": false,
      "special": true
    },
    {
      "id": 68,
      "content": "<unused_image58>",
      "single_word": false,
      "lstrip": false,
      "rstrip": false,
      "normalized": false,
      "special": true
    },
    {
      "id": 69,
      "content": "<unused_image59>",
      "single_word": false,
      "lstrip": false,
      "rstrip": false,
      "normalized": false,
      "special": true
    },
    {
      "id": 70,
      "content": "<unused_image60>",
      "single_word": false,
      "lstrip": false,
      "rstrip": false,
      "normalized": false,
      "special": true
    },
    {
      "id": 71,
      "content": "<unused_image61>",
      "single_word": false,
      "lstrip": false,
      "rstrip": false,
      "normalized": false,
      "special": true
    },
    {
      "id": 72,
      "content": "<unused_image62>",
      "single_word": false,
      "lstrip": false,
      "rstrip": false,
      "normalized": false,
      "special": true
    },
    {
      "id": 73,
      "content": "<unused_image63>",
      "single_word": false,
      "lstrip": false,
      "rstrip": false,
      "normalized": false,
      "special": true
    },
    {
      "id": 74,
      "content": "<unused_image64>",
      "single_word": false,
      "lstrip": false,
      "rstrip": false,
      "normalized": false,
      "special": true
    },
    {
      "id": 75,
      "content": "<unused_image65>",
      "single_word": false,
      "lstrip": false,
      "rstrip": false,
      "normalized": false,
      "special": true
    },
    {
      "id": 76,
      "content": "<unused_image66>",
      "single_word": false,
      "lstrip": false,
      "rstrip": false,
      "normalized": false,
      "special": true
    },
    {
      "id": 77,
      "content": "<unused_image67>",
      "single_word": false,
      "lstrip": false,
      "rstrip": false,
      "normalized": false,
      "special": true
    },
    {
      "id": 78,
      "content": "<unused_image68>",
      "single_word": false,
      "lstrip": false,
      "rstrip": false,
      "normalized": false,
      "special": true
    },
    {
      "id": 79,
      "content": "<unused_image69>",
      "single_word": false,
      "lstrip": false,
      "rstrip": false,
      "normalized": false,
      "special": true
    },
    {
      "id": 80,
      "content": "<unused_image70>",
      "single_word": false,
      "lstrip": false,
      "rstrip": false,
      "normalized": false,
      "special": true
    },
    {
      "id": 81,
      "content": "<unused_image71>",
      "single_word": false,
      "lstrip": false,
      "rstrip": false,
      "normalized": false,
      "special": true
    },
    {
      "id": 82,
      "content": "<unused_image72>",
      "single_word": false,
      "lstrip": false,
      "rstrip": false,
      "normalized": false,
      "special": true
    },
    {
      "id": 83,
      "content": "<unused_image73>",
      "single_word": false,
      "lstrip": false,
      "rstrip": false,
      "normalized": false,
      "special": true
    },
    {
      "id": 84,
      "content": "<unused_image74>",
      "single_word": false,
      "lstrip": false,
      "rstrip": false,
      "normalized": false,
      "special": true
    },
    {
      "id": 85,
      "content": "<unused_image75>",
      "single_word": false,
      "lstrip": false,
      "rstrip": false,
      "normalized": false,
      "special": true
    },
    {
      "id": 86,
      "content": "<unused_image76>",
      "single_word": false,
      "lstrip": false,
      "rstrip": false,
      "normalized": false,
      "special": true
    },
    {
      "id": 87,
      "content": "<unused_image77>",
      "single_word": false,
      "lstrip": false,
      "rstrip": false,
      "normalized": false,
      "special": true
    },
    {
      "id": 88,
      "content": "<unused_image78>",
      "single_word": false,
      "lstrip": false,
      "rstrip": false,
      "normalized": false,
      "special": true
    },
    {
      "id": 89,
      "content": "<unused_image79>",
      "single_word": false,
      "lstrip": false,
      "rstrip": false,
      "normalized": false,
      "special": true
    },
    {
      "id": 90,
      "content": "<unused_image80>",
      "single_word": false,
      "lstrip": false,
      "rstrip": false,
      "normalized": false,
      "special": true
    },
    {
      "id": 91,
      "content": "<unused_image81>",
      "single_word": false,
      "lstrip": false,
      "rstrip": false,
      "normalized": false,
      "special": true
    },
    {
      "id": 92,
      "content": "<unused_image82>",
      "single_word": false,
      "lstrip": false,
      "rstrip": false,
      "normalized": false,
      "special": true
    },
    {
      "id": 93,
      "content": "<unused_image83>",
      "single_word": false,
      "lstrip": false,
      "rstrip": false,
      "normalized": false,
      "special": true
    },
    {
      "id": 94,
      "content": "<unused_image84>",
      "single_word": false,
      "lstrip": false,
      "rstrip": false,
      "normalized": false,
      "special": true
    },
    {
      "id": 95,
      "content": "<unused_image85>",
      "single_word": false,
      "lstrip": false,
      "rstrip": false,
      "normalized": false,
      "special": true
    },
    {
      "id": 96,
      "content": "<unused_image86>",
      "single_word": false,
      "lstrip": false,
      "rstrip": false,
      "normalized": false,
      "special": true
    },
    {
      "id": 97,
      "content": "<unused_image87>",
      "single_word": false,
      "lstrip": false,
      "rstrip": false,
      "normalized": false,
      "special": true
    },
    {
      "id": 98,
      "content": "<unused_image88>",
      "single_word": false,
      "lstrip": false,
      "rstrip": false,
      "normalized": false,
      "special": true
    },
    {
      "id": 99,
      "content": "<unused_image89>",
      "single_word": false,
      "lstrip": false,
      "rstrip": false,
      "normalized": false,
      "special": true
    },
    {
      "id": 100,
      "content": "<unused_image90>",
      "single_word": false,
      "lstrip": false,
      "rstrip": false,
      "normalized": false,
      "special": true
    },
    {
      "id": 101,
      "content": "<unused_image91>",
      "single_word": false,
      "lstrip": false,
      "rstrip": false,
      "normalized": false,
      "special": true
    },
    {
      "id": 102,
      "content": "<unused_image92>",
      "single_word": false,
      "lstrip": false,
      "rstrip": false,
      "normalized": false,
      "special": true
    },
    {
      "id": 103,
      "content": "<unused_image93>",
      "single_word": false,
      "lstrip": false,
      "rstrip": false,
      "normalized": false,
      "special": true
    },
    {
      "id": 104,
      "content": "<unused_image94>",
      "single_word": false,
      "lstrip": false,
      "rstrip": false,
      "normalized": false,
      "special": true
    },
    {
      "id": 105,
      "content": "<unused_image95>",
      "single_word": false,
      "lstrip": false,
      "rstrip": false,
      "normalized": false,
      "special": true
    },
    {
      "id": 106,
      "content": "<unused_image96>",
      "single_word": false,
      "lstrip": false,
      "rstrip": false,
      "normalized": false,
      "special": true
    },
    {
      "id": 107,
      "content": "<unused_image97>",
      "single_word": false,
      "lstrip": false,
      "rstrip": false,
      "normalized": false,
      "special": true
    },
    {
      "id": 108,
      "content": "<unused_image98>",
      "single_word": false,
      "lstrip": false,
      "rstrip": false,
      "normalized": false,
      "special": true
    },
    {
      "id": 109,
      "content": "<unused_image99>",
      "single_word": false,
      "lstrip": false,
      "rstrip": false,
      "normalized": false,
      "special": true
    },
    {
      "id": 110,
      "content": "<unused_image100>",
      "single_word": false,
      "lstrip": false,
      "rstrip": false,
      "normalized": false,
      "special": true
    },
    {
      "id": 111,
      "content": "<unused_image101>",
      "single_word": false,
      "lstrip": false,
      "rstrip": false,
      "normalized": false,
      "special": true
    },
    {
      "id": 112,
      "content": "<unused_image102>",
      "single_word": false,
      "lstrip": false,
      "rstrip": false,
      "normalized": false,
      "special": true
    },
    {
      "id": 113,
      "content": "<unused_image103>",
      "single_word": false,
      "lstrip": false,
      "rstrip": false,
      "normalized": false,
      "special": true
    },
    {
      "id": 114,
      "content": "<unused_image104>",
      "single_word": false,
      "lstrip": false,
      "rstrip": false,
      "normalized": false,
      "special": true
    },
    {
      "id": 115,
      "content": "<unused_image105>",
      "single_word": false,
      "lstrip": false,
      "rstrip": false,
      "normalized": false,
      "special": true
    },
    {
      "id": 116,
      "content": "<unused_image106>",
      "single_word": false,
      "lstrip": false,
      "rstrip": false,
      "normalized": false,
      "special": true
    },
    {
      "id": 117,
      "content": "<unused_image107>",
      "single_word": false,
      "lstrip": false,
      "rstrip": false,
      "normalized": false,
      "special": true
    },
    {
      "id": 118,
      "content": "<unused_image108>",
      "single_word": false,
      "lstrip": false,
      "rstrip": false,
      "normalized": false,
      "special": true
    },
    {
      "id": 119,
      "content": "<unused_image109>",
      "single_word": false,
      "lstrip": false,
      "rstrip": false,
      "normalized": false,
      "special": true
    },
    {
      "id": 120,
      "content": "<unused_image110>",
      "single_word": false,
      "lstrip": false,
      "rstrip": false,
      "normalized": false,
      "special": true
    },
    {
      "id": 121,
      "content": "<unused_image111>",
      "single_word": false,
      "lstrip": false,
      "rstrip": false,
      "normalized": false,
      "special": true
    },
    {
      "id": 122,
      "content": "<unused_image112>",
      "single_word": false,
      "lstrip": false,
      "rstrip": false,
      "normalized": false,
      "special": true
    },
    {
      "id": 123,
      "content": "<unused_image113>",
      "single_word": false,
      "lstrip": false,
      "rstrip": false,
      "normalized": false,
      "special": true
    },
    {
      "id": 124,
      "content": "<unused_image114>",
      "single_word": false,
      "lstrip": false,
      "rstrip": false,
      "normalized": false,
      "special": true
    },
    {
      "id": 125,
      "content": "<unused_image115>",
      "single_word": false,
      "lstrip": false,
      "rstrip": false,
      "normalized": false,
      "special": true
    },
    {
      "id": 126,
      "content": "<unused_image116>",
      "single_word": false,
      "lstrip": false,
      "rstrip": false,
      "normalized": false,
      "special": true
    },
    {
      "id": 127,
      "content": "<unused_image117>",
      "single_word": false,
      "lstrip": false,
      "rstrip": false,
      "normalized": false,
      "special": true
    },
    {
      "id": 128,
      "content": "<unused_image118>",
      "single_word": false,
      "lstrip": false,
      "rstrip": false,
      "normalized": false,
      "special": true
    },
    {
      "id": 129,
      "content": "<unused_image119>",
      "single_word": false,
      "lstrip": false,
      "rstrip": false,
      "normalized": false,
      "special": true
    },
    {
      "id": 130,
      "content": "<unused_image120>",
      "single_word": false,
      "lstrip": false,
      "rstrip": false,
      "normalized": false,
      "special": true
    },
    {
      "id": 131,
      "content": "<unused_image121>",
      "single_word": false,
      "lstrip": false,
      "rstrip": false,
      "normalized": false,
      "special": true
    },
    {
      "id": 132,
      "content": "<unused_image122>",
      "single_word": false,
      "lstrip": false,
      "rstrip": false,
      "normalized": false,
      "special": true
    },
    {
      "id": 133,
      "content": "<unused_image123>",
      "single_word": false,
      "lstrip": false,
      "rstrip": false,
      "normalized": false,
      "special": true
    },
    {
      "id": 134,
      "content": "<unused_image124>",
      "single_word": false,
      "lstrip": false,
      "rstrip": false,
      "normalized": false,
      "special": true
    },
    {
      "id": 135,
      "content": "<unused_image125>",
      "single_word": false,
      "lstrip": false,
      "rstrip": false,
      "normalized": false,
      "special": true
    },
    {
      "id": 136,
      "content": "<end_of_audio>",
      "single_word": false,
      "lstrip": false,
      "rstrip": false,
      "normalized": false,
      "special": true
    },
    {
      "id": 137,
      "content": "<audio_soft_token>",
      "single_word": false,
      "lstrip": false,
      "rstrip": false,
      "normalized": false,
      "special": true
    },
    {
      "id": 138,
      "content": "<unused_audio0>",
      "single_word": false,
      "lstrip": false,
      "rstrip": false,
      "normalized": false,
      "special": true
    },
    {
      "id": 139,
      "content": "<unused_audio1>",
      "single_word": false,
      "lstrip": false,
      "rstrip": false,
      "normalized": false,
      "special": true
    },
    {
      "id": 140,
      "content": "<unused_audio2>",
      "single_word": false,
      "lstrip": false,
      "rstrip": false,
      "normalized": false,
      "special": true
    },
    {
      "id": 141,
      "content": "<unused_audio3>",
      "single_word": false,
      "lstrip": false,
      "rstrip": false,
      "normalized": false,
      "special": true
    },
    {
      "id": 142,
      "content": "<unused_audio4>",
      "single_word": false,
      "lstrip": false,
      "rstrip": false,
      "normalized": false,
      "special": true
    },
    {
      "id": 143,
      "content": "<unused_audio5>",
      "single_word": false,
      "lstrip": false,
      "rstrip": false,
      "normalized": false,
      "special": true
    },
    {
      "id": 144,
      "content": "<unused_audio6>",
      "single_word": false,
      "lstrip": false,
      "rstrip": false,
      "normalized": false,
      "special": true
    },
    {
      "id": 145,
      "content": "<unused_audio7>",
      "single_word": false,
      "lstrip": false,
      "rstrip": false,
      "normalized": false,
      "special": true
    },
    {
      "id": 146,
      "content": "<unused_audio8>",
      "single_word": false,
      "lstrip": false,
      "rstrip": false,
      "normalized": false,
      "special": true
    },
    {
      "id": 147,
      "content": "<unused_audio9>",
      "single_word": false,
      "lstrip": false,
      "rstrip": false,
      "normalized": false,
      "special": true
    },
    {
      "id": 148,
      "content": "<unused_audio10>",
      "single_word": false,
      "lstrip": false,
      "rstrip": false,
      "normalized": false,
      "special": true
    },
    {
      "id": 149,
      "content": "<unused_audio11>",
      "single_word": false,
      "lstrip": false,
      "rstrip": false,
      "normalized": false,
      "special": true
    },
    {
      "id": 150,
      "content": "<unused_audio12>",
      "single_word": false,
      "lstrip": false,
      "rstrip": false,
      "normalized": false,
      "special": true
    },
    {
      "id": 151,
      "content": "<unused_audio13>",
      "single_word": false,
      "lstrip": false,
      "rstrip": false,
      "normalized": false,
      "special": true
    },
    {
      "id": 152,
      "content": "<unused_audio14>",
      "single_word": false,
      "lstrip": false,
      "rstrip": false,
      "normalized": false,
      "special": true
    },
    {
      "id": 153,
      "content": "<unused_audio15>",
      "single_word": false,
      "lstrip": false,
      "rstrip": false,
      "normalized": false,
      "special": true
    },
    {
      "id": 154,
      "content": "<unused_audio16>",
      "single_word": false,
      "lstrip": false,
      "rstrip": false,
      "normalized": false,
      "special": true
    },
    {
      "id": 155,
      "content": "<unused_audio17>",
      "single_word": false,
      "lstrip": false,
      "rstrip": false,
      "normalized": false,
      "special": true
    },
    {
      "id": 156,
      "content": "<unused_audio18>",
      "single_word": false,
      "lstrip": false,
      "rstrip": false,
      "normalized": false,
      "special": true
    },
    {
      "id": 157,
      "content": "<unused_audio19>",
      "single_word": false,
      "lstrip": false,
      "rstrip": false,
      "normalized": false,
      "special": true
    },
    {
      "id": 158,
      "content": "<unused_audio20>",
      "single_word": false,
      "lstrip": false,
      "rstrip": false,
      "normalized": false,
      "special": true
    },
    {
      "id": 159,
      "content": "<unused_audio21>",
      "single_word": false,
      "lstrip": false,
      "rstrip": false,
      "normalized": false,
      "special": true
    },
    {
      "id": 160,
      "content": "<unused_audio22>",
      "single_word": false,
      "lstrip": false,
      "rstrip": false,
      "normalized": false,
      "special": true
    },
    {
      "id": 161,
      "content": "<unused_audio23>",
      "single_word": false,
      "lstrip": false,
      "rstrip": false,
      "normalized": false,
      "special": true
    },
    {
      "id": 162,
      "content": "<unused_audio24>",
      "single_word": false,
      "lstrip": false,
      "rstrip": false,
      "normalized": false,
      "special": true
    },
    {
      "id": 163,
      "content": "<unused_audio25>",
      "single_word": false,
      "lstrip": false,
      "rstrip": false,
      "normalized": false,
      "special": true
    },
    {
      "id": 164,
      "content": "<unused_audio26>",
      "single_word": false,
      "lstrip": false,
      "rstrip": false,
      "normalized": false,
      "special": true
    },
    {
      "id": 165,
      "content": "<unused_audio27>",
      "single_word": false,
      "lstrip": false,
      "rstrip": false,
      "normalized": false,
      "special": true
    },
    {
      "id": 166,
      "content": "<unused_audio28>",
      "single_word": false,
      "lstrip": false,
      "rstrip": false,
      "normalized": false,
      "special": true
    },
    {
      "id": 167,
      "content": "<unused_audio29>",
      "single_word": false,
      "lstrip": false,
      "rstrip": false,
      "normalized": false,
      "special": true
    },
    {
      "id": 168,
      "content": "<unused_audio30>",
      "single_word": false,
      "lstrip": false,
      "rstrip": false,
      "normalized": false,
      "special": true
    },
    {
      "id": 169,
      "content": "<unused_audio31>",
      "single_word": false,
      "lstrip": false,
      "rstrip": false,
      "normalized": false,
      "special": true
    },
    {
      "id": 170,
      "content": "<unused_audio32>",
      "single_word": false,
      "lstrip": false,
      "rstrip": false,
      "normalized": false,
      "special": true
    },
    {
      "id": 171,
      "content": "<unused_audio33>",
      "single_word": false,
      "lstrip": false,
      "rstrip": false,
      "normalized": false,
      "special": true
    },
    {
      "id": 172,
      "content": "<unused_audio34>",
      "single_word": false,
      "lstrip": false,
      "rstrip": false,
      "normalized": false,
      "special": true
    },
    {
      "id": 173,
      "content": "<unused_audio35>",
      "single_word": false,
      "lstrip": false,
      "rstrip": false,
      "normalized": false,
      "special": true
    },
    {
      "id": 174,
      "content": "<unused_audio36>",
      "single_word": false,
      "lstrip": false,
      "rstrip": false,
      "normalized": false,
      "special": true
    },
    {
      "id": 175,
      "content": "<unused_audio37>",
      "single_word": false,
      "lstrip": false,
      "rstrip": false,
      "normalized": false,
      "special": true
    },
    {
      "id": 176,
      "content": "<unused_audio38>",
      "single_word": false,
      "lstrip": false,
      "rstrip": false,
      "normalized": false,
      "special": true
    },
    {
      "id": 177,
      "content": "<unused_audio39>",
      "single_word": false,
      "lstrip": false,
      "rstrip": false,
      "normalized": false,
      "special": true
    },
    {
      "id": 178,
      "content": "<unused_audio40>",
      "single_word": false,
      "lstrip": false,
      "rstrip": false,
      "normalized": false,
      "special": true
    },
    {
      "id": 179,
      "content": "<unused_audio41>",
      "single_word": false,
      "lstrip": false,
      "rstrip": false,
      "normalized": false,
      "special": true
    },
    {
      "id": 180,
      "content": "<unused_audio42>",
      "single_word": false,
      "lstrip": false,
      "rstrip": false,
      "normalized": false,
      "special": true
    },
    {
      "id": 181,
      "content": "<unused_audio43>",
      "single_word": false,
      "lstrip": false,
      "rstrip": false,
      "normalized": false,
      "special": true
    },
    {
      "id": 182,
      "content": "<unused_audio44>",
      "single_word": false,
      "lstrip": false,
      "rstrip": false,
      "normalized": false,
      "special": true
    },
    {
      "id": 183,
      "content": "<unused_audio45>",
      "single_word": false,
      "lstrip": false,
      "rstrip": false,
      "normalized": false,
      "special": true
    },
    {
      "id": 184,
      "content": "<unused_audio46>",
      "single_word": false,
      "lstrip": false,
      "rstrip": false,
      "normalized": false,
      "special": true
    },
    {
      "id": 185,
      "content": "<unused_audio47>",
      "single_word": false,
      "lstrip": false,
      "rstrip": false,
      "normalized": false,
      "special": true
    },
    {
      "id": 186,
      "content": "<unused_audio48>",
      "single_word": false,
      "lstrip": false,
      "rstrip": false,
      "normalized": false,
      "special": true
    },
    {
      "id": 187,
      "content": "<unused_audio49>",
      "single_word": false,
      "lstrip": false,
      "rstrip": false,
      "normalized": false,
      "special": true
    },
    {
      "id": 188,
      "content": "<unused_audio50>",
      "single_word": false,
      "lstrip": false,
      "rstrip": false,
      "normalized": false,
      "special": true
    },
    {
      "id": 189,
      "content": "<unused_audio51>",
      "single_word": false,
      "lstrip": false,
      "rstrip": false,
      "normalized": false,
      "special": true
    },
    {
      "id": 190,
      "content": "<unused_audio52>",
      "single_word": false,
      "lstrip": false,
      "rstrip": false,
      "normalized": false,
      "special": true
    },
    {
      "id": 191,
      "content": "<unused_audio53>",
      "single_word": false,
      "lstrip": false,
      "rstrip": false,
      "normalized": false,
      "special": true
    },
    {
      "id": 192,
      "content": "<unused_audio54>",
      "single_word": false,
      "lstrip": false,
      "rstrip": false,
      "normalized": false,
      "special": true
    },
    {
      "id": 193,
      "content": "<unused_audio55>",
      "single_word": false,
      "lstrip": false,
      "rstrip": false,
      "normalized": false,
      "special": true
    },
    {
      "id": 194,
      "content": "<unused_audio56>",
      "single_word": false,
      "lstrip": false,
      "rstrip": false,
      "normalized": false,
      "special": true
    },
    {
      "id": 195,
      "content": "<unused_audio57>",
      "single_word": false,
      "lstrip": false,
      "rstrip": false,
      "normalized": false,
      "special": true
    },
    {
      "id": 196,
      "content": "<unused_audio58>",
      "single_word": false,
      "lstrip": false,
      "rstrip": false,
      "normalized": false,
      "special": true
    },
    {
      "id": 197,
      "content": "<unused_audio59>",
      "single_word": false,
      "lstrip": false,
      "rstrip": false,
      "normalized": false,
      "special": true
    },
    {
      "id": 198,
      "content": "<unused_audio60>",
      "single_word": false,
      "lstrip": false,
      "rstrip": false,
      "normalized": false,
      "special": true
    },
    {
      "id": 199,
      "content": "<unused_audio61>",
      "single_word": false,
      "lstrip": false,
      "rstrip": false,
      "normalized": false,
      "special": true
    },
    {
      "id": 200,
      "content": "<unused_audio62>",
      "single_word": false,
      "lstrip": false,
      "rstrip": false,
      "normalized": false,
      "special": true
    },
    {
      "id": 201,
      "content": "<unused_audio63>",
      "single_word": false,
      "lstrip": false,
      "rstrip": false,
      "normalized": false,
      "special": true
    },
    {
      "id": 202,
      "content": "<unused_audio64>",
      "single_word": false,
      "lstrip": false,
      "rstrip": false,
      "normalized": false,
      "special": true
    },
    {
      "id": 203,
      "content": "<unused_audio65>",
      "single_word": false,
      "lstrip": false,
      "rstrip": false,
      "normalized": false,
      "special": true
    },
    {
      "id": 204,
      "content": "<unused_audio66>",
      "single_word": false,
      "lstrip": false,
      "rstrip": false,
      "normalized": false,
      "special": true
    },
    {
      "id": 205,
      "content": "<unused_audio67>",
      "single_word": false,
      "lstrip": false,
      "rstrip": false,
      "normalized": false,
      "special": true
    },
    {
      "id": 206,
      "content": "<unused_audio68>",
      "single_word": false,
      "lstrip": false,
      "rstrip": false,
      "normalized": false,
      "special": true
    },
    {
      "id": 207,
      "content": "<unused_audio69>",
      "single_word": false,
      "lstrip": false,
      "rstrip": false,
      "normalized": false,
      "special": true
    },
    {
      "id": 208,
      "content": "<unused_audio70>",
      "single_word": false,
      "lstrip": false,
      "rstrip": false,
      "normalized": false,
      "special": true
    },
    {
      "id": 209,
      "content": "<unused_audio71>",
      "single_word": false,
      "lstrip": false,
      "rstrip": false,
      "normalized": false,
      "special": true
    },
    {
      "id": 210,
      "content": "<unused_audio72>",
      "single_word": false,
      "lstrip": false,
      "rstrip": false,
      "normalized": false,
      "special": true
    },
    {
      "id": 211,
      "content": "<unused_audio73>",
      "single_word": false,
      "lstrip": false,
      "rstrip": false,
      "normalized": false,
      "special": true
    },
    {
      "id": 212,
      "content": "<unused_audio74>",
      "single_word": false,
      "lstrip": false,
      "rstrip": false,
      "normalized": false,
      "special": true
    },
    {
      "id": 213,
      "content": "<unused_audio75>",
      "single_word": false,
      "lstrip": false,
      "rstrip": false,
      "normalized": false,
      "special": true
    },
    {
      "id": 214,
      "content": "<unused_audio76>",
      "single_word": false,
      "lstrip": false,
      "rstrip": false,
      "normalized": false,
      "special": true
    },
    {
      "id": 215,
      "content": "<unused_audio77>",
      "single_word": false,
      "lstrip": false,
      "rstrip": false,
      "normalized": false,
      "special": true
    },
    {
      "id": 216,
      "content": "<unused_audio78>",
      "single_word": false,
      "lstrip": false,
      "rstrip": false,
      "normalized": false,
      "special": true
    },
    {
      "id": 217,
      "content": "<unused_audio79>",
      "single_word": false,
      "lstrip": false,
      "rstrip": false,
      "normalized": false,
      "special": true
    },
    {
      "id": 218,
      "content": "<unused_audio80>",
      "single_word": false,
      "lstrip": false,
      "rstrip": false,
      "normalized": false,
      "special": true
    },
    {
      "id": 219,
      "content": "<unused_audio81>",
      "single_word": false,
      "lstrip": false,
      "rstrip": false,
      "normalized": false,
      "special": true
    },
    {
      "id": 220,
      "content": "<unused_audio82>",
      "single_word": false,
      "lstrip": false,
      "rstrip": false,
      "normalized": false,
      "special": true
    },
    {
      "id": 221,
      "content": "<unused_audio83>",
      "single_word": false,
      "lstrip": false,
      "rstrip": false,
      "normalized": false,
      "special": true
    },
    {
      "id": 222,
      "content": "<unused_audio84>",
      "single_word": false,
      "lstrip": false,
      "rstrip": false,
      "normalized": false,
      "special": true
    },
    {
      "id": 223,
      "content": "<unused_audio85>",
      "single_word": false,
      "lstrip": false,
      "rstrip": false,
      "normalized": false,
      "special": true
    },
    {
      "id": 224,
      "content": "<unused_audio86>",
      "single_word": false,
      "lstrip": false,
      "rstrip": false,
      "normalized": false,
      "special": true
    },
    {
      "id": 225,
      "content": "<unused_audio87>",
      "single_word": false,
      "lstrip": false,
      "rstrip": false,
      "normalized": false,
      "special": true
    },
    {
      "id": 226,
      "content": "<unused_audio88>",
      "single_word": false,
      "lstrip": false,
      "rstrip": false,
      "normalized": false,
      "special": true
    },
    {
      "id": 227,
      "content": "<unused_audio89>",
      "single_word": false,
      "lstrip": false,
      "rstrip": false,
      "normalized": false,
      "special": true
    },
    {
      "id": 228,
      "content": "<unused_audio90>",
      "single_word": false,
      "lstrip": false,
      "rstrip": false,
      "normalized": false,
      "special": true
    },
    {
      "id": 229,
      "content": "<unused_audio91>",
      "single_word": false,
      "lstrip": false,
      "rstrip": false,
      "normalized": false,
      "special": true
    },
    {
      "id": 230,
      "content": "<unused_audio92>",
      "single_word": false,
      "lstrip": false,
      "rstrip": false,
      "normalized": false,
      "special": true
    },
    {
      "id": 231,
      "content": "<unused_audio93>",
      "single_word": false,
      "lstrip": false,
      "rstrip": false,
      "normalized": false,
      "special": true
    },
    {
      "id": 232,
      "content": "<unused_audio94>",
      "single_word": false,
      "lstrip": false,
      "rstrip": false,
      "normalized": false,
      "special": true
    },
    {
      "id": 233,
      "content": "<unused_audio95>",
      "single_word": false,
      "lstrip": false,
      "rstrip": false,
      "normalized": false,
      "special": true
    },
    {
      "id": 234,
      "content": "<unused_audio96>",
      "single_word": false,
      "lstrip": false,
      "rstrip": false,
      "normalized": false,
      "special": true
    },
    {
      "id": 235,
      "content": "<unused_audio97>",
      "single_word": false,
      "lstrip": false,
      "rstrip": false,
      "normalized": false,
      "special": true
    },
    {
      "id": 236,
      "content": "<unused_audio98>",
      "single_word": false,
      "lstrip": false,
      "rstrip": false,
      "normalized": false,
      "special": true
    },
    {
      "id": 237,
      "content": "<unused_audio99>",
      "single_word": false,
      "lstrip": false,
      "rstrip": false,
      "normalized": false,
      "special": true
    },
    {
      "id": 238,
      "content": "<unused_audio100>",
      "single_word": false,
      "lstrip": false,
      "rstrip": false,
      "normalized": false,
      "special": true
    },
    {
      "id": 239,
      "content": "<unused_audio101>",
      "single_word": false,
      "lstrip": false,
      "rstrip": false,
      "normalized": false,
      "special": true
    },
    {
      "id": 240,
      "content": "<unused_audio102>",
      "single_word": false,
      "lstrip": false,
      "rstrip": false,
      "normalized": false,
      "special": true
    },
    {
      "id": 241,
      "content": "<unused_audio103>",
      "single_word": false,
      "lstrip": false,
      "rstrip": false,
      "normalized": false,
      "special": true
    },
    {
      "id": 242,
      "content": "<unused_audio104>",
      "single_word": false,
      "lstrip": false,
      "rstrip": false,
      "normalized": false,
      "special": true
    },
    {
      "id": 243,
      "content": "<unused_audio105>",
      "single_word": false,
      "lstrip": false,
      "rstrip": false,
      "normalized": false,
      "special": true
    },
    {
      "id": 244,
      "content": "<unused_audio106>",
      "single_word": false,
      "lstrip": false,
      "rstrip": false,
      "normalized": false,
      "special": true
    },
    {
      "id": 245,
      "content": "<unused_audio107>",
      "single_word": false,
      "lstrip": false,
      "rstrip": false,
      "normalized": false,
      "special": true
    },
    {
      "id": 246,
      "content": "<unused_audio108>",
      "single_word": false,
      "lstrip": false,
      "rstrip": false,
      "normalized": false,
      "special": true
    },
    {
      "id": 247,
      "content": "<unused_audio109>",
      "single_word": false,
      "lstrip": false,
      "rstrip": false,
      "normalized": false,
      "special": true
    },
    {
      "id": 248,
      "content": "<unused_audio110>",
      "single_word": false,
      "lstrip": false,
      "rstrip": false,
      "normalized": false,
      "special": true
    },
    {
      "id": 249,
      "content": "<unused_audio111>",
      "single_word": false,
      "lstrip": false,
      "rstrip": false,
      "normalized": false,
      "special": true
    },
    {
      "id": 250,
      "content": "<unused_audio112>",
      "single_word": false,
      "lstrip": false,
      "rstrip": false,
      "normalized": false,
      "special": true
    },
    {
      "id": 251,
      "content": "<unused_audio113>",
      "single_word": false,
      "lstrip": false,
      "rstrip": false,
      "normalized": false,
      "special": true
    },
    {
      "id": 252,
      "content": "<unused_audio114>",
      "single_word": false,
      "lstrip": false,
      "rstrip": false,
      "normalized": false,
      "special": true
    },
    {
      "id": 253,
      "content": "<unused_audio115>",
      "single_word": false,
      "lstrip": false,
      "rstrip": false,
      "normalized": false,
      "special": true
    },
    {
      "id": 254,
      "content": "<unused_audio116>",
      "single_word": false,
      "lstrip": false,
      "rstrip": false,
      "normalized": false,
      "special": true
    },
    {
      "id": 255,
      "content": "<unused_audio117>",
      "single_word": false,
      "lstrip": false,
      "rstrip": false,
      "normalized": false,
      "special": true
    },
    {
      "id": 256,
      "content": "<unused_audio118>",
      "single_word": false,
      "lstrip": false,
      "rstrip": false,
      "normalized": false,
      "special": true
    },
    {
      "id": 257,
      "content": "<unused_audio119>",
      "single_word": false,
      "lstrip": false,
      "rstrip": false,
      "normalized": false,
      "special": true
    },
    {
      "id": 258,
      "content": "<unused_audio120>",
      "single_word": false,
      "lstrip": false,
      "rstrip": false,
      "normalized": false,
      "special": true
    },
    {
      "id": 259,
      "content": "<unused_audio121>",
      "single_word": false,
      "lstrip": false,
      "rstrip": false,
      "normalized": false,
      "special": true
    },
    {
      "id": 260,
      "content": "<unused_audio122>",
      "single_word": false,
      "lstrip": false,
      "rstrip": false,
      "normalized": false,
      "special": true
    },
    {
      "id": 261,
      "content": "<unused_audio123>",
      "single_word": false,
      "lstrip": false,
      "rstrip": false,
      "normalized": false,
      "special": true
    },
    {
      "id": 262,
      "content": "<unused_audio124>",
      "single_word": false,
      "lstrip": false,
      "rstrip": false,
      "normalized": false,
      "special": true
    },
    {
      "id": 263,
      "content": "<unused_audio125>",
      "single_word": false,
      "lstrip": false,
      "rstrip": false,
      "normalized": false,
      "special": true
    }
  ],
  "normalizer": {
    "type": "Replace",
    "pattern": {
      "String": " "
    },
    "content": "▁"
  },
  "pre_tokenizer": {
    "type": "Split",
    "pattern": {
      "String": " "
    },
    "behavior": "MergedWithPrevious",
    "invert": false
  },
  "post_processor": {
    "type": "TemplateProcessing",
    "single": [
      {
        "SpecialToken": {
          "id": "<bos>",
          "type_id": 0
        }
      },
      {
        "Sequence": {
          "id": "A",
          "type_id": 0
        }
      }
    ],
    "pair": [
      {
        "SpecialToken": {
          "id": "<bos>",
          "type_id": 0
        }
      },
      {
        "Sequence": {
          "id": "A",
          "type_id": 0
        }
      },
      {
        "SpecialToken": {
          "id": "<bos>",
          "type_id": 1
        }
      },
      {
        "Sequence": {
          "id": "B",
          "type_id": 1
        }
      }
    ],
    "special_tokens": {
      "<bos>": {
        "id": "<bos>",
        "ids": [
          2
        ],
        "tokens": [
          "<bos>"
        ]
      }
    }
  },
  "decoder": {
    "type": "Sequence",
    "decoders": [
      {
        "type": "Replace",
        "pattern": {
          "String": "▁"
        },
        "content": " "
      },
      {
        "type": "ByteFallback"
      },
      {
        "type": "Fuse"
      }
    ]
  },
  "model": {
    "type": "BPE",
    "dropout": null,
    "unk_token": "<unk>",
    "continuing_subword_prefix": null,
    "end_of_word_suffix": null,
    "fuse_unk": true,
    "byte_fallback": true,
    "ignore_merges": false,
    "vocab": {
      "<pad>": 0,
      "<eos>": 1,
      "<bos>": 2,
      "<unk>": 3,
      "<start_of_turn>": 4,
      "<end_of_turn>": 5,
      "<start_of_image>": 6,
      "<start_of_audio>": 7,
      "<end_of_image>": 8,
      "<image_soft_token>": 9,
      "<unused_image0>": 10,
      "<unused_image1>": 11,
      "<unused_image2>": 12,
      "<unused_image3>": 13,
      "<unused_image4>": 14,
      "<unused_image5>": 15,
      "<unused_image6>": 16,
      "<unused_image7>": 17,
      "<unused_image8>": 18,
      "<unused_image9>": 19,
      "<unused_image10>": 20,
      "<unused_image11>": 21,
      "<unused_image12>": 22,
      "<unused_image13>": 23,
      "<unused_image14>": 24,
      "<unused_image15>": 25,
      "<unused_image16>": 26,
      "<unused_image17>": 27,
      "<unused_image18>": 28,
      "<unused_image19>": 29,
      "<unused_image20>": 30,
      "<unused_image21>": 31,
      "<unused_image22>": 32,
      "<unused_image23>": 33,
      "<unused_image24>": 34,
      "<unused_image25>": 35,
      "<unused_image26>": 36,
      "<unused_image27>": 37,
      "<unused_image28>": 38,
      "<unused_image29>": 39,
      "<unused_image30>": 40,
      "<unused_image31>": 41,
      "<unused_image32>": 42,
      "<unused_image33>": 43,
      "<unused_image34>": 44,
      "<unused_image35>": 45,
      "<unused_image36>": 46,
      "<unused_image37>": 47,
      "<unused_image38>": 48,
      "<unused_image39>": 49,
      "<unused_image40>": 50,
      "<unused_image41>": 51,
      "<unused_image42>": 52,
      "<unused_image43>": 53,
      "<unused_image44>": 54,
      "<unused_image45>": 55,
      "<unused_image46>": 56,
      "<unused_image47>": 57,
      "<unused_image48>": 58,
      "<unused_image49>": 59,
      "<unused_image50>": 60,
      "<unused_image51>": 61,
      "<unused_image52>": 62,
      "<unused_image53>": 63,
      "<unused_image54>": 64,
      "<unused_image55>": 65,
      "<unused_image56>": 66,
      "<unused_image57>": 67,
      "<unused_image58>": 68,
      "<unused_image59>": 69,
      "<unused_image60>": 70,
      "<unused_image61>": 71,
      "<unused_image62>": 72,
      "<unused_image63>": 73,
      "<unused_image64>": 74,
      "<unused_image65>": 75,
      "<unused_image66>": 76,
      "<unused_image67>": 77,
      "<unused_image68>": 78,
      "<unused_image69>": 79,
      "<unused_image70>": 80,
      "<unused_image71>": 81,
      "<unused_image72>": 82,
      "<unused_image73>": 83,
      "<unused_image74>": 84,
      "<unused_image75>": 85,
      "<unused_image76>": 86,
      "<unused_image77>": 87,
      "<unused_image78>": 88,
      "<unused_image79>": 89,
      "<unused_image80>": 90,
      "<unused_image81>": 91,
      "<unused_image82>": 92,
      "<unused_image83>": 93,
      "<unused_image84>": 94,
      "<unused_image85>": 95,
      "<unused_image86>": 96,
      "<unused_image87>": 97,
      "<unused_image88>": 98,
      "<unused_image89>": 99,
      "<unused_image90>": 100,
      "<unused_image91>": 101,
      "<unused_image92>": 102,
      "<unused_image93>": 103,
      "<unused_image94>": 104,
      "<unused_image95>": 105,
      "<unused_image96>": 106,
      "<unused_image97>": 107,
      "<unused_image98>": 108,
      "<unused_image99>": 109,
      "<unused_image100>": 110,
      "<unused_image101>": 111,
      "<unused_image102>": 112,
      "<unused_image103>": 113,
      "<unused_image104>": 114,
      "<unused_image105>": 115,
      "<unused_image106>": 116,
      "<unused_image107>": 117,
      "<unused_image108>": 118,
      "<unused_image109>": 119,
      "<unused_image110>": 120,
      "<unused_image111>": 121,
      "<unused_image112>": 122,
      "<unused_image113>": 123,
      "<unused_image114>": 124,
      "<unused_image115>": 125,
      "<unused_image116>": 126,
      "<unused_image117>": 127,
      "<unused_image118>": 128,
      "<unused_image119>": 129,
      "<unused_image120>": 130,
      "<unused_image121>": 131,
      "<unused_image122>": 132,
      "<unused_image123>": 133,
      "<unused_image124>": 134,
      "<unused_image125>": 135,
      "<end_of_audio>": 136,
      "<audio_soft_token>": 137,
      "<unused_audio0>": 138,
      "<unused_audio1>": 139,
      "<unused_audio2>": 140,
      "<unused_audio3>": 141,
      "<unused_audio4>": 142,
      "<unused_audio5>": 143,
      "<unused_audio6>": 144,
      "<unused_audio7>": 145,
      "<unused_audio8>": 146,
      "<unused_audio9>": 147,
      "<unused_audio10>": 148,
      "<unused_audio11>": 149,
      "<unused_audio12>": 150,
      "<unused_audio13>": 151,
      "<unused_audio14>": 152,
      "<unused_audio15>": 153,
      "<unused_audio16>": 154,
      "<unused_audio17>": 155,
      "<unused_audio18>": 156,
      "<unused_audio19>": 157,
      "<unused_audio20>": 158,
      "<unused_audio21>": 159,
      "<unused_audio22>": 160,
      "<unused_audio23>": 161,
      "<unused_audio24>": 162,
      "<unused_audio25>": 163,
      "<unused_audio26>": 164,
      "<unused_audio27>": 165,
      "<unused_audio28>": 166,
      "<unused_audio29>": 167,
      "<unused_audio30>": 168,
      "<unused_audio31>": 169,
      "<unused_audio32>": 170,
      "<unused_audio33>": 171,
      "<unused_audio34>": 172,
      "<unused_audio35>": 173,
      "<unused_audio36>": 174,
      "<unused_audio37>": 175,
      "<unused_audio38>": 176,
      "<unused_audio39>": 177,
      "<unused_audio40>": 178,
      "<unused_audio41>": 179,
      "<unused_audio42>": 180,
      "<unused_audio43>": 181,
      "<unused_audio44>": 182,
      "<unused_audio45>": 183,
      "<unused_audio46>": 184,
      "<unused_audio47>": 185,
      "<unused_audio48>": 186,
      "<unused_audio49>": 187,
      "<unused_audio50>": 188,
      "<unused_audio51>": 189,
      "<unused_audio52>": 190,
      "<unused_audio53>": 191,
      "<unused_audio54>": 192,
      "<unused_audio55>": 193,
      "<unused_audio56>": 194,
      "<unused_audio57>": 195,
      "<unused_audio58>": 196,
      "<unused_audio59>": 197,
      "<unused_audio60>": 198,
      "<unused_audio61>": 199,
      "<unused_audio62>": 200,
      "<unused_audio63>": 201,
      "<unused_audio64>": 202,
      "<unused_audio65>": 203,
      "<unused_audio66>": 204,
      "<unused_audio67>": 205,
      "<unused_audio68>": 206,
      "<unused_audio69>": 207,
      "<unused_audio70>": 208,
      "<unused_audio71>": 209,
      "<unused_audio72>": 210,
      "<unused_audio73>": 211,
      "<unused_audio74>": 212,
      "<unused_audio75>": 213,
      "<unused_audio76>": 214,
      "<unused_audio77>": 215,
      "<unused_audio78>": 216,
      "<unused_audio79>": 217,
      "<unused_audio80>": 218,
      "<unused_audio81>": 219,
      "<unused_audio82>": 220,
      "<unused_audio83>": 221,
      "<unused_audio84>": 222,
      "<unused_audio85>": 223,
      "<unused_audio86>": 224,
      "<unused_audio87>": 225,
      "<unused_audio88>": 226,
      "<unused_audio89>": 227,
      "<unused_audio90>": 228,
      "<unused_audio91>": 229,
      "<unused_audio92>": 230,
      "<unused_audio93>": 231,
      "<unused_audio94>": 232,
      "<unused_audio95>": 233,
      "<unused_audio96>": 234,
      "<unused_audio97>": 235,
      "<unused_audio98>": 236,
      "<unused_audio99>": 237,
      "<unused_audio100>": 238,
      "<unused_audio101>": 239,
      "<unused_audio102>": 240,
      "<unused_audio103>": 241,
      "<unused_audio104>": 242,
      "<unused_audio105>": 243,
      "<unused_audio106>": 244,
      "<unused_audio107>": 245,
      "<unused_audio108>": 246,
      "<unused_audio109>": 247,
      "<unused_audio110>": 248,
      "<unused_audio111>": 249,
      "<unused_audio112>": 250,
      "<unused_audio113>": 251,
      "<unused_audio114>": 252,
      "<unused_audio115>": 253,
      "<unused_audio116>": 254,
      "<unused_audio117>": 255,
      "<unused_audio118>": 256,
      "<unused_audio119>": 257,
      "<unused_audio120>": 258,
      "<unused_audio121>": 259,
      "<unused_audio122>": 260,
      "<unused_audio123>": 261,
      "<unused_audio124>": 262,
      "<unused_audio125>": 263,
      "!": 264,
      "\"": 265,
      "#": 266,
      "$": 267,
      "%": 268,
      "&": 269,
      "'": 270,
      "(": 271,
      ")": 272,
      "*": 273,
      "+": 274,
      ",": 275,
      "-": 276,
      ".": 277,
      "/": 278,
      "0": 279,
      "1": 280,
      "2": 281,
      "3": 282,
      "4": 283,
      "5": 284,
      "6": 285,
      "7": 286,
      "8": 287,
      "9": 288,
      ":": 289,
      ";": 290,
      "=": 291,
      "?": 292,
      "@": 293,
      "A": 294,
      "B": 295,
      "C": 296,
      "D": 297,
      "E": 298,
      "F": 299,
      "G": 300,
      "H": 301,
      "I": 302,
      "J": 303,
      "K": 304,
      "L": 305,
      "M": 306,
      "N": 307,
      "O": 308,
      "P": 309,
      "Q": 310,
      "R": 311,
      "S": 312,
      "T": 313,
      "U": 314,
      "V": 315,
      "W": 316,
      "X": 317,
      "Y": 318,
      "Z": 319,
      "[": 320,
      "\\": 321,
      "]": 322,
      "_": 323,
      "`": 324,
      "a": 325,
      "b": 326,
      "c": 327,
      "d": 328,
      "e": 329,
      "f": 330,
      "g": 331,
      "h": 332,
      "i": 333,
      "j": 334,
      "k": 335,
      "l": 336,
      "m": 337,
      "n": 338,
      "o": 339,
      "p": 340,
      "q": 341,
      "r": 342,
      "s": 343,
      "t": 344,
      "u": 345,
      "v": 346,
      "w": 347,
      "x": 348,
      "y": 349,
      "z": 350,
      "": 351,
      " ": 352,
      "¡": 353,
      "£": 354,
      "¥": 355,
      "§": 356,
      "¨": 357,
      "«": 358,
      "­": 359,
      "°": 360,
      "±": 361,
      "´": 362,
      "·": 363,
      "¸": 364,
      "º": 365,
      "»": 366,
      "¼": 367,
      "À": 368,
      "Á": 369,
      "Ã": 370,
      "É": 371,
      "Î": 372,
      "Ó": 373,
      "Ö": 374,
      "Ú": 375,
      "à": 376,
      "á": 377,
      "â": 378,
      "ã": 379,
      "ä": 380,
      "å": 381,
      "æ": 382,
      "ç": 383,
      "è": 384,
      "é": 385,
      "ê": 386,
      "ë": 387,
      "ì": 388,
      "í": 389,
      "î": 390,
      "ï": 391,
      "ñ": 392,
      "ó": 393,
      "ô": 394,
      "õ": 395,
      "ö": 396,
      "ø": 397,
      "ú": 398,
      "ü": 399,
      "ă": 400,
      "ć": 401,
      "Č": 402,
      "č": 403,
      "ę": 404,
      "ğ": 405,
      "İ": 406,
      "ı": 407,
      "ł": 408,
      "ń": 409,
      "ō": 410,
      "œ": 411,
      "ŕ": 412,
      "ř": 413,
      "ś": 414,
      "ş": 415,
      "Š": 416,
      "š": 417,
      "ű": 418,
      "ș": 419,
      "˚": 420,
      "Φ": 421,
      "Χ": 422,
      "А": 423,
      "Б": 424,
      "В": 425,
      "Д": 426,
      "Е": 427,
      "И": 428,
      "К": 429,
      "Л": 430,
      "М": 431,
      "Н": 432,
      "О": 433,
      "П": 434,
      "Р": 435,
      "С": 436,
      "Т": 437,
      "У": 438,
      "Ф": 439,
      "Ц": 440,
      "Ч": 441,
      "Ш": 442,
      "Э": 443,
      "Я": 444,
      "а": 445,
      "б": 446,
      "в": 447,
      "г": 448,
      "д": 449,
      "е": 450,
      "ж": 451,
      "з": 452,
      "и": 453,
      "й": 454,
      "к": 455,
      "л": 456,
      "м": 457,
      "н": 458,
      "о": 459,
      "п": 460,
      "р": 461,
      "с": 462,
      "т": 463,
      "у": 464,
      "ф": 465,
      "х": 466,
      "ц": 467,
      "ч": 468,
      "ш": 469,
      "щ": 470,
      "ъ": 471,
      "ы": 472,
      "ь": 473,
      "э": 474,
      "ю": 475,
      "я": 476,
      "ँ": 477,
      "ं": 478,
      "ः": 479,
      "अ": 480,
      "आ": 481,
      "इ": 482,
      "ई": 483,
      "उ": 484,
      "ऊ": 485,
      "ऋ": 486,
      "ए": 487,
      "ऐ": 488,
      "ऑ": 489,
      "ओ": 490,
      "औ": 491,
      "क": 492,
      "ख": 493,
      "ग": 494,
      "घ": 495,
      "च": 496,
      "छ": 497,
      "ज": 498,
      "झ": 499,
      "ञ": 500,
      "ट": 501,
      "ठ": 502,
      "ड": 503,
      "ढ": 504,
      "ण": 505,
      "त": 506,
      "थ": 507,
      "द": 508,
      "ध": 509,
      "न": 510,
      "प": 511,
      "फ": 512,
      "ब": 513,
      "भ": 514,
      "म": 515,
      "य": 516,
      "र": 517,
      "ल": 518,
      "व": 519,
      "श": 520,
      "ष": 521,
      "स": 522,
      "ह": 523,
      "़": 524,
      "ा": 525,
      "ि": 526,
      "ी": 527,
      "ु": 528,
      "ू": 529,
      "ृ": 530,
      "े": 531,
      "ै": 532,
      "ॉ": 533,
      "ो": 534,
      "ौ": 535,
      "्": 536,
      "ज़": 537,
      "ड़": 538,
      "ढ़": 539,
      "फ़": 540,
      "।": 541,
      "​": 542,
      "‌": 543,
      "‍": 544,
      "‎": 545,
      "‑": 546,
      "–": 547,
      "—": 548,
      "‘": 549,
      "’": 550,
      "‚": 551,
      "“": 552,
      "”": 553,
      "•": 554,
      "…": 555,
      "€": 556,
      "™": 557,
      "−": 558,
      "≤": 559,
      "▁": 560,
      "●": 561,
      "": 562,
      "": 563,
      "％": 564,
      "�": 565,
      "e▁": 566,
      "▁t": 567,
      "s▁": 568,
      "in": 569,
      "an": 570,
      "▁th": 571,
      "er": 572,
      "t▁": 573,
      "on": 574,
      "d▁": 575,
      "en": 576,
      "▁the▁": 577,
      ",▁": 578,
      "or": 579,
      "ti": 580,
      "al": 581,
      "re": 582,
      "y▁": 583,
      "ar": 584,
      "o▁": 585,
      "of": 586,
      "th": 587,
      "ing": 588,
      "es": 589,
      "ou": 590,
      "at": 591,
      "is": 592,
      "ic": 593,
      "a▁": 594,
      "ro": 595,
      "tion": 596,
      "and▁": 597,
      "it": 598,
      "of▁": 599,
      "ed▁": 600,
      "▁to▁": 601,
      "ec": 602,
      "al▁": 603,
      "ing▁": 604,
      "st": 605,
      "il": 606,
      "om": 607,
      "is▁": 608,
      "el": 609,
      "an▁": 610,
      "in▁": 611,
      "es▁": 612,
      "ha": 613,
      "ed": 614,
      "ac": 615,
      "for": 616,
      "em": 617,
      "er▁": 618,
      "ol": 619,
      "si": 620,
      "at▁": 621,
      "as": 622,
      "ation": 623,
      "ur": 624,
      "ent": 625,
      "ow": 626,
      "ra": 627,
      "us": 628,
      "ly▁": 629,
      "ve▁": 630,
      "ri": 631,
      "un": 632,
      "h▁": 633,
      "le": 634,
      "ver": 635,
      "Th": 636,
      "l▁": 637,
      "de": 638,
      "su": 639,
      "wh": 640,
      "pro": 641,
      "li": 642,
      "ent▁": 643,
      "con": 644,
      "as▁": 645,
      "’s▁": 646,
      "ad": 647,
      "en▁": 648,
      "ir": 649,
      "▁that▁": 650,
      "ab": 651,
      "on▁": 652,
      "op": 653,
      "e▁th": 654,
      "os": 655,
      "th▁": 656,
      "am": 657,
      "and": 658,
      "ter": 659,
      "oun": 660,
      "im": 661,
      "wi": 662,
      "et": 663,
      "ld▁": 664,
      "ex": 665,
      "ag": 666,
      "no": 667,
      "tic": 668,
      "di": 669,
      "le▁": 670,
      "s,▁": 671,
      "s.": 672,
      "ul": 673,
      "com": 674,
      "of▁the▁": 675,
      "gh": 676,
      "for▁": 677,
      "be▁": 678,
      "uc": 679,
      "are▁": 680,
      "pe": 681,
      "The▁": 682,
      "res": 683,
      "anc": 684,
      "it▁": 685,
      "ap": 686,
      "n▁": 687,
      "or▁": 688,
      "ch": 689,
      "ne": 690,
      "m▁": 691,
      "ma": 692,
      "▁the": 693,
      "over": 694,
      "ould▁": 695,
      "oc": 696,
      "sh": 697,
      "ut": 698,
      "in▁the▁": 699,
      "pl": 700,
      "not▁": 701,
      ",▁the▁": 702,
      "enc": 703,
      "▁to": 704,
      "se": 705,
      "be": 706,
      "ist": 707,
      "ic▁": 708,
      "ation▁": 709,
      "–▁": 710,
      "id": 711,
      "pol": 712,
      "wor": 713,
      "coun": 714,
      "k▁": 715,
      "to▁": 716,
      "have▁": 717,
      "y,▁": 718,
      "wil": 719,
      "ate▁": 720,
      "est": 721,
      "has▁": 722,
      "econ": 723,
      "its▁": 724,
      "e.": 725,
      "ut▁": 726,
      "count": 727,
      "ar▁": 728,
      "qu": 729,
      "all": 730,
      "e,▁": 731,
      "ere▁": 732,
      "with▁": 733,
      "will▁": 734,
      "ev": 735,
      "ir▁": 736,
      "ity▁": 737,
      "by▁": 738,
      "mor": 739,
      "y.": 740,
      "inc": 741,
      "econom": 742,
      "uro": 743,
      "e▁the▁": 744,
      "tion▁": 745,
      "fro": 746,
      "por": 747,
      "▁क": 748,
      "per": 749,
      "par": 750,
      "ob": 751,
      "str": 752,
      "ig": 753,
      "ong": 754,
      "der": 755,
      "rec": 756,
      "ris": 757,
      "bl": 758,
      ",▁and▁": 759,
      "ment": 760,
      "s▁of▁": 761,
      "ect": 762,
      "man": 763,
      "e▁of▁": 764,
      "Ch": 765,
      "ear": 766,
      "Euro": 767,
      "ak": 768,
      "ang": 769,
      "ff": 770,
      "In": 771,
      "ment▁": 772,
      "es.": 773,
      "end": 774,
      "mer": 775,
      "w▁": 776,
      "ther▁": 777,
      "ain": 778,
      "our": 779,
      "po": 780,
      "inter": 781,
      "▁their▁": 782,
      "ay": 783,
      "s▁to▁": 784,
      "gi": 785,
      "was▁": 786,
      "US": 787,
      "overn": 788,
      "pre": 789,
      "ow▁": 790,
      "f▁": 791,
      "ed▁to▁": 792,
      "ep": 793,
      "iz": 794,
      "ers▁": 795,
      "ial▁": 796,
      "es,▁": 797,
      "igh": 798,
      "cont": 799,
      "vi": 800,
      "with": 801,
      "would▁": 802,
      "fin": 803,
      "govern": 804,
      "vel": 805,
      "ing▁the▁": 806,
      "more▁": 807,
      "ally▁": 808,
      "itic": 809,
      "oo": 810,
      "from▁": 811,
      "▁that": 812,
      "Chin": 813,
      "we": 814,
      "whic": 815,
      "out▁": 816,
      "int": 817,
      "mo": 818,
      "nation": 819,
      "la": 820,
      "00": 821,
      "countri": 822,
      "mar": 823,
      "▁this▁": 824,
      "े▁": 825,
      "Europe": 826,
      "one▁": 827,
      "so▁": 828,
      "ric": 829,
      "ost▁": 830,
      "politic": 831,
      "ary▁": 832,
      "ess": 833,
      "▁they▁": 834,
      "Amer": 835,
      "and▁the▁": 836,
      "Americ": 837,
      "port": 838,
      "up": 839,
      "ud": 840,
      "sp": 841,
      "tive▁": 842,
      "ese▁": 843,
      "est▁": 844,
      "fl": 845,
      "sid": 846,
      "dis": 847,
      "et▁": 848,
      "s▁and▁": 849,
      "ant": 850,
      "bec": 851,
      "ome▁": 852,
      "which▁": 853,
      "um": 854,
      "out": 855,
      "arg": 856,
      "row": 857,
      "suc": 858,
      "US▁": 859,
      "dem": 860,
      "▁to▁the▁": 861,
      "min": 862,
      "tu": 863,
      "able▁": 864,
      "gl": 865,
      "iti": 866,
      "sti": 867,
      "all▁": 868,
      "but▁": 869,
      "reas": 870,
      "pos": 871,
      "ust▁": 872,
      "can▁": 873,
      "polic": 874,
      "duc": 875,
      "dec": 876,
      "ip": 877,
      "”▁": 878,
      "a’s▁": 879,
      "year": 880,
      "ther": 881,
      "form": 882,
      "me": 883,
      "enti": 884,
      "mark": 885,
      "ran": 886,
      "ast▁": 887,
      "mil": 888,
      "Un": 889,
      "reat": 890,
      "19": 891,
      "other▁": 892,
      "lik": 893,
      "e▁to▁": 894,
      "rac": 895,
      "economic▁": 896,
      "been▁": 897,
      "rou": 898,
      "ा▁": 899,
      "national▁": 900,
      "pow": 901,
      "fic": 902,
      "hat▁": 903,
      "og": 904,
      "fac": 905,
      "y▁to▁": 906,
      "ld": 907,
      "his▁": 908,
      "'s▁": 909,
      "most▁": 910,
      "emb": 911,
      "inv": 912,
      "financ": 913,
      "lead": 914,
      "ed,▁": 915,
      "aus": 916,
      "tic▁": 917,
      "y▁the▁": 918,
      "But▁": 919,
      "grow": 920,
      "ess▁": 921,
      "sur": 922,
      "glob": 923,
      "fa": 924,
      "ru": 925,
      "ous▁": 926,
      "ी▁": 927,
      "comm": 928,
      "ed.": 929,
      "pres": 930,
      "bo": 931,
      "In▁": 932,
      "new▁": 933,
      "bet": 934,
      "we▁": 935,
      "tur": 936,
      "co": 937,
      "a,▁": 938,
      "ies▁": 939,
      "comp": 940,
      "Is": 941,
      "ussi": 942,
      "ef": 943,
      "political▁": 944,
      "no▁": 945,
      "ter▁": 946,
      "ed▁the▁": 947,
      "tim": 948,
      "eng": 949,
      "oll": 950,
      "ser": 951,
      "i▁": 952,
      "ence▁": 953,
      "only▁": 954,
      "chang": 955,
      "ban": 956,
      "should▁": 957,
      "st▁": 958,
      "sup": 959,
      "cur": 960,
      "ated▁": 961,
      "long": 962,
      "many▁": 963,
      "who▁": 964,
      "on▁the▁": 965,
      "em▁": 966,
      "mak": 967,
      "ay▁": 968,
      "eg": 969,
      "ard": 970,
      "sel": 971,
      "Russi": 972,
      "ever": 973,
      "were▁": 974,
      "ey▁": 975,
      "also▁": 976,
      "cl": 977,
      "ght": 978,
      "peop": 979,
      "tiv": 980,
      "mon": 981,
      "s▁in▁": 982,
      "und": 983,
      "do": 984,
      "for▁the▁": 985,
      "ates▁": 986,
      "ubl": 987,
      "ose▁": 988,
      "countr": 989,
      "ener": 990,
      "sy": 991,
      "he": 992,
      "sion": 993,
      "reg": 994,
      "countries▁": 995,
      ":▁": 996,
      "soc": 997,
      "such▁": 998,
      "s▁that▁": 999,
      "ast": 1000,
      "sa": 1001,
      "But": 1002,
      "mis": 1003,
      "could▁": 1004,
      "global▁": 1005,
      "s▁are▁": 1006,
      "velop": 1007,
      "develop": 1008,
      "il▁": 1009,
      "ance▁": 1010,
      "ed▁by▁": 1011,
      "prov": 1012,
      "▁that▁the▁": 1013,
      "European▁": 1014,
      "cent": 1015,
      "world": 1016,
      "sc": 1017,
      "ing▁to▁": 1018,
      "200": 1019,
      "bu": 1020,
      "now▁": 1021,
      "fir": 1022,
      "he▁": 1023,
      "pri": 1024,
      "ely▁": 1025,
      "ं▁": 1026,
      "cap": 1027,
      "fe": 1028,
      "This▁": 1029,
      "%▁": 1030,
      "att": 1031,
      "under": 1032,
      "ant▁": 1033,
      ",▁th": 1034,
      "र▁": 1035,
      "e▁that▁": 1036,
      "sec": 1037,
      "iv": 1038,
      "with▁the▁": 1039,
      "St": 1040,
      "even▁": 1041,
      "at▁the▁": 1042,
      "It▁": 1043,
      "government▁": 1044,
      "ach": 1045,
      "bil": 1046,
      "uch▁": 1047,
      "▁than▁": 1048,
      "wel": 1049,
      "if": 1050,
      "Af": 1051,
      "abil": 1052,
      "increas": 1053,
      "acc": 1054,
      "ack": 1055,
      "financial▁": 1056,
      "rad": 1057,
      "ited▁": 1058,
      "cris": 1059,
      "▁ter": 1060,
      "from": 1061,
      "government": 1062,
      "se▁": 1063,
      "t▁of▁": 1064,
      "may▁": 1065,
      "ion": 1066,
      "our▁": 1067,
      "au": 1068,
      "must▁": 1069,
      "ement": 1070,
      "world▁": 1071,
      "amp": 1072,
      "larg": 1073,
      "own▁": 1074,
      "ian▁": 1075,
      "publ": 1076,
      "curr": 1077,
      "any▁": 1078,
      "by▁the▁": 1079,
      "diff": 1080,
      "ans▁": 1081,
      "democ": 1082,
      "ist▁": 1083,
      "some▁": 1084,
      "about▁": 1085,
      "s▁the▁": 1086,
      "ure": 1087,
      "en▁the▁": 1088,
      "cre": 1089,
      "deb": 1090,
      "ad▁": 1091,
      "ass": 1092,
      "ations▁": 1093,
      "0▁": 1094,
      "sion▁": 1095,
      "ore": 1096,
      "af": 1097,
      "forc": 1098,
      "war": 1099,
      "becaus": 1100,
      "go": 1101,
      "syst": 1102,
      "pr": 1103,
      "I▁": 1104,
      "Wh": 1105,
      "el▁": 1106,
      "ind": 1107,
      "us▁": 1108,
      "tions▁": 1109,
      "are": 1110,
      "e▁in▁": 1111,
      "ship": 1112,
      "e▁and▁": 1113,
      "vo": 1114,
      "to": 1115,
      "e-": 1116,
      "people▁": 1117,
      "it▁is▁": 1118,
      "ting▁": 1119,
      "des": 1120,
      "invest": 1121,
      "gh▁": 1122,
      ";▁": 1123,
      "exp": 1124,
      "lin": 1125,
      "eff": 1126,
      "ill": 1127,
      "stitu": 1128,
      "again": 1129,
      "produc": 1130,
      "An": 1131,
      "es▁to▁": 1132,
      "ver▁": 1133,
      "resp": 1134,
      "if▁": 1135,
      "ound": 1136,
      "betwe": 1137,
      "ord": 1138,
      "ble▁": 1139,
      "lim": 1140,
      "cer": 1141,
      "ous": 1142,
      "EU": 1143,
      "fu": 1144,
      "hel": 1145,
      "ty▁": 1146,
      "work": 1147,
      "ile▁": 1148,
      "Isra": 1149,
      "what▁": 1150,
      "▁tim": 1151,
      "ical▁": 1152,
      "ed▁in▁": 1153,
      "regi": 1154,
      "ber": 1155,
      "so": 1156,
      "do▁": 1157,
      "a.": 1158,
      "ing.": 1159,
      "as▁the▁": 1160,
      "ame▁": 1161,
      ")▁": 1162,
      "bank": 1163,
      "now": 1164,
      "ish": 1165,
      "A▁": 1166,
      "pric": 1167,
      "memb": 1168,
      "ts▁": 1169,
      "है": 1170,
      "es▁of▁": 1171,
      "much▁": 1172,
      "ong▁": 1173,
      "▁these▁": 1174,
      "sol": 1175,
      "market": 1176,
      "power": 1177,
      "international▁": 1178,
      "had▁": 1179,
      "high": 1180,
      "probl": 1181,
      "but": 1182,
      "Jap": 1183,
      "milit": 1184,
      "Ger": 1185,
      "eig": 1186,
      "from▁the▁": 1187,
      "as▁a▁": 1188,
      "not": 1189,
      "s,▁and▁": 1190,
      "ext": 1191,
      "way": 1192,
      "ech": 1193,
      "wo▁": 1194,
      "ation.": 1195,
      "aliz": 1196,
      "hap": 1197,
      "stat": 1198,
      "bas": 1199,
      "China▁": 1200,
      "ement▁": 1201,
      "es▁that▁": 1202,
      "ain▁": 1203,
      "import": 1204,
      "age▁": 1205,
      "lear▁": 1206,
      "plo": 1207,
      "rel": 1208,
      "into▁": 1209,
      "sident▁": 1210,
      "▁के▁": 1211,
      "्र": 1212,
      "when▁": 1213,
      "is▁a▁": 1214,
      "ust": 1215,
      "vic": 1216,
      "rema": 1217,
      "ven": 1218,
      "▁tak": 1219,
      "▁स": 1220,
      "mp": 1221,
      "y’s▁": 1222,
      "itt": 1223,
      "struc": 1224,
      "le,▁": 1225,
      "ly": 1226,
      "ew": 1227,
      "’▁": 1228,
      "United▁": 1229,
      "cri": 1230,
      "eli": 1231,
      "ight▁": 1232,
      "right": 1233,
      "fer": 1234,
      "ood▁": 1235,
      "20": 1236,
      "sul": 1237,
      "Fr": 1238,
      "soci": 1239,
      "dom": 1240,
      "ion▁": 1241,
      "contin": 1242,
      "infl": 1243,
      "fi": 1244,
      "incl": 1245,
      "sive▁": 1246,
      "ing▁a▁": 1247,
      "secur": 1248,
      "val": 1249,
      "Pre": 1250,
      "t,▁": 1251,
      "मे": 1252,
      "own": 1253,
      "ation▁of▁": 1254,
      "old▁": 1255,
      "pop": 1256,
      "ity.": 1257,
      "cor": 1258,
      "fre": 1259,
      "id▁": 1260,
      "vis": 1261,
      "need": 1262,
      "ism": 1263,
      "dep": 1264,
      "ack▁": 1265,
      "like▁": 1266,
      "p▁": 1267,
      "sen": 1268,
      "sub": 1269,
      "posi": 1270,
      "popul": 1271,
      "region": 1272,
      "ing,▁": 1273,
      "Europ": 1274,
      "capit": 1275,
      "ted▁": 1276,
      "tion.": 1277,
      "bi": 1278,
      "growth▁": 1279,
      "ory▁": 1280,
      "public▁": 1281,
      "med": 1282,
      "respon": 1283,
      "ax": 1284,
      "will▁be▁": 1285,
      "ving▁": 1286,
      "is▁the▁": 1287,
      "can": 1288,
      "ght▁": 1289,
      "low": 1290,
      "le.": 1291,
      "includ": 1292,
      "strat": 1293,
      "Asi": 1294,
      "es▁and▁": 1295,
      "ge▁": 1296,
      "maj": 1297,
      "sig": 1298,
      "succ": 1299,
      "Indi": 1300,
      "policy▁": 1301,
      "nuc": 1302,
      "lear": 1303,
      "ism▁": 1304,
      "ke": 1305,
      "rans": 1306,
      "stand": 1307,
      "▁–▁": 1308,
      "Ira": 1309,
      "ph": 1310,
      "American▁": 1311,
      "Iraq": 1312,
      "ari": 1313,
      "olog": 1314,
      "ative▁": 1315,
      "military▁": 1316,
      "ater": 1317,
      "resul": 1318,
      "continu": 1319,
      "plac": 1320,
      "ard▁": 1321,
      ",▁but▁": 1322,
      "िक": 1323,
      "ors▁": 1324,
      "lion▁": 1325,
      "ure▁": 1326,
      "prot": 1327,
      "power▁": 1328,
      "rat": 1329,
      "ful": 1330,
      "ni": 1331,
      "▁them": 1332,
      "end▁": 1333,
      "foreig": 1334,
      "me▁": 1335,
      "how": 1336,
      "prog": 1337,
      "ed▁a▁": 1338,
      "tional▁": 1339,
      "equ": 1340,
      "port▁": 1341,
      "the▁": 1342,
      "▁and▁": 1343,
      "has▁been▁": 1344,
      "President▁": 1345,
      "elec": 1346,
      "gener": 1347,
      "Inde": 1348,
      "between▁": 1349,
      "ll▁": 1350,
      "ार": 1351,
      "ploy": 1352,
      "्य": 1353,
      "ation,▁": 1354,
      "fail": 1355,
      "▁tra": 1356,
      "On": 1357,
      "abl": 1358,
      "ood": 1359,
      "cas": 1360,
      "issu": 1361,
      "seem": 1362,
      "cour": 1363,
      "▁those▁": 1364,
      "partic": 1365,
      "e▁than▁": 1366,
      "bor": 1367,
      "▁there▁": 1368,
      "ound▁": 1369,
      "market▁": 1370,
      "requ": 1371,
      "e▁a▁": 1372,
      "in▁a▁": 1373,
      "up▁": 1374,
      "Gre": 1375,
      "less▁": 1376,
      "hu": 1377,
      "eas": 1378,
      "proc": 1379,
      "red▁": 1380,
      "first▁": 1381,
      "system": 1382,
      "commun": 1383,
      "differ": 1384,
      "agre": 1385,
      "old": 1386,
      "ell": 1387,
      "ity,▁": 1388,
      "199": 1389,
      "nuclear▁": 1390,
      "ide": 1391,
      "ect▁": 1392,
      "As▁": 1393,
      "lo": 1394,
      "read": 1395,
      "institu": 1396,
      "part": 1397,
      "ual▁": 1398,
      "gre": 1399,
      "ral▁": 1400,
      "EU▁": 1401,
      "provid": 1402,
      "have▁been▁": 1403,
      "come▁": 1404,
      "fund": 1405,
      "Japan": 1406,
      "tion▁of▁": 1407,
      "is▁not▁": 1408,
      "offic": 1409,
      "arm": 1410,
      "both▁": 1411,
      "emer": 1412,
      "possi": 1413,
      "reduc": 1414,
      "problem": 1415,
      "valu": 1416,
      "Europe▁": 1417,
      "od": 1418,
      "ail": 1419,
      "adv": 1420,
      "because▁": 1421,
      "Israel": 1422,
      "employ": 1423,
      ",▁wh": 1424,
      "ik": 1425,
      "s▁t": 1426,
      "estin": 1427,
      "ently▁": 1428,
      "ome": 1429,
      "examp": 1430,
      "में▁": 1431,
      "fut": 1432,
      "ourc": 1433,
      "ite▁": 1434,
      "ating▁": 1435,
      "become▁": 1436,
      "ves▁": 1437,
      "imp": 1438,
      "mad": 1439,
      "yp": 1440,
      "ann": 1441,
      "emp": 1442,
      "democrac": 1443,
      "ild": 1444,
      "Pal": 1445,
      "ial": 1446,
      "years▁": 1447,
      "country▁": 1448,
      "well▁": 1449,
      "leg": 1450,
      ".▁": 1451,
      "ach▁": 1452,
      "out▁the▁": 1453,
      "br": 1454,
      "sinc": 1455,
      "oper": 1456,
      "hist": 1457,
      "fort": 1458,
      "Iran": 1459,
      "would▁be▁": 1460,
      "spec": 1461,
      "ership": 1462,
      "ben": 1463,
      "gg": 1464,
      "▁throu": 1465,
      "ge": 1466,
      "contro": 1467,
      "ch▁": 1468,
      "add": 1469,
      "against▁": 1470,
      "anti": 1471,
      "depend": 1472,
      "Ara": 1473,
      "crisis▁": 1474,
      "िय": 1475,
      "foreign▁": 1476,
      "economy▁": 1477,
      "eir▁": 1478,
      "beli": 1479,
      "Palestin": 1480,
      "peac": 1481,
      "echn": 1482,
      "▁to▁be▁": 1483,
      "just▁": 1484,
      "United▁St": 1485,
      "war▁": 1486,
      "beg": 1487,
      "peri": 1488,
      "ful▁": 1489,
      "ament": 1490,
      "ough▁": 1491,
      ",▁which▁": 1492,
      "rit": 1493,
      "ict": 1494,
      "Com": 1495,
      "idd": 1496,
      "gu": 1497,
      "a▁t": 1498,
      ",▁they▁": 1499,
      "ly,▁": 1500,
      "ven▁": 1501,
      "er▁of▁": 1502,
      "emerg": 1503,
      "state▁": 1504,
      "rain": 1505,
      "call": 1506,
      "remain": 1507,
      "ency▁": 1508,
      "mul": 1509,
      "ों": 1510,
      "Afric": 1511,
      "might▁": 1512,
      "recent▁": 1513,
      "change▁": 1514,
      "olu": 1515,
      "ks▁": 1516,
      "last▁": 1517,
      "strateg": 1518,
      "does▁": 1519,
      "priv": 1520,
      "For▁": 1521,
      "-▁": 1522,
      "o,▁": 1523,
      "interest": 1524,
      "ror": 1525,
      "s’▁": 1526,
      "ान": 1527,
      "ish▁": 1528,
      "tain": 1529,
      "ali": 1530,
      "Par": 1531,
      "sm": 1532,
      "pen": 1533,
      "vir": 1534,
      "ati": 1535,
      "sum": 1536,
      "ity": 1537,
      "same▁": 1538,
      "▁two▁": 1539,
      "over▁": 1540,
      "level": 1541,
      "ential▁": 1542,
      "Isl": 1543,
      "very▁": 1544,
      "Bus": 1545,
      "es▁in▁": 1546,
      "oft": 1547,
      "minist": 1548,
      "ron": 1549,
      "ो▁": 1550,
      "star": 1551,
      "more▁than▁": 1552,
      "still▁": 1553,
      "fact": 1554,
      "other": 1555,
      "direc": 1556,
      "isc": 1557,
      "way▁": 1558,
      "rade▁": 1559,
      "ign": 1560,
      "reli": 1561,
      "shor": 1562,
      "Con": 1563,
      "alleng": 1564,
      "being▁": 1565,
      "appe": 1566,
      "av": 1567,
      "rate▁": 1568,
      "▁tod": 1569,
      "social▁": 1570,
      "hum": 1571,
      "reform": 1572,
      "Kore": 1573,
      "cul": 1574,
      "challeng": 1575,
      "fra": 1576,
      "cho": 1577,
      "ratic▁": 1578,
      "car": 1579,
      "Islam": 1580,
      "tern": 1581,
      "mod": 1582,
      "Al": 1583,
      "201": 1584,
      "▁trans": 1585,
      "es▁the▁": 1586,
      "a▁and▁": 1587,
      "Ob": 1588,
      "where▁": 1589,
      "of▁a▁": 1590,
      "form▁": 1591,
      "dist": 1592,
      "for▁a▁": 1593,
      "vid": 1594,
      "stabil": 1595,
      "coll": 1596,
      "man▁": 1597,
      "There▁": 1598,
      "Tur": 1599,
      "China’s▁": 1600,
      "But▁the▁": 1601,
      "how▁": 1602,
      "medi": 1603,
      "cannot▁": 1604,
      "DP": 1605,
      "s,▁the▁": 1606,
      "ques": 1607,
      "will": 1608,
      "-ter": 1609,
      "interest▁": 1610,
      "caus": 1611,
      "ed▁by▁the▁": 1612,
      "presid": 1613,
      "dra": 1614,
      "Chinese▁": 1615,
      "In▁the▁": 1616,
      "likel": 1617,
      "without▁": 1618,
      "ounc": 1619,
      "leaders▁": 1620,
      "tion,▁": 1621,
      "ew▁": 1622,
      "esp": 1623,
      "t.": 1624,
      "far▁": 1625,
      "b▁": 1626,
      "real▁": 1627,
      "▁tr": 1628,
      "after▁": 1629,
      "regul": 1630,
      "current▁": 1631,
      "ed▁that▁": 1632,
      "long▁": 1633,
      "her": 1634,
      "ste": 1635,
      "regim": 1636,
      "befor": 1637,
      "vers": 1638,
      "king▁": 1639,
      "ough": 1640,
      "pur": 1641,
      "run": 1642,
      "appro": 1643,
      "ah": 1644,
      "rul": 1645,
      "conf": 1646,
      "major▁": 1647,
      "great": 1648,
      "Wor": 1649,
      "energ": 1650,
      "euro": 1651,
      "citi": 1652,
      "र्": 1653,
      "lion": 1654,
      "can▁be▁": 1655,
      "They▁": 1656,
      "argu": 1657,
      "और▁": 1658,
      "gr": 1659,
      "mean": 1660,
      "Indeed,▁": 1661,
      "less": 1662,
      "sect": 1663,
      "thing▁": 1664,
      "स्": 1665,
      "new": 1666,
      "es▁are▁": 1667,
      "Ban": 1668,
      "exc": 1669,
      "udg": 1670,
      "make▁": 1671,
      "ree▁": 1672,
      "him": 1673,
      "bus": 1674,
      "back": 1675,
      "decis": 1676,
      "some": 1677,
      "order": 1678,
      "divid": 1679,
      "any": 1680,
      "foll": 1681,
      "off": 1682,
      "▁tax": 1683,
      "decad": 1684,
      "bal": 1685,
      "thor": 1686,
      "ici": 1687,
      "igh▁": 1688,
      "benef": 1689,
      "gan": 1690,
      "mat": 1691,
      "ear▁": 1692,
      ",”▁": 1693,
      "ity▁of▁": 1694,
      "▁की▁": 1695,
      "cost": 1696,
      "Nor": 1697,
      "We▁": 1698,
      "Sou": 1699,
      "That▁": 1700,
      "don": 1701,
      "Obam": 1702,
      "and,▁": 1703,
      "s▁for▁": 1704,
      "did▁": 1705,
      "s▁of▁the▁": 1706,
      "-term▁": 1707,
      "fisc": 1708,
      "grou": 1709,
      "heal": 1710,
      ",▁there▁": 1711,
      "sci": 1712,
      "centur": 1713,
      "crisis": 1714,
      "If▁": 1715,
      "civ": 1716,
      "ity▁to▁": 1717,
      "growth": 1718,
      "effec": 1719,
      "particul": 1720,
      "ily▁": 1721,
      "e’s▁": 1722,
      "arly▁": 1723,
      "help": 1724,
      "ath": 1725,
      ",▁a▁": 1726,
      "it.": 1727,
      "self": 1728,
      "America’s▁": 1729,
      "human▁": 1730,
      "t▁of▁the▁": 1731,
      "want": 1732,
      "ire": 1733,
      "iddle▁": 1734,
      "loo": 1735,
      "▁them▁": 1736,
      "ject": 1737,
      "aff": 1738,
      "ren": 1739,
      ").": 1740,
      "t▁the▁": 1741,
      "concer": 1742,
      "ists▁": 1743,
      "should▁be▁": 1744,
      "ration▁": 1745,
      "rup": 1746,
      "▁tur": 1747,
      "able▁to▁": 1748,
      "ably▁": 1749,
      "ester": 1750,
      "elect": 1751,
      "etary▁": 1752,
      "So": 1753,
      "wa": 1754,
      "ning▁": 1755,
      "confl": 1756,
      "progra": 1757,
      "am▁": 1758,
      "you": 1759,
      "e,▁and▁": 1760,
      "set": 1761,
      "def": 1762,
      "creat": 1763,
      "uni": 1764,
      "More": 1765,
      "ash": 1766,
      "viol": 1767,
      "by": 1768,
      "ativ": 1769,
      "big": 1770,
      "busin": 1771,
      "promis": 1772,
      "e▁for▁": 1773,
      "eve▁": 1774,
      "law": 1775,
      "educ": 1776,
      "Moreover": 1777,
      "over▁the▁": 1778,
      "ek": 1779,
      "oil▁": 1780,
      "ak▁": 1781,
      "alread": 1782,
      "moder": 1783,
      "doll": 1784,
      "know": 1785,
      "प्र": 1786,
      "lif": 1787,
      "high▁": 1788,
      "security▁": 1789,
      "fiscal▁": 1790,
      "course": 1791,
      "men": 1792,
      "ret": 1793,
      "a's▁": 1794,
      "icul": 1795,
      "g▁": 1796,
      "rev": 1797,
      "point": 1798,
      "manag": 1799,
      "Wi": 1800,
      "support▁": 1801,
      "litt": 1802,
      "ere": 1803,
      "work▁": 1804,
      "debt▁": 1805,
      "ros": 1806,
      "prec": 1807,
      "s▁–▁": 1808,
      "prof": 1809,
      "ingly▁": 1810,
      "important▁": 1811,
      "large▁": 1812,
      "ian": 1813,
      "real": 1814,
      "pris": 1815,
      "good▁": 1816,
      "ner": 1817,
      "dur": 1818,
      "vely▁": 1819,
      "support": 1820,
      "down": 1821,
      "non": 1822,
      "with▁a▁": 1823,
      "Russia▁": 1824,
      "difficul": 1825,
      "Ar": 1826,
      "histor": 1827,
      "year▁": 1828,
      "e▁their▁": 1829,
      "GDP": 1830,
      "compan": 1831,
      "ei": 1832,
      "author": 1833,
      "put": 1834,
      "umb": 1835,
      "peti": 1836,
      "system▁": 1837,
      "th▁Kore": 1838,
      "▁techn": 1839,
      "liber": 1840,
      "ever▁": 1841,
      "follow": 1842,
      "ang▁": 1843,
      "t▁to▁": 1844,
      "वा": 1845,
      "ganiz": 1846,
      "fur": 1847,
      "sider": 1848,
      "achi": 1849,
      "mas": 1850,
      "risk": 1851,
      "loc": 1852,
      "ending▁": 1853,
      "ep▁": 1854,
      "tl": 1855,
      "▁than": 1856,
      "suff": 1857,
      "pers": 1858,
      "nec": 1859,
      "tis": 1860,
      "Mus": 1861,
      "Sy": 1862,
      "e▁of▁the▁": 1863,
      "expect": 1864,
      "cha": 1865,
      "structur": 1866,
      "▁too▁": 1867,
      "ents▁": 1868,
      "key▁": 1869,
      "▁कर": 1870,
      "often▁": 1871,
      "clear": 1872,
      "istan": 1873,
      "es,▁and▁": 1874,
      "िए": 1875,
      "um▁": 1876,
      "job": 1877,
      "त▁": 1878,
      "sust": 1879,
      "already▁": 1880,
      "whe": 1881,
      "ond": 1882,
      "little▁": 1883,
      "zen": 1884,
      "gen": 1885,
      "ities▁": 1886,
      "reason": 1887,
      "laim": 1888,
      "sk": 1889,
      "jo": 1890,
      "al,▁": 1891,
      "establ": 1892,
      "hop": 1893,
      "ould": 1894,
      "German": 1895,
      "ine▁": 1896,
      "seri": 1897,
      "defic": 1898,
      "rates▁": 1899,
      "while▁": 1900,
      "pot": 1901,
      "\"▁": 1902,
      "den": 1903,
      "competi": 1904,
      "domes": 1905,
      "sequ": 1906,
      "ings▁": 1907,
      "mov": 1908,
      "nat": 1909,
      "hal": 1910,
      "ed▁on▁": 1911,
      "tal": 1912,
      "likely▁to▁": 1913,
      "estern▁": 1914,
      "TO": 1915,
      "about▁the▁": 1916,
      "niz": 1917,
      "accep": 1918,
      "administ": 1919,
      "az": 1920,
      "example,▁": 1921,
      "tions.": 1922,
      "om▁": 1923,
      "is▁that▁": 1924,
      "few▁": 1925,
      "%▁of▁": 1926,
      "prev": 1927,
      ".”": 1928,
      "los": 1929,
      "made▁": 1930,
      "ture": 1931,
      "repres": 1932,
      "every": 1933,
      "central▁": 1934,
      "har": 1935,
      "Sec": 1936,
      "ing▁that▁": 1937,
      "5▁": 1938,
      ",▁as▁": 1939,
      "World▁": 1940,
      "nego": 1941,
      "well": 1942,
      ",▁to▁": 1943,
      "negoti": 1944,
      "view": 1945,
      "another▁": 1946,
      "disc": 1947,
      "lab": 1948,
      "ties▁": 1949,
      "however": 1950,
      "e,▁the▁": 1951,
      "orm": 1952,
      "And▁": 1953,
      "capital▁": 1954,
      "Le": 1955,
      "resourc": 1956,
      "Inter": 1957,
      "s▁have▁": 1958,
      "serv": 1959,
      "▁terror": 1960,
      "▁term": 1961,
      "to▁the▁": 1962,
      "America▁": 1963,
      "does▁not▁": 1964,
      "world’s▁": 1965,
      "such▁as▁": 1966,
      "simp": 1967,
      "wom": 1968,
      "of▁their▁": 1969,
      "Middle▁": 1970,
      "ran▁": 1971,
      "lef": 1972,
      "It▁is▁": 1973,
      "Syri": 1974,
      "d▁to▁": 1975,
      "investment▁": 1976,
      "which": 1977,
      "से▁": 1978,
      "’t▁": 1979,
      "clim": 1980,
      "ment.": 1981,
      "IM": 1982,
      "certain": 1983,
      "energy▁": 1984,
      "▁tri": 1985,
      "Middle▁E": 1986,
      "ez": 1987,
      "bro": 1988,
      "impl": 1989,
      "ustri": 1990,
      "clos": 1991,
      "hold": 1992,
      "rather": 1993,
      "▁threat": 1994,
      "rais": 1995,
      "servic": 1996,
      "bre": 1997,
      "recog": 1998,
      "democratic▁": 1999,
      "d,▁": 2000,
      "x▁": 2001,
      "retur": 2002,
      "▁take▁": 2003,
      "weap": 2004,
      "sever": 2005,
      "y▁of▁": 2006,
      "s▁a▁": 2007,
      "ext▁": 2008,
      "rap": 2009,
      "eci": 2010,
      "ation▁and▁": 2011,
      "IMF": 2012,
      "ies.": 2013,
      "s▁in▁the▁": 2014,
      "developing▁": 2015,
      "So▁": 2016,
      "sha": 2017,
      "effort": 2018,
      "Pol": 2019,
      "domestic▁": 2020,
      "secon": 2021,
      "role▁": 2022,
      "–▁and▁": 2023,
      "UN": 2024,
      "Put": 2025,
      "al.": 2026,
      "nific": 2027,
      "fam": 2028,
      "country’s▁": 2029,
      "integ": 2030,
      "To▁": 2031,
      "til": 2032,
      "ey": 2033,
      "er,▁": 2034,
      "▁through▁": 2035,
      "ि▁": 2036,
      "societ": 2037,
      "te▁": 2038,
      "viron": 2039,
      "ed▁and▁": 2040,
      "including▁": 2041,
      "pay": 2042,
      "far": 2043,
      "ov": 2044,
      "foc": 2045,
      "Bush▁": 2046,
      "Min": 2047,
      "Western▁": 2048,
      "er.": 2049,
      "ational▁": 2050,
      "signific": 2051,
      "rest": 2052,
      "open": 2053,
      "need▁to▁": 2054,
      "ub": 2055,
      "credi": 2056,
      "sustain": 2057,
      "was": 2058,
      "y,▁and▁": 2059,
      "wid": 2060,
      "almost▁": 2061,
      "post": 2062,
      "especi": 2063,
      "meas": 2064,
      "citizen": 2065,
      "must▁be▁": 2066,
      "put▁": 2067,
      "▁that▁they▁": 2068,
      "198": 2069,
      "।▁": 2070,
      "ned▁": 2071,
      "private▁": 2072,
      "ess.": 2073,
      "necess": 2074,
      "ership▁": 2075,
      "risk▁": 2076,
      "rag": 2077,
      "per▁": 2078,
      "sw": 2079,
      "Pak": 2080,
      "you▁": 2081,
      "ed▁for▁": 2082,
      "weak": 2083,
      "responsi": 2084,
      "organiz": 2085,
      "als▁": 2086,
      "better▁": 2087,
      "claim": 2088,
      "eth": 2089,
      "y,▁the▁": 2090,
      "is▁to▁": 2091,
      "y▁and▁": 2092,
      "development▁": 2093,
      "after": 2094,
      ",▁it▁": 2095,
      "ity▁and▁": 2096,
      "For": 2097,
      "ों▁": 2098,
      "weapon": 2099,
      "nam": 2100,
      "bur": 2101,
      "under▁": 2102,
      "act▁": 2103,
      "not▁be▁": 2104,
      "hard": 2105,
      "never▁": 2106,
      "Uk": 2107,
      "y▁that▁": 2108,
      "allow": 2109,
      "numb": 2110,
      "Ukrain": 2111,
      "ot": 2112,
      "s▁on▁": 2113,
      "condi": 2114,
      "portun": 2115,
      "Iran▁": 2116,
      "e▁is▁": 2117,
      "▁thin": 2118,
      "deter": 2119,
      "Sh": 2120,
      "न▁": 2121,
      "consider": 2122,
      "ers,▁": 2123,
      "play": 2124,
      "critic": 2125,
      "success": 2126,
      "--": 2127,
      "What▁": 2128,
      "Arab▁": 2129,
      "environ": 2130,
      "inform": 2131,
      "declin": 2132,
      "alli": 2133,
      "strong▁": 2134,
      "ying▁": 2135,
      "ers.": 2136,
      "▁को▁": 2137,
      "opportun": 2138,
      "plan": 2139,
      "self▁": 2140,
      "ने": 2141,
      "into": 2142,
      "Afgh": 2143,
      "al-": 2144,
      "ession": 2145,
      "ने▁": 2146,
      "since▁": 2147,
      "United▁States▁": 2148,
      "million▁": 2149,
      "future▁": 2150,
      "ce▁": 2151,
      "ed▁in▁the▁": 2152,
      "month": 2153,
      "do▁not▁": 2154,
      "euroz": 2155,
      "non-": 2156,
      "short": 2157,
      "spe": 2158,
      "individ": 2159,
      "comple": 2160,
      "regional▁": 2161,
      "o-": 2162,
      "and▁th": 2163,
      "former▁": 2164,
      "billion▁": 2165,
      "lat": 2166,
      "of▁this▁": 2167,
      "conc": 2168,
      "group": 2169,
      "down▁": 2170,
      "rela": 2171,
      "becom": 2172,
      "influ": 2173,
      ",▁and▁the▁": 2174,
      "decision": 2175,
      "show": 2176,
      "ally,▁": 2177,
      "least▁": 2178,
      "economic": 2179,
      "ously▁": 2180,
      "control": 2181,
      "problem▁": 2182,
      "These▁": 2183,
      "ing▁and▁": 2184,
      "independ": 2185,
      "each▁": 2186,
      "air": 2187,
      "fundament": 2188,
      "require": 2189,
      "streng": 2190,
      "budg": 2191,
      "head": 2192,
      "ians▁": 2193,
      "next▁": 2194,
      "exist": 2195,
      "child": 2196,
      "sit": 2197,
      "y-": 2198,
      "Israel▁": 2199,
      "program": 2200,
      "propos": 2201,
      "demand": 2202,
      ",00": 2203,
      "refl": 2204,
      "dest": 2205,
      "ually▁": 2206,
      "policies▁": 2207,
      "ug": 2208,
      "ing▁of▁": 2209,
      "ations.": 2210,
      "NA": 2211,
      "▁tow": 2212,
      "set▁": 2213,
      "dang": 2214,
      "religi": 2215,
      "balanc": 2216,
      "ence▁of▁": 2217,
      ",▁to": 2218,
      "countries,▁": 2219,
      "dou": 2220,
      "di▁": 2221,
      "ind▁": 2222,
      "right▁": 2223,
      "establish": 2224,
      "But,▁": 2225,
      "hou": 2226,
      "in▁200": 2227,
      "Europe’s▁": 2228,
      "world.": 2229,
      "Japan▁": 2230,
      "ा▁है": 2231,
      "a,▁and▁": 2232,
      "rem": 2233,
      "wher": 2234,
      "monetary▁": 2235,
      "help▁": 2236,
      "possible▁": 2237,
      "ters▁": 2238,
      "growing▁": 2239,
      "ies,▁": 2240,
      "Eg": 2241,
      "dict": 2242,
      "▁three▁": 2243,
      "climate▁": 2244,
      "–▁the▁": 2245,
      "▁tru": 2246,
      "experi": 2247,
      "my▁": 2248,
      "ence.": 2249,
      "solu": 2250,
      "firm": 2251,
      "great▁": 2252,
      "Egyp": 2253,
      "dri": 2254,
      "Russian▁": 2255,
      "camp": 2256,
      "fall": 2257,
      "is▁no▁": 2258,
      "poor▁": 2259,
      "different▁": 2260,
      "क▁": 2261,
      "unemploy": 2262,
      "Pri": 2263,
      "good": 2264,
      "advanc": 2265,
      "sugg": 2266,
      "West▁": 2267,
      "ribut": 2268,
      ",▁this▁": 2269,
      "वि": 2270,
      "anti-": 2271,
      "long-term▁": 2272,
      "countries.": 2273,
      "tion▁to▁": 2274,
      "ench▁": 2275,
      "Palestinian▁": 2276,
      "rather▁than▁": 2277,
      "tions,▁": 2278,
      "plom": 2279,
      "ve▁the▁": 2280,
      "states▁": 2281,
      "mig": 2282,
      "avo": 2283,
      "red": 2284,
      "ia▁": 2285,
      "लिए": 2286,
      "ick": 2287,
      "Minist": 2288,
      "industri": 2289,
      "recogniz": 2290,
      "national": 2291,
      "Counc": 2292,
      "low▁": 2293,
      "hand": 2294,
      "remain▁": 2295,
      "Cent": 2296,
      "every▁": 2297,
      "countries": 2298,
      "इस": 2299,
      "act": 2300,
      "may▁be▁": 2301,
      "▁time▁": 2302,
      "Franc": 2303,
      "ator": 2304,
      "addres": 2305,
      "▁this": 2306,
      "ight": 2307,
      "public": 2308,
      "French▁": 2309,
      "ordin": 2310,
      "Greec": 2311,
      "ster": 2312,
      "Sovi": 2313,
      "past▁": 2314,
      "▁trade▁": 2315,
      "ock": 2316,
      "tively▁": 2317,
      "against": 2318,
      "),▁": 2319,
      "land": 2320,
      "prices▁": 2321,
      "consequ": 2322,
      "especially▁": 2323,
      "ry▁": 2324,
      "u▁": 2325,
      "8▁": 2326,
      "consu": 2327,
      "member▁": 2328,
      "diplom": 2329,
      "greater▁": 2330,
      "ed,▁the▁": 2331,
      "atel": 2332,
      "ent.": 2333,
      "simil": 2334,
      "agg": 2335,
      "comb": 2336,
      "position▁": 2337,
      "conflic": 2338,
      "eor": 2339,
      "resear": 2340,
      "led": 2341,
      "Germany▁": 2342,
      "Moreover,▁": 2343,
      "When▁": 2344,
      "initi": 2345,
      "ys": 2346,
      "maint": 2347,
      "s▁to▁be▁": 2348,
      "increasingly▁": 2349,
      "One▁": 2350,
      "jus": 2351,
      "her▁": 2352,
      "EC": 2353,
      "Mar": 2354,
      "common▁": 2355,
      "cooper": 2356,
      "Rep": 2357,
      "cut": 2358,
      "olv": 2359,
      "ed▁with▁": 2360,
      "sing": 2361,
      "ensur": 2362,
      "alway": 2363,
      "have▁to▁": 2364,
      "2▁": 2365,
      "िक▁": 2366,
      "Bank▁": 2367,
      "pover": 2368,
      "account": 2369,
      "called▁": 2370,
      "ural▁": 2371,
      "tak": 2372,
      "appear": 2373,
      "Afghan": 2374,
      "not▁only▁": 2375,
      "op▁": 2376,
      "attack": 2377,
      "▁today": 2378,
      "Fin": 2379,
      "major": 2380,
      "however,▁": 2381,
      "sou": 2382,
      "wr": 2383,
      "build": 2384,
      "inno": 2385,
      "boo": 2386,
      "ense▁": 2387,
      "princ": 2388,
      "ruc": 2389,
      "constitu": 2390,
      "Pro": 2391,
      "ili": 2392,
      "meet": 2393,
      "▁का▁": 2394,
      "ess,▁": 2395,
      "desp": 2396,
      "Mor": 2397,
      "course,▁": 2398,
      "ustr": 2399,
      "ire▁": 2400,
      "among▁": 2401,
      "shar": 2402,
      "progres": 2403,
      "sign": 2404,
      "two▁": 2405,
      "Per": 2406,
      "sure": 2407,
      "▁themsel": 2408,
      "ately▁": 2409,
      "ments▁": 2410,
      "believe▁": 2411,
      "क्": 2412,
      "bel": 2413,
      "prac": 2414,
      "ditional▁": 2415,
      "if▁the▁": 2416,
      "Lat": 2417,
      "त्": 2418,
      "▁technolog": 2419,
      "Obama▁": 2420,
      "ess▁to▁": 2421,
      "happen": 2422,
      "kan▁": 2423,
      "say": 2424,
      "inde": 2425,
      "into▁the▁": 2426,
      "higher▁": 2427,
      "best▁": 2428,
      "eur": 2429,
      "हो": 2430,
      "ing▁in▁": 2431,
      "mun": 2432,
      "legi": 2433,
      "ens": 2434,
      "concern": 2435,
      "revolu": 2436,
      "int▁": 2437,
      "thers▁": 2438,
      "on▁a▁": 2439,
      "income▁": 2440,
      "longer▁": 2441,
      "ush": 2442,
      "health▁": 2443,
      "Ac": 2444,
      "suggest": 2445,
      "Li": 2446,
      "After▁": 2447,
      "eiv": 2448,
      "export": 2449,
      "▁के▁लिए": 2450,
      "If": 2451,
      "दे": 2452,
      "human": 2453,
      "st,▁": 2454,
      "strength": 2455,
      "ade": 2456,
      "just": 2457,
      "United▁Stat": 2458,
      "achiev": 2459,
      "led▁": 2460,
      "between▁the▁": 2461,
      "small▁": 2462,
      "practic": 2463,
      "Of▁": 2464,
      "money▁": 2465,
      "aver": 2466,
      "side▁": 2467,
      "promo": 2468,
      "Iraq▁": 2469,
      "NATO": 2470,
      "Minister▁": 2471,
      "poor": 2472,
      "GDP▁": 2473,
      "Geor": 2474,
      "raz": 2475,
      "Soviet▁": 2476,
      "He▁": 2477,
      "ing▁their▁": 2478,
      "le▁of▁": 2479,
      "interven": 2480,
      "back▁": 2481,
      "Union▁": 2482,
      "markets▁": 2483,
      "emerging▁": 2484,
      "expl": 2485,
      "event": 2486,
      "further▁": 2487,
      "buil": 2488,
      "corrup": 2489,
      "demand▁": 2490,
      "policy": 2491,
      "domin": 2492,
      "economies▁": 2493,
      "ek▁": 2494,
      "serious▁": 2495,
      "As▁a▁": 2496,
      "New▁": 2497,
      "ai": 2498,
      "Union": 2499,
      "return": 2500,
      ",▁that▁": 2501,
      "Even▁": 2502,
      "neigh": 2503,
      "early▁": 2504,
      ",▁or▁": 2505,
      "strong": 2506,
      "German▁": 2507,
      "person": 2508,
      "saf": 2509,
      "governments▁": 2510,
      "Bri": 2511,
      "occ": 2512,
      "aw": 2513,
      "could▁be▁": 2514,
      "ign▁": 2515,
      "important": 2516,
      "jec": 2517,
      "of▁these▁": 2518,
      "number▁of▁": 2519,
      "collap": 2520,
      "bol": 2521,
      "0’": 2522,
      "ember▁": 2523,
      "e▁they▁": 2524,
      "perhap": 2525,
      ":▁the▁": 2526,
      "aim": 2527,
      "▁through": 2528,
      "remains▁": 2529,
      "o.": 2530,
      "at▁least▁": 2531,
      "relation": 2532,
      "gain": 2533,
      "Or": 2534,
      "understand": 2535,
      "du": 2536,
      "ot▁": 2537,
      "compl": 2538,
      "commit": 2539,
      "begin": 2540,
      "ल▁": 2541,
      "able.": 2542,
      "exchange▁": 2543,
      "ay,▁": 2544,
      "sist": 2545,
      "ock▁": 2546,
      "yang▁": 2547,
      "legitim": 2548,
      "rich▁": 2549,
      "Ham": 2550,
      "lig": 2551,
      "Central▁": 2552,
      "use▁": 2553,
      "improv": 2554,
      "dollar": 2555,
      "second▁": 2556,
      "Republ": 2557,
      "democracy▁": 2558,
      "particularly▁": 2559,
      "UN▁": 2560,
      ",000▁": 2561,
      "be▁the▁": 2562,
      "reach": 2563,
      ",▁in▁": 2564,
      "By▁": 2565,
      "Some▁": 2566,
      "a▁new▁": 2567,
      "Sp": 2568,
      "sourc": 2569,
      "deep": 2570,
      "official": 2571,
      "asi": 2572,
      "demon": 2573,
      "members▁": 2574,
      "day": 2575,
      "reform▁": 2576,
      "order▁to▁": 2577,
      "campa": 2578,
      "cultur": 2579,
      "ed▁as▁": 2580,
      "eder": 2581,
      "effective▁": 2582,
      "aid▁": 2583,
      "bar": 2584,
      "cand": 2585,
      "unc": 2586,
      "scienti": 2587,
      "sion▁of▁": 2588,
      "free▁": 2589,
      "ly.": 2590,
      "Mex": 2591,
      "around": 2592,
      "ensive▁": 2593,
      "defin": 2594,
      "weal": 2595,
      "Mexic": 2596,
      "Braz": 2597,
      "siz": 2598,
      "Dem": 2599,
      "did▁not▁": 2600,
      "istan▁": 2601,
      "rough": 2602,
      "self-": 2603,
      "1.": 2604,
      "get": 2605,
      "▁tal": 2606,
      "▁of▁": 2607,
      "North▁Kore": 2608,
      "shif": 2609,
      "future": 2610,
      "Latin▁": 2611,
      "pli": 2612,
      "wat": 2613,
      "effici": 2614,
      "Secur": 2615,
      ",▁with▁": 2616,
      "why▁": 2617,
      "create▁": 2618,
      "civil": 2619,
      "get▁": 2620,
      "peace▁": 2621,
      "approach": 2622,
      "aut": 2623,
      "whether▁": 2624,
      "prob": 2625,
      "effect": 2626,
      "local▁": 2627,
      "situ": 2628,
      "ister": 2629,
      "e▁that▁the▁": 2630,
      "simply▁": 2631,
      "environment": 2632,
      "ically▁": 2633,
      "War▁": 2634,
      "arian▁": 2635,
      "ess▁of▁": 2636,
      "have▁a▁": 2637,
      "stead": 2638,
      "dru": 2639,
      "once▁": 2640,
      "identi": 2641,
      "cred": 2642,
      "stud": 2643,
      "what": 2644,
      "control▁": 2645,
      "Pakistan": 2646,
      "acros": 2647,
      "one▁of▁the▁": 2648,
      "ism.": 2649,
      "0%▁": 2650,
      "for▁example,▁": 2651,
      "ing▁to▁the▁": 2652,
      "impos": 2653,
      "spending▁": 2654,
      "always▁": 2655,
      "innov": 2656,
      "As": 2657,
      "continue▁to▁": 2658,
      "before▁": 2659,
      "consequenc": 2660,
      "Re": 2661,
      "tually▁": 2662,
      "del": 2663,
      "emis": 2664,
      "00▁": 2665,
      "found": 2666,
      "sens": 2667,
      "With▁": 2668,
      "d▁the▁": 2669,
      "es,▁the▁": 2670,
      "making▁": 2671,
      "first": 2672,
      "labor▁": 2673,
      "Prime▁": 2674,
      "lack▁": 2675,
      "slow": 2676,
      "recover": 2677,
      "cy": 2678,
      "was▁a▁": 2679,
      "asset": 2680,
      "all,▁": 2681,
      "Many▁": 2682,
      "mi": 2683,
      "हैं": 2684,
      "pat": 2685,
      "election▁": 2686,
      "as▁well▁": 2687,
      "years.": 2688,
      "during▁the▁": 2689,
      "Brit": 2690,
      "hom": 2691,
      "reflect": 2692,
      "rang": 2693,
      "se.": 2694,
      "tish▁": 2695,
      "after▁the▁": 2696,
      "es▁of▁the▁": 2697,
      "whil": 2698,
      "confid": 2699,
      "ah▁": 2700,
      "youn": 2701,
      "freed": 2702,
      "pursu": 2703,
      "off▁": 2704,
      "strategic▁": 2705,
      "ला": 2706,
      "lim▁": 2707,
      "evid": 2708,
      "tt": 2709,
      "fav": 2710,
      "protec": 2711,
      "En": 2712,
      "overeig": 2713,
      "e▁in▁the▁": 2714,
      "but▁the▁": 2715,
      "equal": 2716,
      "need▁": 2717,
      "all▁the▁": 2718,
      "ate▁the▁": 2719,
      "and▁that▁": 2720,
      "press": 2721,
      "parti": 2722,
      "0.": 2723,
      "incom": 2724,
      "insur": 2725,
      "and▁to▁": 2726,
      "Turke": 2727,
      "ed▁to▁the▁": 2728,
      "aster": 2729,
      "International▁": 2730,
      "China,▁": 2731,
      "was▁the▁": 2732,
      "ance.": 2733,
      "attemp": 2734,
      "price▁": 2735,
      "▁tax▁": 2736,
      "determin": 2737,
      "edly▁": 2738,
      "reser": 2739,
      "corpor": 2740,
      "Democ": 2741,
      "years,▁": 2742,
      "197": 2743,
      "sector▁": 2744,
      "business▁": 2745,
      "s▁to▁the▁": 2746,
      "such▁a▁": 2747,
      "ration": 2748,
      "yet▁": 2749,
      "es▁a▁": 2750,
      "hear": 2751,
      "encou": 2752,
      "wis": 2753,
      "estim": 2754,
      "rising▁": 2755,
      "Russia’s▁": 2756,
      "ual": 2757,
      "amoun": 2758,
      "ation▁of▁the▁": 2759,
      "currency▁": 2760,
      "dam": 2761,
      "sovereig": 2762,
      "ine": 2763,
      "go▁": 2764,
      "liv": 2765,
      "This▁is▁": 2766,
      "banks▁": 2767,
      "in▁their▁": 2768,
      "danger": 2769,
      "col": 2770,
      "ill▁": 2771,
      "civil▁": 2772,
      "big▁": 2773,
      "hold▁": 2774,
      "surpris": 2775,
      "Asian▁": 2776,
      "past": 2777,
      "e▁that": 2778,
      "regard": 2779,
      "Islamic▁": 2780,
      "20▁": 2781,
      "Tod": 2782,
      "नि": 2783,
      "en,▁": 2784,
      "▁they▁are▁": 2785,
      "billion": 2786,
      "itself▁": 2787,
      "stri": 2788,
      "ent,▁": 2789,
      "1▁": 2790,
      "ale▁": 2791,
      "neg": 2792,
      "American": 2793,
      "represent": 2794,
      "France▁": 2795,
      "years▁ag": 2796,
      "globaliz": 2797,
      "order▁": 2798,
      "candid": 2799,
      "light": 2800,
      "vot": 2801,
      "left▁": 2802,
      "IMF▁": 2803,
      "will▁not▁": 2804,
      "against▁the▁": 2805,
      "Ital": 2806,
      "cost▁": 2807,
      "ate.": 2808,
      "is,▁": 2809,
      "parli": 2810,
      "India▁": 2811,
      "since▁the▁": 2812,
      "British▁": 2813,
      "law▁": 2814,
      "provide▁": 2815,
      "vari": 2816,
      "ोग": 2817,
      "main▁": 2818,
      "ap▁": 2819,
      "stru": 2820,
      "legal▁": 2821,
      "bank▁": 2822,
      "sav": 2823,
      ",▁while▁": 2824,
      "ung": 2825,
      "particip": 2826,
      "measure": 2827,
      "row▁": 2828,
      "adop": 2829,
      "ird▁": 2830,
      "enough": 2831,
      "▁to▁a▁": 2832,
      "power.": 2833,
      "tion▁and▁": 2834,
      "out▁of▁": 2835,
      "care": 2836,
      "believe▁th": 2837,
      "Japanese▁": 2838,
      "recently▁": 2839,
      "spect": 2840,
      "Israeli▁": 2841,
      "7▁": 2842,
      "Such▁": 2843,
      "ok": 2844,
      "report": 2845,
      "stimul": 2846,
      "capital": 2847,
      "hol": 2848,
      "re▁": 2849,
      "ask": 2850,
      "Pe": 2851,
      "find▁": 2852,
      "ateral▁": 2853,
      "ef▁": 2854,
      "kill": 2855,
      "मा": 2856,
      "eurozone▁": 2857,
      "Prime▁Minister▁": 2858,
      "Bar": 2859,
      "ref": 2860,
      "With": 2861,
      "▁those▁who▁": 2862,
      "ance▁of▁": 2863,
      "move▁": 2864,
      "रू": 2865,
      "share▁": 2866,
      "mind": 2867,
      "time▁": 2868,
      "responsibil": 2869,
      "fall▁": 2870,
      "whose▁": 2871,
      "five▁": 2872,
      "ship▁": 2873,
      "Iran’s▁": 2874,
      "ply▁": 2875,
      "ह▁": 2876,
      "though▁": 2877,
      "counter": 2878,
      "South▁": 2879,
      "cir": 2880,
      "possib": 2881,
      "sanc": 2882,
      "women▁": 2883,
      "▁treat": 2884,
      "or▁the▁": 2885,
      "West": 2886,
      "ward": 2887,
      "when▁the▁": 2888,
      "it▁was▁": 2889,
      "break": 2890,
      "gent": 2891,
      "ता": 2892,
      "s,▁but▁": 2893,
      "agreement": 2894,
      "Commis": 2895,
      "massive▁": 2896,
      "mom": 2897,
      "investment": 2898,
      "acy▁": 2899,
      "char": 2900,
      "ence,▁": 2901,
      "look▁": 2902,
      "atic▁": 2903,
      "on.": 2904,
      "chool": 2905,
      "doub": 2906,
      "enter": 2907,
      "fully▁": 2908,
      "economy.": 2909,
      "At▁the▁": 2910,
      "ally": 2911,
      "confron": 2912,
      "house": 2913,
      "around▁the▁": 2914,
      "ribu": 2915,
      "ipl": 2916,
      "s▁to": 2917,
      "ना▁": 2918,
      "ing▁its▁": 2919,
      "agu": 2920,
      "credit▁": 2921,
      "Mon": 2922,
      "altern": 2923,
      "deal▁": 2924,
      "bey": 2925,
      "growth.": 2926,
      "significant▁": 2927,
      "post-": 2928,
      "tor": 2929,
      "es▁in▁the▁": 2930,
      "beh": 2931,
      "standard": 2932,
      "huge▁": 2933,
      "Muslim▁": 2934,
      "way▁to▁": 2935,
      "As▁a▁resul": 2936,
      "conom": 2937,
      "beha": 2938,
      "party▁": 2939,
      "dollar▁": 2940,
      "norm": 2941,
      "oppos": 2942,
      "choic": 2943,
      "administration▁": 2944,
      "Security▁": 2945,
      "tra": 2946,
      "decid": 2947,
      "region▁": 2948,
      "half▁": 2949,
      "million": 2950,
      "Econom": 2951,
      "thern▁": 2952,
      "companies▁": 2953,
      "–▁a▁": 2954,
      "arget": 2955,
      "based▁": 2956,
      "relations▁": 2957,
      "accept": 2958,
      "around▁": 2959,
      "keep": 2960,
      "▁than▁the▁": 2961,
      "construc": 2962,
      "exper": 2963,
      "bond": 2964,
      "ies": 2965,
      "really▁": 2966,
      "uch": 2967,
      "contribut": 2968,
      "limit": 2969,
      "fortun": 2970,
      "several▁": 2971,
      "gra": 2972,
      "infra": 2973,
      "view▁": 2974,
      "health": 2975,
      "ept": 2976,
      "diseas": 2977,
      "While▁": 2978,
      "er▁and▁": 2979,
      "popular▁": 2980,
      "Ser": 2981,
      "step": 2982,
      "qual": 2983,
      "ward▁": 2984,
      "cat": 2985,
      "powerful▁": 2986,
      "institution": 2987,
      "3▁": 2988,
      "opp": 2989,
      "agreement▁": 2990,
      "clear▁": 2991,
      "rele": 2992,
      "perc": 2993,
      "lob": 2994,
      "sor": 2995,
      "tr": 2996,
      "are▁not▁": 2997,
      "currenc": 2998,
      "sector": 2999,
      "count▁": 3000,
      "draw": 3001,
      "सा": 3002,
      "perform": 3003,
      "Bo": 3004,
      "ve": 3005,
      "til▁": 3006,
      "seen▁": 3007,
      "potential▁": 3008,
      "neighbor": 3009,
      "ogi": 3010,
      "म▁": 3011,
      "project": 3012,
      "ath▁": 3013,
      "ations,▁": 3014,
      "ay.": 3015,
      "ability▁to▁": 3016,
      "interest▁rates▁": 3017,
      "budget▁": 3018,
      "Fir": 3019,
      "one.": 3020,
      "arch": 3021,
      "▁them.": 3022,
      "believ": 3023,
      "s▁from▁": 3024,
      "is▁now▁": 3025,
      "has": 3026,
      "day▁": 3027,
      "▁that,▁": 3028,
      "स्थ": 3029,
      "’s▁t": 3030,
      "fear": 3031,
      "net▁": 3032,
      "said": 3033,
      "capac": 3034,
      "imin": 3035,
      "not▁to▁": 3036,
      "re-": 3037,
      "used▁": 3038,
      "lea": 3039,
      "60": 3040,
      "cal": 3041,
      "Bank": 3042,
      "South▁Kore": 3043,
      "inflation▁": 3044,
      "miss": 3045,
      "combin": 3046,
      "others▁": 3047,
      "answ": 3048,
      "carb": 3049,
      "conflict▁": 3050,
      "▁के▁लिए▁": 3051,
      "a-": 3052,
      "when": 3053,
      "s▁were▁": 3054,
      "eld": 3055,
      "president▁": 3056,
      "occup": 3057,
      "Ab": 3058,
      "guar": 3059,
      "human▁right": 3060,
      "ECB": 3061,
      "anal": 3062,
      "ond▁": 3063,
      "imag": 3064,
      "give▁": 3065,
      "s▁is▁": 3066,
      "force▁": 3067,
      "Council▁": 3068,
      "G-": 3069,
      "ed▁at▁": 3070,
      "Gaz": 3071,
      "else": 3072,
      "prove▁": 3073,
      "dan▁": 3074,
      "on,▁": 3075,
      "ell▁": 3076,
      "see▁": 3077,
      "research▁": 3078,
      "Republic": 3079,
      "al▁to▁": 3080,
      "necessar": 3081,
      "dat": 3082,
      "likely▁": 3083,
      "an,▁": 3084,
      "into▁a▁": 3085,
      "crisis.": 3086,
      "mist": 3087,
      "ederal▁": 3088,
      "US▁and▁": 3089,
      "grad": 3090,
      "most": 3091,
      "4▁": 3092,
      "stag": 3093,
      "Party▁": 3094,
      "single▁": 3095,
      "Sau": 3096,
      "its▁own▁": 3097,
      "settl": 3098,
      "es▁for▁": 3099,
      "Putin": 3100,
      "home▁": 3101,
      "सं": 3102,
      "ologi": 3103,
      "member": 3104,
      "hard▁": 3105,
      "ul▁": 3106,
      "underst": 3107,
      "modern▁": 3108,
      "Lik": 3109,
      "it,▁": 3110,
      "clas": 3111,
      "population▁": 3112,
      "run▁": 3113,
      "school": 3114,
      "Middle▁East": 3115,
      "in▁this▁": 3116,
      "engag": 3117,
      "question▁": 3118,
      "bri": 3119,
      "hi": 3120,
      "ly▁the▁": 3121,
      "euro▁": 3122,
      "last": 3123,
      "not▁the▁": 3124,
      "ren▁": 3125,
      "vol": 3126,
      "among": 3127,
      "it▁has▁": 3128,
      "evolu": 3129,
      "full▁": 3130,
      "border": 3131,
      "ession▁": 3132,
      "stor": 3133,
      "no▁longer▁": 3134,
      "ness▁": 3135,
      "rati": 3136,
      "open▁": 3137,
      "became▁": 3138,
      "benefits▁": 3139,
      "रह": 3140,
      "seek": 3141,
      "ad▁of▁": 3142,
      "offer": 3143,
      "tically▁": 3144,
      "ological▁": 3145,
      "reat▁": 3146,
      "ers▁and▁": 3147,
      "debt": 3148,
      "history▁": 3149,
      "presidential▁": 3150,
      "unemployment▁": 3151,
      "Europe.": 3152,
      "ricul": 3153,
      "ास": 3154,
      "ित": 3155,
      "opol": 3156,
      "direct": 3157,
      "emission": 3158,
      "▁ten": 3159,
      "rop": 3160,
      "road": 3161,
      "▁toward▁": 3162,
      "pros": 3163,
      "agend": 3164,
      "even": 3165,
      "▁tw": 3166,
      "immedi": 3167,
      "intern": 3168,
      "atten": 3169,
      "behavi": 3170,
      "spre": 3171,
      "activ": 3172,
      "largest▁": 3173,
      "advant": 3174,
      "hous": 3175,
      "coming▁": 3176,
      "pressur": 3177,
      "astern▁": 3178,
      "conserv": 3179,
      "word": 3180,
      "official▁": 3181,
      "Middle▁East▁": 3182,
      "guarant": 3183,
      "pay▁": 3184,
      "de▁": 3185,
      "s,▁which▁": 3186,
      "itarian▁": 3187,
      "const": 3188,
      "indic": 3189,
      "consump": 3190,
      "Jew": 3191,
      "action▁": 3192,
      "NE": 3193,
      "away▁": 3194,
      "Putin▁": 3195,
      "▁today’s▁": 3196,
      "Ber": 3197,
      "RI": 3198,
      "eed": 3199,
      "ark": 3200,
      "super": 3201,
      "minister": 3202,
      "East▁": 3203,
      "ban▁": 3204,
      "United▁N": 3205,
      "▁that▁is▁": 3206,
      "prior": 3207,
      "natural▁": 3208,
      "cou": 3209,
      "late▁": 3210,
      "like▁the▁": 3211,
      "▁से▁": 3212,
      "probably▁": 3213,
      "prosper": 3214,
      "9▁": 3215,
      "tru": 3216,
      "a▁of▁": 3217,
      "ransi": 3218,
      "and▁a▁": 3219,
      "▁कि▁": 3220,
      "rich": 3221,
      "survi": 3222,
      "Bush": 3223,
      "Cong": 3224,
      "No▁": 3225,
      "od▁": 3226,
      "suppos": 3227,
      "tiven": 3228,
      "religious▁": 3229,
      "$1": 3230,
      "a▁to▁": 3231,
      "doc": 3232,
      "s?": 3233,
      "broad": 3234,
      "occur": 3235,
      "productiv": 3236,
      "eal": 3237,
      "stric": 3238,
      "protect": 3239,
      "tax": 3240,
      "done▁": 3241,
      "lower▁": 3242,
      "bit": 3243,
      "Commun": 3244,
      "win": 3245,
      "ed,▁and▁": 3246,
      "immig": 3247,
      "point▁": 3248,
      "leadership▁": 3249,
      "fundamental▁": 3250,
      "ing▁for▁": 3251,
      "es▁–▁": 3252,
      "committ": 3253,
      "advanced▁": 3254,
      "पर▁": 3255,
      "ही": 3256,
      "live▁": 3257,
      "about": 3258,
      "subst": 3259,
      "War": 3260,
      "tut": 3261,
      "given▁": 3262,
      "parliament": 3263,
      "ities.": 3264,
      "tal▁": 3265,
      "uk": 3266,
      "rely▁": 3267,
      "largely▁": 3268,
      "structure": 3269,
      "focus▁": 3270,
      "tri": 3271,
      "bad▁": 3272,
      "ले": 3273,
      "because▁the▁": 3274,
      "annual▁": 3275,
      "him▁": 3276,
      "Brazil": 3277,
      "bod": 3278,
      "Saudi▁": 3279,
      "guarante": 3280,
      "land▁": 3281,
      "ure▁of▁": 3282,
      "undermin": 3283,
      "summ": 3284,
      "model": 3285,
      "young▁": 3286,
      "iet": 3287,
      "istic▁": 3288,
      "play▁": 3289,
      "Asia▁": 3290,
      "cannot▁be▁": 3291,
      "perhaps▁": 3292,
      "food▁": 3293,
      "Argent": 3294,
      "contra": 3295,
      "Americans▁": 3296,
      "four▁": 3297,
      "ty.": 3298,
      "of▁its▁": 3299,
      "evel": 3300,
      "would▁have▁": 3301,
      "regime▁": 3302,
      "un▁": 3303,
      "whol": 3304,
      "conven": 3305,
      "accord": 3306,
      "circ": 3307,
      "deli": 3308,
      "func": 3309,
      "ost": 3310,
      "rant": 3311,
      "s:▁": 3312,
      "prime▁": 3313,
      "attrac": 3314,
      "similar▁": 3315,
      "policymak": 3316,
      "al▁and▁": 3317,
      "fuel": 3318,
      "institutions▁": 3319,
      "िया▁": 3320,
      "versi": 3321,
      "obvi": 3322,
      "ean": 3323,
      "itself": 3324,
      "stre": 3325,
      "reason▁": 3326,
      "direct▁": 3327,
      "ation▁in▁": 3328,
      "seems▁": 3329,
      "avoid": 3330,
      "charg": 3331,
      "Yet▁": 3332,
      "▁turn": 3333,
      "▁think": 3334,
      "mem": 3335,
      "ented▁": 3336,
      "liqu": 3337,
      "increased▁": 3338,
      "place▁": 3339,
      "5%▁": 3340,
      "Most▁": 3341,
      "tion▁that▁": 3342,
      "century▁": 3343,
      "brou": 3344,
      "s▁will▁": 3345,
      "Leban": 3346,
      "net": 3347,
      "s▁that▁the▁": 3348,
      "tain▁": 3349,
      "e▁this▁": 3350,
      "tion▁in▁": 3351,
      "stitut": 3352,
      "solid": 3353,
      "ga": 3354,
      "better": 3355,
      "On▁the▁": 3356,
      "50▁": 3357,
      "vision▁": 3358,
      "either▁": 3359,
      "s”▁": 3360,
      "we▁are▁": 3361,
      "based▁on▁": 3362,
      "process▁": 3363,
      "suffer": 3364,
      "children▁": 3365,
      "ly▁to▁": 3366,
      "y's▁": 3367,
      "main": 3368,
      "objec": 3369,
      "find": 3370,
      "्व": 3371,
      "an▁un": 3372,
      "met": 3373,
      "sus": 3374,
      "ते▁": 3375,
      "बा": 3376,
      "US,▁": 3377,
      "refus": 3378,
      "Yet": 3379,
      "kind▁": 3380,
      "within▁the▁": 3381,
      "world,▁": 3382,
      "extre": 3383,
      "atory▁": 3384,
      "and▁their▁": 3385,
      "within▁": 3386,
      "increase▁": 3387,
      "high-": 3388,
      "credit": 3389,
      "▁ज": 3390,
      "fact,▁": 3391,
      "effor": 3392,
      "Indeed,▁the▁": 3393,
      "partn": 3394,
      "conflict": 3395,
      "6▁": 3396,
      "urg": 3397,
      "ment▁of▁": 3398,
      "compet": 3399,
      "implement": 3400,
      "year.": 3401,
      "eful▁": 3402,
      "which▁the▁": 3403,
      "commitment": 3404,
      "hor": 3405,
      "account▁": 3406,
      "de.": 3407,
      "concl": 3408,
      "makes▁": 3409,
      "vit": 3410,
      "a▁p": 3411,
      "actually▁": 3412,
      "laun": 3413,
      "design": 3414,
      "much": 3415,
      "she▁": 3416,
      "Res": 3417,
      "s▁with▁": 3418,
      "omb": 3419,
      "fri": 3420,
      "oh": 3421,
      "crimin": 3422,
      "gas▁": 3423,
      "part▁of▁the▁": 3424,
      "stability▁": 3425,
      "developed▁": 3426,
      "Japan’s▁": 3427,
      "sch": 3428,
      "refer": 3429,
      "Sept": 3430,
      "stock▁": 3431,
      "debate▁": 3432,
      "banking▁": 3433,
      "us,▁": 3434,
      "ed▁by▁a▁": 3435,
      "society▁": 3436,
      "men▁": 3437,
      "ness": 3438,
      "age▁of▁": 3439,
      "e,▁but▁": 3440,
      "development": 3441,
      "assist": 3442,
      "reduce▁": 3443,
      "want▁to▁": 3444,
      "suffici": 3445,
      "Ad": 3446,
      "warm": 3447,
      "a,▁the▁": 3448,
      "are▁the▁": 3449,
      "asp": 3450,
      "und▁": 3451,
      "involv": 3452,
      "restor": 3453,
      "or,▁": 3454,
      "The▁US▁": 3455,
      "ritor": 3456,
      "integr": 3457,
      "Dec": 3458,
      "oz": 3459,
      "bub": 3460,
      "wide▁": 3461,
      "dic": 3462,
      "ति": 3463,
      "at▁a▁": 3464,
      "tion▁of▁the▁": 3465,
      "mob": 3466,
      "also": 3467,
      "ी▁है": 3468,
      "Afghanistan": 3469,
      "achieve▁": 3470,
      "tw": 3471,
      "trans": 3472,
      "हु": 3473,
      "quick": 3474,
      "gether▁": 3475,
      "sustainable▁": 3476,
      "individual▁": 3477,
      "Ma": 3478,
      "means▁": 3479,
      "Gener": 3480,
      "ening▁": 3481,
      "Of▁course,▁": 3482,
      "s;▁": 3483,
      "policy.": 3484,
      "nuclear▁weapon": 3485,
      "as▁well▁as▁": 3486,
      "mistak": 3487,
      "ed▁to": 3488,
      "moral▁": 3489,
      "poverty▁": 3490,
      "ना": 3491,
      "happ": 3492,
      "basic▁": 3493,
      "For▁example,▁": 3494,
      "सक": 3495,
      "living▁": 3496,
      "NATO▁": 3497,
      "Rom": 3498,
      "know▁": 3499,
      "ता▁है": 3500,
      "needed▁to▁": 3501,
      "ought": 3502,
      "militar": 3503,
      "ation▁is▁": 3504,
      "W▁": 3505,
      "ok▁": 3506,
      "रा": 3507,
      "▁to▁re": 3508,
      "agricul": 3509,
      "from▁a▁": 3510,
      "relatively▁": 3511,
      "scen": 3512,
      "figh": 3513,
      "spend": 3514,
      "business": 3515,
      "whether": 3516,
      "2.": 3517,
      "t▁and▁": 3518,
      "ethn": 3519,
      "despite▁": 3520,
      "Sinc": 3521,
      "cr": 3522,
      "al▁of▁": 3523,
      "ability▁": 3524,
      "industr": 3525,
      "Turkey▁": 3526,
      "▁themselves▁": 3527,
      "Soc": 3528,
      "ed▁its▁": 3529,
      "coali": 3530,
      "influence▁": 3531,
      "Ex": 3532,
      "one-": 3533,
      "oph": 3534,
      "face▁": 3535,
      "lack▁of▁": 3536,
      "part▁of▁": 3537,
      "ensi": 3538,
      "venu": 3539,
      "Cl": 3540,
      "excep": 3541,
      "ledg": 3542,
      "sion.": 3543,
      "highly▁": 3544,
      "group▁": 3545,
      "defense▁": 3546,
      "क्ष": 3547,
      "encourag": 3548,
      "e?": 3549,
      "kn": 3550,
      "s▁(": 3551,
      "ani": 3552,
      "until▁": 3553,
      "line▁": 3554,
      "multi": 3555,
      "De": 3556,
      "mal": 3557,
      "e▁than": 3558,
      "quar": 3559,
      "finance▁": 3560,
      "before▁the▁": 3561,
      "ately,▁": 3562,
      "Acc": 3563,
      "using▁": 3564,
      "vision": 3565,
      "African▁": 3566,
      ",▁t": 3567,
      "Giv": 3568,
      "industrial▁": 3569,
      "sl": 3570,
      "bring▁": 3571,
      "experienc": 3572,
      "aid": 3573,
      "mitt": 3574,
      "push": 3575,
      "would": 3576,
      "ण▁": 3577,
      "ultim": 3578,
      "echan": 3579,
      "%.": 3580,
      "drama": 3581,
      "देश": 3582,
      "Congres": 3583,
      "as▁an▁": 3584,
      "Israel’s▁": 3585,
      "ignor": 3586,
      "abo": 3587,
      ",▁the▁US▁": 3588,
      "primar": 3589,
      "announc": 3590,
      "avail": 3591,
      "efforts▁to▁": 3592,
      "in▁199": 3593,
      "use▁of▁": 3594,
      "care▁": 3595,
      "and▁t": 3596,
      "dy": 3597,
      "And": 3598,
      "imper": 3599,
      "giv": 3600,
      "ump": 3601,
      "socie": 3602,
      "certainly▁": 3603,
      "zer": 3604,
      "strategy▁": 3605,
      "ground": 3606,
      "elector": 3607,
      "NEW▁": 3608,
      "it▁will▁": 3609,
      "small": 3610,
      "Argentin": 3611,
      "life▁": 3612,
      "difficult▁to▁": 3613,
      "prevent▁": 3614,
      "ई▁": 3615,
      "पर": 3616,
      "ance,▁": 3617,
      "univers": 3618,
      "nor": 3619,
      "vul": 3620,
      "ed▁that▁the▁": 3621,
      "1,▁": 3622,
      "held▁": 3623,
      "build▁": 3624,
      "े▁क": 3625,
      "access▁to▁": 3626,
      "skill": 3627,
      "ious▁": 3628,
      "crim": 3629,
      "how▁to▁": 3630,
      "n’t▁": 3631,
      "is▁an▁": 3632,
      "िया": 3633,
      "particular": 3634,
      "ing,▁and▁": 3635,
      "in▁which▁": 3636,
      "ed▁their▁": 3637,
      "low-": 3638,
      "evit": 3639,
      "entire▁": 3640,
      "something▁": 3641,
      "leader": 3642,
      "under▁the▁": 3643,
      "ism,▁": 3644,
      "OR": 3645,
      "opposition▁": 3646,
      "both": 3647,
      "्य▁": 3648,
      "princip": 3649,
      "auc": 3650,
      "ya▁": 3651,
      "has▁not▁": 3652,
      "allow▁": 3653,
      "US.": 3654,
      "inevit": 3655,
      "resist": 3656,
      "previ": 3657,
      "contrac": 3658,
      "times▁": 3659,
      "legis": 3660,
      "Muslim": 3661,
      "rapid▁": 3662,
      "successful▁": 3663,
      "justi": 3664,
      "'▁": 3665,
      "Devel": 3666,
      "pass": 3667,
      "भी▁": 3668,
      "ीय": 3669,
      "ech▁": 3670,
      "अध": 3671,
      "भा": 3672,
      "istic": 3673,
      "necessary▁": 3674,
      "maintain": 3675,
      "George▁": 3676,
      "matter▁": 3677,
      "drug": 3678,
      "Develop": 3679,
      "जा": 3680,
      "manu": 3681,
      "▁turn▁": 3682,
      "movement": 3683,
      "▁then▁": 3684,
      "nothing▁": 3685,
      "Secret": 3686,
      "fle": 3687,
      "Great▁": 3688,
      "carbon▁": 3689,
      "Secon": 3690,
      "judg": 3691,
      "future.": 3692,
      "sal": 3693,
      "ड़": 3694,
      "again▁": 3695,
      "change.": 3696,
      "extrem": 3697,
      "Treat": 3698,
      "cle": 3699,
      "Now": 3700,
      "fic▁": 3701,
      "t▁in▁": 3702,
      "explo": 3703,
      "Instead": 3704,
      "balance▁": 3705,
      "address": 3706,
      "sidi": 3707,
      "able,▁": 3708,
      "mechan": 3709,
      "ष्": 3710,
      "ed▁from▁": 3711,
      "receiv": 3712,
      "respect": 3713,
      "bigg": 3714,
      "central▁bank": 3715,
      "justic": 3716,
      "&#": 3717,
      "▁today▁": 3718,
      "program▁": 3719,
      "y▁t": 3720,
      "leading▁": 3721,
      "Govern": 3722,
      "mid": 3723,
      "economy,▁": 3724,
      "flow": 3725,
      "Cold▁": 3726,
      "en.": 3727,
      "ing▁t": 3728,
      "surpl": 3729,
      "forces▁": 3730,
      "workers▁": 3731,
      "so-": 3732,
      "ired▁": 3733,
      "mac": 3734,
      "nar": 3735,
      "ate,▁": 3736,
      "ared▁to▁": 3737,
      "model▁": 3738,
      "ation,▁and▁": 3739,
      "proper": 3740,
      "ogra": 3741,
      "clearly▁": 3742,
      "extern": 3743,
      "question": 3744,
      "liberal▁": 3745,
      "lost▁": 3746,
      "ile▁the▁": 3747,
      "ies▁of▁": 3748,
      "frame": 3749,
      "Tai": 3750,
      "wag": 3751,
      "omin": 3752,
      "prep": 3753,
      "▁करने": 3754,
      "conv": 3755,
      "as▁well": 3756,
      "doing▁": 3757,
      "increasing▁": 3758,
      "में": 3759,
      "cut▁": 3760,
      ",▁too,▁": 3761,
      "Barack▁": 3762,
      "Accord": 3763,
      "defe": 3764,
      "opin": 3765,
      "known▁": 3766,
      "poll": 3767,
      "independent▁": 3768,
      "s▁of": 3769,
      "having▁": 3770,
      "d.": 3771,
      "e”▁": 3772,
      "ता▁": 3773,
      "हा": 3774,
      "s▁by▁": 3775,
      "unt": 3776,
      "international▁commun": 3777,
      "ly,▁the▁": 3778,
      "Iranian▁": 3779,
      "collec": 3780,
      "affect": 3781,
      "revenu": 3782,
      "det": 3783,
      "faul": 3784,
      "requires▁": 3785,
      "यह▁": 3786,
      "nearly▁": 3787,
      "require▁": 3788,
      "way.": 3789,
      "Col": 3790,
      "ty,▁": 3791,
      "preced": 3792,
      "All▁": 3793,
      "us.": 3794,
      "descri": 3795,
      "sovereign": 3796,
      "Tha": 3797,
      "union": 3798,
      "subsidi": 3799,
      "substanti": 3800,
      "Gu": 3801,
      "or▁of▁": 3802,
      "borrow": 3803,
      "Glob": 3804,
      "even▁more▁": 3805,
      "majority▁": 3806,
      "susp": 3807,
      "At▁": 3808,
      "later": 3809,
      "▁that▁it▁": 3810,
      "spir": 3811,
      "success▁": 3812,
      "countries’▁": 3813,
      "National▁": 3814,
      "predict": 3815,
      "ific▁": 3816,
      "prevent": 3817,
      "diplomatic▁": 3818,
      "vulner": 3819,
      "country.": 3820,
      "system.": 3821,
      "ellect": 3822,
      "violence▁": 3823,
      "e:▁": 3824,
      "found▁": 3825,
      "hund": 3826,
      "ll": 3827,
      "ur▁": 3828,
      "If▁the▁": 3829,
      "50": 3830,
      "inequal": 3831,
      "che": 3832,
      "expan": 3833,
      "Liby": 3834,
      "pan": 3835,
      "▁there▁is▁": 3836,
      "friend": 3837,
      "Ha": 3838,
      "orig": 3839,
      "rest▁of▁the▁": 3840,
      "intro": 3841,
      "investor": 3842,
      "Africa▁": 3843,
      "▁toward": 3844,
      "196": 3845,
      "centr": 3846,
      "less▁than▁": 3847,
      "benefit": 3848,
      "destruc": 3849,
      "Taiw": 3850,
      "hy": 3851,
      "the": 3852,
      "ordinary▁": 3853,
      "मि": 3854,
      "for▁their▁": 3855,
      "unn": 3856,
      "excl": 3857,
      "has▁become▁": 3858,
      "▁सं": 3859,
      "potenti": 3860,
      "ent▁to▁": 3861,
      "्या": 3862,
      "structural▁": 3863,
      "Sw": 3864,
      "fig": 3865,
      "ले▁": 3866,
      "le-": 3867,
      "tical▁": 3868,
      "An▁": 3869,
      "should": 3870,
      "liquid": 3871,
      "one▁of▁": 3872,
      "There▁are▁": 3873,
      "ical": 3874,
      "associ": 3875,
      "compromis": 3876,
      "year,▁": 3877,
      "years▁of▁": 3878,
      "ों▁को▁": 3879,
      "Hamas▁": 3880,
      "N▁–▁": 3881,
      "iter": 3882,
      "es▁have▁": 3883,
      "chi": 3884,
      "has▁a▁": 3885,
      "leadership": 3886,
      "protest": 3887,
      "willing▁to▁": 3888,
      "campaign": 3889,
      "introduc": 3890,
      "benefit▁": 3891,
      "repe": 3892,
      "ank": 3893,
      "on▁their▁": 3894,
      "ation▁to▁": 3895,
      "uncertain": 3896,
      "was▁not▁": 3897,
      "keep▁": 3898,
      "manufac": 3899,
      "ograph": 3900,
      "recession": 3901,
      "But▁this▁": 3902,
      "erc": 3903,
      "adjust": 3904,
      "heav": 3905,
      "European▁Union▁": 3906,
      "ीक": 3907,
      "Europe,▁": 3908,
      "outcom": 3909,
      "Unfortun": 3910,
      "ों▁के▁": 3911,
      "so-called▁": 3912,
      "fight▁": 3913,
      "ज़": 3914,
      "facil": 3915,
      "head▁": 3916,
      "Greek▁": 3917,
      "period▁": 3918,
      "kind▁of▁": 3919,
      "er▁to▁": 3920,
      "ice▁": 3921,
      "And,▁": 3922,
      "destro": 3923,
      "S▁": 3924,
      "fare▁": 3925,
      "er▁than▁": 3926,
      "stak": 3927,
      "nei": 3928,
      "leader▁": 3929,
      "ated▁by▁": 3930,
      "election": 3931,
      "Obama’s▁": 3932,
      "relative▁": 3933,
      "den▁": 3934,
      "mater": 3935,
      "ary,▁": 3936,
      "acqu": 3937,
      "process": 3938,
      "form▁of▁": 3939,
      "information▁": 3940,
      "ingdom": 3941,
      "age.": 3942,
      "bomb": 3943,
      "hon": 3944,
      "inf": 3945,
      "it▁to▁": 3946,
      "ask▁": 3947,
      "ized▁": 3948,
      "intellect": 3949,
      "problems▁": 3950,
      "yi": 3951,
      "उन": 3952,
      "ecu": 3953,
      "an.": 3954,
      "European▁Union": 3955,
      "investors▁": 3956,
      "institutional▁": 3957,
      "fron": 3958,
      "had": 3959,
      "Europeans▁": 3960,
      "mone": 3961,
      "ough▁the▁": 3962,
      "erefor": 3963,
      "roop": 3964,
      "in▁order▁to▁": 3965,
      "▁को": 3966,
      "lah▁": 3967,
      "people.": 3968,
      "matter": 3969,
      "Britain": 3970,
      "As▁a▁result,▁": 3971,
      "among▁the▁": 3972,
      "CO": 3973,
      "won": 3974,
      "▁te": 3975,
      "deal": 3976,
      "ally.": 3977,
      "General▁": 3978,
      "gam": 3979,
      "ia,▁": 3980,
      "ing▁to": 3981,
      "well-": 3982,
      "corporate▁": 3983,
      "18": 3984,
      "hos": 3985,
      "अप": 3986,
      "▁trad": 3987,
      ",▁he▁": 3988,
      "ators▁": 3989,
      "alized▁": 3990,
      "failed▁to▁": 3991,
      "rapid": 3992,
      "average▁": 3993,
      "wealth▁": 3994,
      "conduc": 3995,
      "e▁them": 3996,
      "suppor": 3997,
      "approach▁": 3998,
      "Rec": 3999,
      "mort": 4000,
      "mass▁": 4001,
      "internal▁": 4002,
      "s-": 4003,
      "minor": 4004,
      "environmental▁": 4005,
      "CA": 4006,
      "call▁": 4007,
      "mag": 4008,
      "consum": 4009,
      "ament▁": 4010,
      "politician": 4011,
      "ared▁": 4012,
      "In▁fact,▁": 4013,
      "rin": 4014,
      "disput": 4015,
      "supply▁": 4016,
      "Russia,▁": 4017,
      "alternative▁": 4018,
      "United▁Nations▁": 4019,
      "II": 4020,
      "nor▁": 4021,
      "anim": 4022,
      "scientific▁": 4023,
      "ंत": 4024,
      "ing▁of▁the▁": 4025,
      "is▁un": 4026,
      "▁there▁are▁": 4027,
      "level▁": 4028,
      "रूप": 4029,
      "enem": 4030,
      "ellig": 4031,
      "parties▁": 4032,
      "phys": 4033,
      "difficult▁": 4034,
      "brought▁": 4035,
      "eb": 4036,
      "mess": 4037,
      "नही": 4038,
      "पू": 4039,
      "in▁201": 4040,
      "deep▁": 4041,
      "perman": 4042,
      "impact▁": 4043,
      "empor": 4044,
      "antly▁": 4045,
      "time,▁": 4046,
      "had▁been▁": 4047,
      "Mal": 4048,
      "cu": 4049,
      "xi": 4050,
      "death": 4051,
      "Palestinian": 4052,
      "convinc": 4053,
      "trade▁": 4054,
      "avoid▁": 4055,
      "freedom": 4056,
      "oil": 4057,
      "विक": 4058,
      "government.": 4059,
      "China▁and▁": 4060,
      "media▁": 4061,
      "mortg": 4062,
      "C▁": 4063,
      "Med": 4064,
      "oli": 4065,
      "ended▁": 4066,
      "ed▁to▁be▁": 4067,
      "foreign": 4068,
      "ying▁to▁": 4069,
      "right▁to▁": 4070,
      "differenc": 4071,
      "Monetary▁": 4072,
      "t’s▁": 4073,
      "abs": 4074,
      "merc": 4075,
      "Arabi": 4076,
      "tian▁": 4077,
      "respond": 4078,
      "integration▁": 4079,
      "water▁": 4080,
      "sense▁of▁": 4081,
      "September▁": 4082,
      "yet": 4083,
      "▁target": 4084,
      "ance▁to▁": 4085,
      "▁territor": 4086,
      "aggres": 4087,
      "agricultur": 4088,
      "origin": 4089,
      "Sim": 4090,
      "e▁on▁": 4091,
      "enorm": 4092,
      "hav": 4093,
      "sider▁": 4094,
      "fair": 4095,
      "Desp": 4096,
      "Revolu": 4097,
      "here▁": 4098,
      "elimin": 4099,
      "separ": 4100,
      "politicians▁": 4101,
      "ing-": 4102,
      "opposi": 4103,
      "fast": 4104,
      "fear▁": 4105,
      "Kingdom": 4106,
      "in▁term": 4107,
      "ite▁the▁": 4108,
      "appoint": 4109,
      "affor": 4110,
      "principl": 4111,
      "charac": 4112,
      "batt": 4113,
      "चा": 4114,
      "▁tril": 4115,
      "▁themselv": 4116,
      "personal▁": 4117,
      "mut": 4118,
      "consist": 4119,
      "purcha": 4120,
      "▁threaten": 4121,
      "How▁": 4122,
      "ked▁": 4123,
      "merely▁": 4124,
      "preh": 4125,
      "rule▁": 4126,
      "start": 4127,
      "Turk": 4128,
      "dynam": 4129,
      "cruc": 4130,
      "nb": 4131,
      "been": 4132,
      "favor": 4133,
      "we▁have▁": 4134,
      "structure▁": 4135,
      "lack": 4136,
      "ess▁and▁": 4137,
      "es▁on▁": 4138,
      "ished▁": 4139,
      "job▁": 4140,
      "Peop": 4141,
      "nbsp": 4142,
      "s▁on▁the▁": 4143,
      "only": 4144,
      "oler": 4145,
      "ize▁": 4146,
      "decade": 4147,
      "economic▁and▁": 4148,
      "enough▁to▁": 4149,
      "ethnic▁": 4150,
      "ai▁": 4151,
      "es’▁": 4152,
      "step▁": 4153,
      "ilos": 4154,
      "China.": 4155,
      "economic▁growth▁": 4156,
      "victim": 4157,
      "issue▁": 4158,
      "P▁": 4159,
      "ing▁an▁": 4160,
      ",▁these▁": 4161,
      "ity,▁and▁": 4162,
      "implic": 4163,
      "Saudi▁Arabi": 4164,
      "▁में▁": 4165,
      "markets.": 4166,
      "ied▁": 4167,
      "usi": 4168,
      "s▁or▁": 4169,
      "a▁“": 4170,
      "tionary▁": 4171,
      "aband": 4172,
      "contr": 4173,
      "result": 4174,
      "possibil": 4175,
      "oft▁": 4176,
      "ations▁of▁": 4177,
      "appar": 4178,
      "factor": 4179,
      "adequ": 4180,
      "bail": 4181,
      "erve▁": 4182,
      ",▁who▁": 4183,
      "alone▁": 4184,
      "akan▁": 4185,
      "because▁they▁": 4186,
      "guid": 4187,
      "interest▁rat": 4188,
      "renew": 4189,
      "historical▁": 4190,
      "Sark": 4191,
      "▁thous": 4192,
      "ment,▁": 4193,
      "angu": 4194,
      "ereby▁": 4195,
      "macro": 4196,
      "bul": 4197,
      "and▁its▁": 4198,
      "assu": 4199,
      "se,▁": 4200,
      "incenti": 4201,
      "holder": 4202,
      "risks▁": 4203,
      "wrong": 4204,
      "external▁": 4205,
      "earli": 4206,
      "employment▁": 4207,
      "Although▁": 4208,
      "and▁thus▁": 4209,
      "Sarkoz": 4210,
      "Not▁": 4211,
      "ject▁": 4212,
      "what▁is▁": 4213,
      "soon▁": 4214,
      "mobil": 4215,
      "ive▁": 4216,
      "isol": 4217,
      "stanc": 4218,
      "ular▁": 4219,
      "appl": 4220,
      "feel": 4221,
      "experience▁": 4222,
      "Perhap": 4223,
      "collaps": 4224,
      "YOR": 4225,
      "jud": 4226,
      "path": 4227,
      "EU’s▁": 4228,
      "working▁": 4229,
      "NEW▁YOR": 4230,
      "NEW▁YORK": 4231,
      "fill": 4232,
      "replac": 4233,
      "dition": 4234,
      "embrac": 4235,
      "State▁": 4236,
      "result▁": 4237,
      "1990": 4238,
      "deficit▁": 4239,
      "demonstr": 4240,
      "Se": 4241,
      "lad": 4242,
      "ourn": 4243,
      "certain▁": 4244,
      "general▁": 4245,
      "Afghanistan▁": 4246,
      "campaign▁": 4247,
      "3.": 4248,
      "30▁": 4249,
      "Kos": 4250,
      "mand": 4251,
      "ought▁": 4252,
      "eld▁": 4253,
      "ation▁that▁": 4254,
      "le’s▁": 4255,
      "▁took▁": 4256,
      "week": 4257,
      "India’s▁": 4258,
      "More▁": 4259,
      "wealth": 4260,
      "Clint": 4261,
      "ष्ट": 4262,
      "30": 4263,
      "vict": 4264,
      "positive▁": 4265,
      "ori": 4266,
      "ated.": 4267,
      "ent▁of▁": 4268,
      "currently▁": 4269,
      "much▁more▁": 4270,
      "Georgi": 4271,
      "5.": 4272,
      "s)▁": 4273,
      "जि": 4274,
      "too▁": 4275,
      "building▁": 4276,
      "strugg": 4277,
      "Federal▁": 4278,
      "enh": 4279,
      "alism▁": 4280,
      "European": 4281,
      "began▁": 4282,
      "negotiations▁": 4283,
      "responsible▁": 4284,
      "believe▁that▁": 4285,
      "How": 4286,
      "UK": 4287,
      "seem▁": 4288,
      "Economic▁": 4289,
      "Simil": 4290,
      "refu": 4291,
      "arity▁": 4292,
      "ed▁an▁": 4293,
      "sty": 4294,
      "Indian▁": 4295,
      "period": 4296,
      "exces": 4297,
      "strik": 4298,
      "tivi": 4299,
      "expos": 4300,
      "dig": 4301,
      "compar": 4302,
      "Pakistan▁": 4303,
      "Fund": 4304,
      "ling▁": 4305,
      "ingt": 4306,
      "a▁few▁": 4307,
      "is▁also▁": 4308,
      "America's▁": 4309,
      "famil": 4310,
      "ail▁": 4311,
      "dre": 4312,
      "shap": 4313,
      "पा": 4314,
      "is▁that▁the▁": 4315,
      "in▁its▁": 4316,
      "as▁they▁": 4317,
      "im▁": 4318,
      "attack▁": 4319,
      "elections▁": 4320,
      "don’t▁": 4321,
      "elected▁": 4322,
      "relationship▁": 4323,
      "(and▁": 4324,
      "gri": 4325,
      "your▁": 4326,
      "elt": 4327,
      "ace▁": 4328,
      "expand": 4329,
      "existing▁": 4330,
      "Bec": 4331,
      "realiz": 4332,
      "auster": 4333,
      "might▁be▁": 4334,
      "share": 4335,
      "demonstrat": 4336,
      "confidence▁": 4337,
      "rough▁": 4338,
      "issues▁": 4339,
      "science▁": 4340,
      "Ass": 4341,
      "damag": 4342,
      "Commission▁": 4343,
      "is.": 4344,
      "let": 4345,
      "Joh": 4346,
      "lin▁": 4347,
      "er-": 4348,
      "one,▁": 4349,
      "remark": 4350,
      "ating▁the▁": 4351,
      "prefer": 4352,
      "countries▁that▁": 4353,
      "▁traditional▁": 4354,
      "cultural▁": 4355,
      "circum": 4356,
      "nbsp;": 4357,
      "inste": 4358,
      "e▁these▁": 4359,
      "commod": 4360,
      "e▁of▁a▁": 4361,
      "areas▁": 4362,
      "indeed,▁": 4363,
      "confront": 4364,
      "stable▁": 4365,
      "rage▁": 4366,
      "Greece▁": 4367,
      "10": 4368,
      "Sch": 4369,
      "bound": 4370,
      "ering▁": 4371,
      "verse▁": 4372,
      "weak▁": 4373,
      "194": 4374,
      "His▁": 4375,
      "ird": 4376,
      "precis": 4377,
      "Secretary▁": 4378,
      "came▁": 4379,
      "assum": 4380,
      "defaul": 4381,
      "would▁not▁": 4382,
      "close▁": 4383,
      "government’s▁": 4384,
      "impli": 4385,
      "Arab": 4386,
      "during▁": 4387,
      "half": 4388,
      "short-term▁": 4389,
      "across▁": 4390,
      "by▁a▁": 4391,
      "start▁": 4392,
      "fact▁that▁": 4393,
      "maintain▁": 4394,
      "launch": 4395,
      "above▁": 4396,
      "het": 4397,
      "water": 4398,
      "essenti": 4399,
      "example": 4400,
      "इस▁": 4401,
      "roughly▁": 4402,
      "vast▁": 4403,
      "intellig": 4404,
      "▁स्": 4405,
      "preci": 4406,
      "NEW▁YORK▁–▁": 4407,
      "les▁": 4408,
      "anu": 4409,
      "action": 4410,
      "Chris": 4411,
      "World▁War▁": 4412,
      "ies▁that▁": 4413,
      "one’s▁": 4414,
      "near": 4415,
      "tion▁is▁": 4416,
      "armed▁": 4417,
      "ties.": 4418,
      "s▁of▁a▁": 4419,
      "larger▁": 4420,
      "That▁is▁": 4421,
      "dictator": 4422,
      "Council": 4423,
      "ous.": 4424,
      "agenc": 4425,
      "global▁financial▁": 4426,
      "global▁warm": 4427,
      "eventually▁": 4428,
      "–▁that▁": 4429,
      "enough▁": 4430,
      "as▁it▁": 4431,
      "limited▁": 4432,
      "respons": 4433,
      "condition": 4434,
      ";▁the▁": 4435,
      "As▁the▁": 4436,
      "’s": 4437,
      "ord▁": 4438,
      "edg": 4439,
      "end▁to▁": 4440,
      "sensi": 4441,
      "region.": 4442,
      "end▁of▁": 4443,
      "crisis,▁": 4444,
      "Mer": 4445,
      "On▁": 4446,
      "wer": 4447,
      "basis▁": 4448,
      "air▁": 4449,
      "lifer": 4450,
      "rise▁": 4451,
      "▁their▁own▁": 4452,
      "pret": 4453,
      "▁transform": 4454,
      "Today,▁": 4455,
      "Bal": 4456,
      "pas": 4457,
      "tit": 4458,
      "ing▁this▁": 4459,
      "of▁course,▁": 4460,
      "able": 4461,
      "ity▁for▁": 4462,
      "minim": 4463,
      "purpos": 4464,
      "meng": 4465,
      "have▁the▁": 4466,
      "Why▁": 4467,
      "ewis": 4468,
      "affair": 4469,
      "0’s,▁": 4470,
      "Su": 4471,
      "dro": 4472,
      "मु": 4473,
      "्ष": 4474,
      "Sadd": 4475,
      "W.▁": 4476,
      "कि": 4477,
      "restric": 4478,
      "of▁t": 4479,
      "activi": 4480,
      "suppli": 4481,
      "welfare▁": 4482,
      "inflation": 4483,
      "Ra": 4484,
      "pet": 4485,
      "rein": 4486,
      "exchang": 4487,
      "manufactur": 4488,
      "s,": 4489,
      "ी▁क": 4490,
      "long-": 4491,
      "bure": 4492,
      "itor": 4493,
      "appreci": 4494,
      "▁taken▁": 4495,
      "loss": 4496,
      "To▁be▁": 4497,
      "ों▁में▁": 4498,
      "victory▁": 4499,
      "cel": 4500,
      "scal": 4501,
      "sometimes▁": 4502,
      "liberaliz": 4503,
      "across▁the▁": 4504,
      "refuge": 4505,
      "NG": 4506,
      "amb": 4507,
      "exam": 4508,
      "plann": 4509,
      "recent": 4510,
      "▁that▁this▁": 4511,
      "eful": 4512,
      "say,▁": 4513,
      "some▁of▁the▁": 4514,
      "status▁": 4515,
      "developing▁countries▁": 4516,
      ",▁और▁": 4517,
      "resolu": 4518,
      "with▁its▁": 4519,
      "lead▁to▁": 4520,
      "Iraqi▁": 4521,
      "▁technologi": 4522,
      "ECB▁": 4523,
      "गा": 4524,
      "ham": 4525,
      "de,▁": 4526,
      "powers▁": 4527,
      "ed▁in▁a▁": 4528,
      "sensu": 4529,
      "freedom▁": 4530,
      "At▁the▁same▁": 4531,
      "Wash": 4532,
      "udi": 4533,
      "ित▁": 4534,
      "ened▁": 4535,
      "Indon": 4536,
      "coordin": 4537,
      "special▁": 4538,
      "conditions▁": 4539,
      "neither▁": 4540,
      "Indones": 4541,
      "ओं": 4542,
      "stop▁": 4543,
      "part▁": 4544,
      "up▁to▁": 4545,
      "disast": 4546,
      "case▁": 4547,
      "appropri": 4548,
      "deficit": 4549,
      "hetor": 4550,
      "Washingt": 4551,
      "sin": 4552,
      "China": 4553,
      "produce▁": 4554,
      "far▁more▁": 4555,
      "everyone▁": 4556,
      "Becaus": 4557,
      "AS": 4558,
      "Krem": 4559,
      "log": 4560,
      "my": 4561,
      "ures": 4562,
      "ities,▁": 4563,
      "join": 4564,
      "alist▁": 4565,
      "death▁": 4566,
      "scale▁": 4567,
      "fix": 4568,
      "including▁the▁": 4569,
      "easily▁": 4570,
      "cooperation▁": 4571,
      "dangerous▁": 4572,
      "relev": 4573,
      "Global▁": 4574,
      "Eastern▁": 4575,
      "Its▁": 4576,
      "rhetor": 4577,
      "अन": 4578,
      ",▁we▁": 4579,
      "prospect": 4580,
      "th▁centur": 4581,
      "ther.": 4582,
      "correc": 4583,
      "children": 4584,
      "officials▁": 4585,
      "DG": 4586,
      "rule▁of▁": 4587,
      ",▁though▁": 4588,
      "if▁it▁": 4589,
      "ground▁": 4590,
      "4.": 4591,
      "Fed▁": 4592,
      "asset▁": 4593,
      "usually▁": 4594,
      "power,▁": 4595,
      "▁taking▁": 4596,
      "response▁": 4597,
      "advoc": 4598,
      "budget": 4599,
      "(the▁": 4600,
      "Nov": 4601,
      "dar": 4602,
      "sil": 4603,
      "or.": 4604,
      "on▁its▁": 4605,
      "marg": 4606,
      "in▁an▁": 4607,
      "widely▁": 4608,
      "explain": 4609,
      "spo": 4610,
      "दा": 4611,
      "citizens▁": 4612,
      "risk▁of▁": 4613,
      "beyond▁": 4614,
      "bureauc": 4615,
      "Ah": 4616,
      "HI": 4617,
      "enabl": 4618,
      "used▁to▁": 4619,
      "ogu": 4620,
      "United▁Kingdom": 4621,
      "scenari": 4622,
      "mos": 4623,
      "sam": 4624,
      "enjo": 4625,
      "ings.": 4626,
      "commerc": 4627,
      "After▁all,▁": 4628,
      "household": 4629,
      "deliver": 4630,
      "Cam": 4631,
      "Fro": 4632,
      "langu": 4633,
      "pati": 4634,
      "round": 4635,
      "▁कर▁": 4636,
      "because▁it▁": 4637,
      "regulatory▁": 4638,
      "Al▁": 4639,
      "sex": 4640,
      "es▁to▁the▁": 4641,
      "up▁the▁": 4642,
      "rate▁of▁": 4643,
      "role▁in▁": 4644,
      "Similar": 4645,
      "bad": 4646,
      "pain": 4647,
      "lead▁": 4648,
      "will▁have▁to▁": 4649,
      "itical▁": 4650,
      "people,▁": 4651,
      "Ukraine▁": 4652,
      "▁think▁": 4653,
      "behind▁": 4654,
      "Fund▁": 4655,
      "Mean": 4656,
      "pin": 4657,
      "one▁that▁": 4658,
      "reject": 4659,
      "least": 4660,
      "when▁it▁": 4661,
      "include▁": 4662,
      "complet": 4663,
      "character": 4664,
      "cros": 4665,
      "needed▁": 4666,
      "ology▁": 4667,
      "North▁": 4668,
      "For▁the▁": 4669,
      "Financ": 4670,
      "as▁well.": 4671,
      "oing▁": 4672,
      "के▁": 4673,
      "▁thus▁": 4674,
      "pro-": 4675,
      "vote▁": 4676,
      "solv": 4677,
      "needs▁": 4678,
      "housing▁": 4679,
      "canc": 4680,
      "–▁to▁": 4681,
      "ers▁to▁": 4682,
      "sym": 4683,
      "current": 4684,
      "discussi": 4685,
      "consumer": 4686,
      "research": 4687,
      "United▁States,▁": 4688,
      "source▁of▁": 4689,
      "Both▁": 4690,
      "Mo": 4691,
      "list": 4692,
      "degre": 4693,
      "boom": 4694,
      "end▁of▁the▁": 4695,
      "multil": 4696,
      "critical▁": 4697,
      "becoming▁": 4698,
      "immediate▁": 4699,
      "policymakers▁": 4700,
      "ते▁हैं": 4701,
      "&nbsp;": 4702,
      "reach▁": 4703,
      "contain": 4704,
      "most▁important▁": 4705,
      "Today": 4706,
      "2008": 4707,
      "offer▁": 4708,
      "Nig": 4709,
      "insist": 4710,
      ",▁it▁is▁": 4711,
      "s▁that▁are▁": 4712,
      "voter": 4713,
      "subject": 4714,
      "individual": 4715,
      "Putin’s▁": 4716,
      "hundred": 4717,
      "'t▁": 4718,
      "Oc": 4719,
      "cover": 4720,
      "pun": 4721,
      "soft▁": 4722,
      "uel": 4723,
      "active▁": 4724,
      "more▁than": 4725,
      "In▁a▁": 4726,
      "political▁and▁": 4727,
      "learn": 4728,
      "Only▁": 4729,
      "decade▁": 4730,
      "safet": 4731,
      "led▁to▁": 4732,
      "s▁about▁": 4733,
      "conver": 4734,
      "communic": 4735,
      "education▁": 4736,
      "competitive▁": 4737,
      "second": 4738,
      "fru": 4739,
      "रो": 4740,
      "ide▁": 4741,
      "oblig": 4742,
      "develop▁": 4743,
      "development.": 4744,
      "region’s▁": 4745,
      "boost": 4746,
      "millions▁of▁": 4747,
      "``": 4748,
      "border▁": 4749,
      "vast": 4750,
      "inst": 4751,
      "ed▁as▁a▁": 4752,
      "let▁": 4753,
      "she": 4754,
      "deficits▁": 4755,
      "farmer": 4756,
      "reserv": 4757,
      "data▁": 4758,
      "in▁terms▁of▁": 4759,
      "Meanwhil": 4760,
      "BRI": 4761,
      "vest": 4762,
      "ara▁": 4763,
      "ambi": 4764,
      "compreh": 4765,
      "governance▁": 4766,
      "policy,▁": 4767,
      "such▁as▁the▁": 4768,
      "nuclear": 4769,
      "challenge▁": 4770,
      "effort▁to▁": 4771,
      "where▁the▁": 4772,
      "Development▁": 4773,
      "So,▁": 4774,
      "gas": 4775,
      "ुन": 4776,
      "Their▁": 4777,
      "country,▁": 4778,
      "if▁they▁": 4779,
      "D▁": 4780,
      "als.": 4781,
      "and▁other▁": 4782,
      "propor": 4783,
      "competitiven": 4784,
      "New▁Y": 4785,
      "aimed▁at▁": 4786,
      "insurance▁": 4787,
      "a▁th": 4788,
      "hood▁": 4789,
      "treat": 4790,
      "एक▁": 4791,
      "“the▁": 4792,
      "es▁from▁": 4793,
      "six▁": 4794,
      "▁their": 4795,
      "President▁Barack▁": 4796,
      "want▁": 4797,
      "on’s▁": 4798,
      "asser": 4799,
      "lever": 4800,
      "predic": 4801,
      "family▁": 4802,
      "▁through▁the▁": 4803,
      "imagin": 4804,
      "parts▁": 4805,
      "given": 4806,
      "frag": 4807,
      "profession": 4808,
      "Hez": 4809,
      "Qa": 4810,
      "an-": 4811,
      "execu": 4812,
      "ement.": 4813,
      "attempt": 4814,
      "surviv": 4815,
      "Dur": 4816,
      "ox": 4817,
      "class": 4818,
      "negative▁": 4819,
      "flexi": 4820,
      "John▁": 4821,
      "Qaed": 4822,
      "LO": 4823,
      "writ": 4824,
      "t▁a▁": 4825,
      "a▁is▁": 4826,
      "see": 4827,
      "There▁is▁": 4828,
      "brok": 4829,
      "tax▁": 4830,
      "Hezbol": 4831,
      "160": 4832,
      "atic": 4833,
      "gain▁": 4834,
      "▁to▁t": 4835,
      "effect▁": 4836,
      "promote▁": 4837,
      "behind": 4838,
      "given▁the▁": 4839,
      "George▁W.▁": 4840,
      "describ": 4841,
      "Sunn": 4842,
      "Tali": 4843,
      "een": 4844,
      "pp": 4845,
      "paid▁": 4846,
      "additional▁": 4847,
      "ity▁in▁": 4848,
      "ude▁": 4849,
      ":▁“": 4850,
      "▁train": 4851,
      "impac": 4852,
      "नहीं▁": 4853,
      "best": 4854,
      "ble.": 4855,
      "pack": 4856,
      "som": 4857,
      "tual▁": 4858,
      "India,▁": 4859,
      "failure": 4860,
      "extreme▁": 4861,
      "permanent▁": 4862,
      "report▁": 4863,
      "ists,▁": 4864,
      "que▁": 4865,
      "establish▁": 4866,
      "Hamas": 4867,
      "beyond": 4868,
      "Likewis": 4869,
      "Swed": 4870,
      "struggle▁": 4871,
      "Nor▁": 4872,
      "cam": 4873,
      "ब▁": 4874,
      "economists▁": 4875,
      "withdraw": 4876,
      "growth,▁": 4877,
      "concep": 4878,
      "Jun": 4879,
      "journ": 4880,
      "▁troop": 4881,
      "an’s▁": 4882,
      "recession▁": 4883,
      "contribu": 4884,
      "electoral▁": 4885,
      "9,▁": 4886,
      "psy": 4887,
      "ting▁the▁": 4888,
      "▁typ": 4889,
      "ure▁to▁": 4890,
      "wides": 4891,
      "pre-": 4892,
      "who▁are▁": 4893,
      "▁time,▁": 4894,
      "ference▁": 4895,
      "specul": 4896,
      "protection": 4897,
      "widespre": 4898,
      "fy▁": 4899,
      "▁ther": 4900,
      "US-": 4901,
      "Germany,▁": 4902,
      "sanctions▁": 4903,
      "Sen": 4904,
      "ty": 4905,
      "all.": 4906,
      "reasur": 4907,
      "decla": 4908,
      "moderniz": 4909,
      "Britain▁": 4910,
      "International▁Monetary▁": 4911,
      "ior▁": 4912,
      "ती▁है": 4913,
      "s▁and▁the▁": 4914,
      "tig": 4915,
      "elm": 4916,
      "sud": 4917,
      "izing▁": 4918,
      "ong▁K": 4919,
      "possible▁to▁": 4920,
      "hood": 4921,
      "kep": 4922,
      "सम": 4923,
      "inten": 4924,
      "suppl": 4925,
      "acknow": 4926,
      "ement▁of▁": 4927,
      "Internet▁": 4928,
      "Communist▁": 4929,
      "Austr": 4930,
      "kind": 4931,
      "उप": 4932,
      "arrang": 4933,
      "approv": 4934,
      "politically▁": 4935,
      "invol": 4936,
      "link": 4937,
      "communist▁": 4938,
      "support▁for▁": 4939,
      "releas": 4940,
      "body▁": 4941,
      "Bla": 4942,
      "Hong▁K": 4943,
      "cau": 4944,
      "could": 4945,
      "conn": 4946,
      "policies.": 4947,
      "engine": 4948,
      "extra": 4949,
      "stability.": 4950,
      "decades▁": 4951,
      "initiativ": 4952,
      "collective▁": 4953,
      "Bel": 4954,
      "ate-": 4955,
      "is▁likely▁to▁": 4956,
      "improve▁": 4957,
      "countries▁are▁": 4958,
      "value▁": 4959,
      "Constitu": 4960,
      "decision▁": 4961,
      "bra": 4962,
      "terror": 4963,
      "serve▁": 4964,
      "▁them▁to▁": 4965,
      "distribu": 4966,
      "resources▁": 4967,
      "a▁that▁": 4968,
      "avi": 4969,
      "mir": 4970,
      "th.": 4971,
      "it▁would▁": 4972,
      "cause▁": 4973,
      "Cour": 4974,
      "what▁the▁": 4975,
      "seems▁to▁": 4976,
      "bring": 4977,
      "ों▁की▁": 4978,
      "ान▁": 4979,
      "labor": 4980,
      "raise▁": 4981,
      "previous▁": 4982,
      "ंग": 4983,
      "asc": 4984,
      "state.": 4985,
      "collapse▁": 4986,
      "quickly▁": 4987,
      "▁thousand": 4988,
      "Ven": 4989,
      "mur": 4990,
      "Those▁": 4991,
      "tuk▁": 4992,
      "feel▁": 4993,
      "democracy.": 4994,
      "First,▁": 4995,
      "o’s▁": 4996,
      "techn": 4997,
      "instru": 4998,
      "on-": 4999,
      "stem": 5000,
      "eler": 5001,
      "only▁a▁": 5002,
      "carri": 5003,
      "mostly▁": 5004,
      "विकास": 5005,
      "circumstanc": 5006,
      "consensu": 5007,
      "needs▁to▁": 5008,
      "culture": 5009,
      "स्त": 5010,
      "simple▁": 5011,
      "Of▁course": 5012,
      "riv": 5013,
      "defl": 5014,
      "abor": 5015,
      "age,▁": 5016,
      "pressure": 5017,
      "tive.": 5018,
      "radical▁": 5019,
      "expend": 5020,
      "protect▁": 5021,
      "र्थ": 5022,
      "lesson": 5023,
      "independence▁": 5024,
      "cost▁of▁": 5025,
      "Ne": 5026,
      "onom": 5027,
      "al▁t": 5028,
      "along▁": 5029,
      "ated": 5030,
      "ada▁": 5031,
      "plan▁": 5032,
      "which▁is▁": 5033,
      "Uni": 5034,
      "genu": 5035,
      "Germany’s▁": 5036,
      "▁terrorist▁": 5037,
      "taken▁": 5038,
      "scientist": 5039,
      "drug▁": 5040,
      "various▁": 5041,
      "oppon": 5042,
      "mit": 5043,
      "द्": 5044,
      "enlarg": 5045,
      "ision▁": 5046,
      "ants▁": 5047,
      "mean▁": 5048,
      ",▁thereby▁": 5049,
      "increase▁in▁": 5050,
      "look": 5051,
      "1980": 5052,
      "Irel": 5053,
      ",▁is▁": 5054,
      "es▁were▁": 5055,
      "export▁": 5056,
      "assess": 5057,
      "production▁": 5058,
      "result▁of▁": 5059,
      "France,▁": 5060,
      "recovery▁": 5061,
      "To▁be▁sure": 5062,
      "T▁": 5063,
      "his": 5064,
      ",▁and": 5065,
      "emo": 5066,
      "fied▁": 5067,
      "become▁a▁": 5068,
      "level▁of▁": 5069,
      "enterpris": 5070,
      "another": 5071,
      "revi": 5072,
      "optim": 5073,
      "▁to▁their▁": 5074,
      "ruling▁": 5075,
      "160;": 5076,
      "ck": 5077,
      "tivel": 5078,
      "ator▁": 5079,
      "elev": 5080,
      "resolv": 5081,
      "all▁of▁": 5082,
      "if▁not▁": 5083,
      "himself▁": 5084,
      "possible.": 5085,
      "fighting▁": 5086,
      "biggest▁": 5087,
      "AI": 5088,
      "middle▁": 5089,
      "या▁": 5090,
      "ick▁": 5091,
      "ing▁with▁": 5092,
      "as▁much▁": 5093,
      "es,▁but▁": 5094,
      "frequ": 5095,
      "difference▁": 5096,
      "administration": 5097,
      "beginning▁": 5098,
      "enormous▁": 5099,
      "expendit": 5100,
      "Bro": 5101,
      "hur": 5102,
      "wage▁": 5103,
      "en▁to▁": 5104,
      "elit": 5105,
      "adap": 5106,
      "resol": 5107,
      "no▁one▁": 5108,
      "house▁": 5109,
      "efficient▁": 5110,
      "moment": 5111,
      "efforts▁": 5112,
      "purchas": 5113,
      "AN": 5114,
      "ing▁them▁": 5115,
      "ity▁is▁": 5116,
      ";▁and▁": 5117,
      "means▁that▁": 5118,
      "focus": 5119,
      "amount": 5120,
      "both▁the▁": 5121,
      "Di": 5122,
      "व▁": 5123,
      "overall▁": 5124,
      "membership▁": 5125,
      "standing▁": 5126,
      "Moreover,▁the▁": 5127,
      "New▁Yor": 5128,
      "Dep": 5129,
      "Ti": 5130,
      "lar": 5131,
      "ers": 5132,
      "onc": 5133,
      "ization▁": 5134,
      "▁trying▁to▁": 5135,
      "Federal▁Res": 5136,
      "7.": 5137,
      "ed▁his▁": 5138,
      "make▁the▁": 5139,
      ",▁where▁": 5140,
      "return▁": 5141,
      "Financial▁": 5142,
      "ony▁": 5143,
      "press▁": 5144,
      "much▁of▁the▁": 5145,
      "focus▁on▁": 5146,
      "Niger": 5147,
      "Be": 5148,
      "CE": 5149,
      "ency.": 5150,
      ",▁there▁is▁": 5151,
      "situation▁": 5152,
      "evidence▁": 5153,
      "Engl": 5154,
      "Gul": 5155,
      ",▁for▁": 5156,
      "ing▁that▁the▁": 5157,
      "ustom": 5158,
      "problems.": 5159,
      "began": 5160,
      "Parli": 5161,
      "willing": 5162,
      "stimulus▁": 5163,
      "Can": 5164,
      "Janu": 5165,
      "ies▁to▁": 5166,
      "moun": 5167,
      "ated▁the▁": 5168,
      "ed▁out▁": 5169,
      "countries▁to▁": 5170,
      "going▁": 5171,
      "idea▁": 5172,
      "discover": 5173,
      "complic": 5174,
      "Democratic▁": 5175,
      "opinion▁": 5176,
      "Merk": 5177,
      "Venez": 5178,
      "्च": 5179,
      "e▁with▁": 5180,
      "s▁would▁": 5181,
      ",▁when▁": 5182,
      "▁that▁he▁": 5183,
      "come▁to▁": 5184,
      "compens": 5185,
      "should▁not▁": 5186,
      "When▁the▁": 5187,
      "solution": 5188,
      "excessive▁": 5189,
      "Ag": 5190,
      "Def": 5191,
      "a▁more▁": 5192,
      "stand▁": 5193,
      "chem": 5194,
      "need▁for▁": 5195,
      "war.": 5196,
      "product": 5197,
      "credibil": 5198,
      "conservative▁": 5199,
      "usion": 5200,
      "of▁them▁": 5201,
      "emic▁": 5202,
      "s,▁and▁the▁": 5203,
      "The▁first▁": 5204,
      "umul": 5205,
      "But▁it▁": 5206,
      "वास्थ": 5207,
      "Jewish▁": 5208,
      "Venezuel": 5209,
      "stres": 5210,
      "studi": 5211,
      "in▁many▁": 5212,
      "sim": 5213,
      "concern▁": 5214,
      "authorities▁": 5215,
      "symbol": 5216,
      "prolifer": 5217,
      "light▁": 5218,
      "could▁not▁": 5219,
      "▁times▁": 5220,
      "opportunity▁to▁": 5221,
      "Turkey’s▁": 5222,
      "directly▁": 5223,
      "Nob": 5224,
      "Sing": 5225,
      "wit": 5226,
      "of▁that▁": 5227,
      "in▁the▁US▁": 5228,
      "months▁": 5229,
      "uggl": 5230,
      "sovereign▁": 5231,
      "human▁rights▁": 5232,
      "spread": 5233,
      "margin": 5234,
      "AR": 5235,
      "Last▁": 5236,
      "asion": 5237,
      "enforc": 5238,
      "reconc": 5239,
      "had▁to▁": 5240,
      "raf": 5241,
      "America,▁": 5242,
      "police▁": 5243,
      "meth": 5244,
      "Palestinians▁": 5245,
      "short▁": 5246,
      "▁terrorism▁": 5247,
      "latest▁": 5248,
      "colon": 5249,
      "framework▁": 5250,
      "Kur": 5251,
      "Over": 5252,
      "grow▁": 5253,
      "squ": 5254,
      "typ": 5255,
      "record▁": 5256,
      "should▁not▁be▁": 5257,
      "hard▁to▁": 5258,
      "pac": 5259,
      "imbalanc": 5260,
      "dial": 5261,
      "end▁the▁": 5262,
      "output▁": 5263,
      "most▁of▁the▁": 5264,
      "%▁of▁GDP": 5265,
      "severe▁": 5266,
      "shared▁": 5267,
      "referend": 5268,
      "Turkish▁": 5269,
      "Co": 5270,
      "Our▁": 5271,
      "Pac": 5272,
      "areas": 5273,
      "कार": 5274,
      "ही▁": 5275,
      ",▁but": 5276,
      "actions▁": 5277,
      "bear": 5278,
      "boost▁": 5279,
      "country": 5280,
      "financial▁crisis▁": 5281,
      "Security▁Council▁": 5282,
      "ink": 5283,
      "a▁b": 5284,
      "quanti": 5285,
      "strengthen": 5286,
      "productivity▁": 5287,
      "conclud": 5288,
      "ultimately▁": 5289,
      "substantial▁": 5290,
      "emporary▁": 5291,
      "or▁to▁": 5292,
      "until": 5293,
      "ute▁": 5294,
      "In▁this▁": 5295,
      "ers▁are▁": 5296,
      "we▁can▁": 5297,
      "states.": 5298,
      ",▁there▁are▁": 5299,
      "9.": 5300,
      "rather▁": 5301,
      "erv": 5302,
      ",▁even▁": 5303,
      "overwh": 5304,
      "oot": 5305,
      "ture▁": 5306,
      "and▁then▁": 5307,
      "parliamentary▁": 5308,
      "ercis": 5309,
      "acknowledg": 5310,
      "27": 5311,
      "consider▁": 5312,
      "exercis": 5313,
      "finally▁": 5314,
      "out.": 5315,
      "succe": 5316,
      "seem▁to▁": 5317,
      "process.": 5318,
      "violent▁": 5319,
      "Syrian▁": 5320,
      "hardly▁": 5321,
      "whole▁": 5322,
      "widespread▁": 5323,
      "ahu": 5324,
      "ner▁": 5325,
      "rural▁": 5326,
      "▁things▁": 5327,
      "err": 5328,
      "iting▁": 5329,
      "owing▁to▁": 5330,
      "will▁not▁be▁": 5331,
      "fai": 5332,
      "to-": 5333,
      "complex": 5334,
      "With▁the▁": 5335,
      "contrast,▁": 5336,
      "erefore▁": 5337,
      "-w": 5338,
      "food": 5339,
      "fuel▁": 5340,
      "partly▁": 5341,
      "particular▁": 5342,
      "helped▁": 5343,
      "constitutional▁": 5344,
      "elsewher": 5345,
      "mainly▁": 5346,
      "However": 5347,
      "Net": 5348,
      "ji": 5349,
      "lu": 5350,
      "antic▁": 5351,
      "en’s▁": 5352,
      "acceler": 5353,
      "pren": 5354,
      "management▁": 5355,
      "▁technology▁": 5356,
      "Mexico▁": 5357,
      "contrast": 5358,
      "enhanc": 5359,
      "four": 5360,
      "▁total▁": 5361,
      "save▁": 5362,
      "work.": 5363,
      "specific▁": 5364,
      "geopol": 5365,
      "years▁ago,▁": 5366,
      "globalization▁": 5367,
      "round▁": 5368,
      "wish": 5369,
      "नी▁": 5370,
      "unil": 5371,
      "That": 5372,
      "th▁of▁": 5373,
      "s.”": 5374,
      "%▁of▁the▁": 5375,
      "course▁": 5376,
      "president": 5377,
      "behavior▁": 5378,
      "Ky": 5379,
      "say▁": 5380,
      "s▁at▁": 5381,
      "ini▁": 5382,
      "ary": 5383,
      "ash▁": 5384,
      "it▁in▁": 5385,
      "record": 5386,
      "blood": 5387,
      "umber": 5388,
      "government,▁": 5389,
      "continues▁to▁": 5390,
      "volati": 5391,
      "&#160;": 5392,
      "स▁": 5393,
      "rival": 5394,
      "aday": 5395,
      "e▁them▁": 5396,
      "China's▁": 5397,
      "fair▁": 5398,
      "Asia,▁": 5399,
      "Iraq.": 5400,
      "society.": 5401,
      "Spain": 5402,
      "analy": 5403,
      "advantag": 5404,
      "6.": 5405,
      "Ano": 5406,
      "का": 5407,
      "politics▁": 5408,
      "outcome▁": 5409,
      "And▁the▁": 5410,
      "anyone▁": 5411,
      "discus": 5412,
      "▁trigg": 5413,
      "climate▁change▁": 5414,
      "Prot": 5415,
      "autom": 5416,
      "stic": 5417,
      "along": 5418,
      "has▁the▁": 5419,
      "lives▁": 5420,
      "express": 5421,
      "motiv": 5422,
      "But▁it▁is▁": 5423,
      "longer": 5424,
      "does": 5425,
      "European▁Central▁": 5426,
      "ared": 5427,
      "requir": 5428,
      "eij": 5429,
      "falling▁": 5430,
      "Univers": 5431,
      "ple": 5432,
      "ans,▁": 5433,
      "appli": 5434,
      "belief": 5435,
      "mult": 5436,
      "anything▁": 5437,
      "deeply▁": 5438,
      "conventional▁": 5439,
      "Ph": 5440,
      "oss": 5441,
      "bodi": 5442,
      "markets,▁": 5443,
      "foreign▁policy▁": 5444,
      "ity▁that▁": 5445,
      "reforms▁": 5446,
      "greatest▁": 5447,
      "per▁capit": 5448,
      "driven▁": 5449,
      "Organiz": 5450,
      "pressure▁": 5451,
      "rapidly▁": 5452,
      "consumer▁": 5453,
      "overwhelm": 5454,
      "ties,▁": 5455,
      "unable▁to▁": 5456,
      "advis": 5457,
      "been▁the▁": 5458,
      "way,▁": 5459,
      "primary▁": 5460,
      "macroeconomic▁": 5461,
      "Pl": 5462,
      "Tru": 5463,
      "os▁": 5464,
      "embl": 5465,
      "ush▁": 5466,
      "shock": 5467,
      "even▁the▁": 5468,
      "earn": 5469,
      "I▁am▁": 5470,
      "productive▁": 5471,
      "empha": 5472,
      "poorest▁": 5473,
      "infrastructure▁": 5474,
      "agricultural▁": 5475,
      "Cub": 5476,
      "der▁": 5477,
      ",▁not▁": 5478,
      "and▁his▁": 5479,
      "ected▁": 5480,
      "security.": 5481,
      "infrastructure": 5482,
      "vital▁": 5483,
      "al,▁and▁": 5484,
      "is▁in▁": 5485,
      "eless,▁": 5486,
      "app": 5487,
      "peaceful▁": 5488,
      "loss▁of▁": 5489,
      "burden▁": 5490,
      "▁throughout▁the▁": 5491,
      "relationship": 5492,
      "45": 5493,
      "Kh": 5494,
      "forec": 5495,
      "spent▁": 5496,
      "said▁": 5497,
      "few": 5498,
      "voic": 5499,
      "▁time.": 5500,
      "news▁": 5501,
      "expected▁to▁": 5502,
      "book▁": 5503,
      "itself.": 5504,
      "Am": 5505,
      "E▁–▁": 5506,
      "Ken": 5507,
      "ics▁": 5508,
      "union▁": 5509,
      "side▁the▁": 5510,
      "bott": 5511,
      "partner": 5512,
      "Ro": 5513,
      "fil": 5514,
      "ible▁": 5515,
      "went▁": 5516,
      "only▁to▁": 5517,
      ",▁has▁": 5518,
      "worst▁": 5519,
      "While▁the▁": 5520,
      "rights▁": 5521,
      "medic": 5522,
      ",▁but▁also▁": 5523,
      "competition▁": 5524,
      "civilian▁": 5525,
      "gave▁": 5526,
      "चाह": 5527,
      "ze▁": 5528,
      "ature": 5529,
      "untuk▁": 5530,
      "ements▁": 5531,
      "state-": 5532,
      "climate▁chang": 5533,
      "legitimac": 5534,
      "revers": 5535,
      "it▁of▁": 5536,
      "▁that▁their▁": 5537,
      "out▁of▁the▁": 5538,
      "193": 5539,
      "satis": 5540,
      "s▁are▁not▁": 5541,
      "bilateral▁": 5542,
      "example▁": 5543,
      "▁transpar": 5544,
      "skep": 5545,
      "accept▁": 5546,
      "Commission": 5547,
      "Bush’s▁": 5548,
      "Since▁": 5549,
      "adequate▁": 5550,
      "ally,▁the▁": 5551,
      "ongoing▁": 5552,
      "like▁a▁": 5553,
      "providing▁": 5554,
      "looks▁": 5555,
      "burden": 5556,
      "calcul": 5557,
      "consumption▁": 5558,
      "fo": 5559,
      "ry": 5560,
      "wind": 5561,
      "xim": 5562,
      "शा": 5563,
      "rob": 5564,
      "sight": 5565,
      "spend▁": 5566,
      "green": 5567,
      "problem.": 5568,
      "Bush▁administration▁": 5569,
      "wrong▁": 5570,
      "Second,▁": 5571,
      "-based▁": 5572,
      "Treasur": 5573,
      "Viet": 5574,
      "jad": 5575,
      "forward": 5576,
      "▁कि": 5577,
      "reveal": 5578,
      "doubt": 5579,
      "egi": 5580,
      "tob": 5581,
      "ing▁from▁": 5582,
      "s,▁or▁": 5583,
      "democra": 5584,
      "Asia’s▁": 5585,
      "Asia.": 5586,
      "class▁": 5587,
      "foreign-": 5588,
      "Another▁": 5589,
      "nation▁": 5590,
      "था": 5591,
      "ert▁": 5592,
      "repren": 5593,
      "consolid": 5594,
      "▁theor": 5595,
      "set▁of▁": 5596,
      ",▁they▁are▁": 5597,
      "grant": 5598,
      "repreneur": 5599,
      "Key": 5600,
      "mass": 5601,
      "only▁the▁": 5602,
      "us▁to▁": 5603,
      "e▁there▁": 5604,
      "chec": 5605,
      "alloc": 5606,
      "Russia's▁": 5607,
      "soldi": 5608,
      "growth▁and▁": 5609,
      "0’s.": 5610,
      "perceiv": 5611,
      "mechanism": 5612,
      "mid-": 5613,
      "crucial▁": 5614,
      ",\"▁": 5615,
      "ain▁the▁": 5616,
      "सी▁": 5617,
      "The▁problem▁": 5618,
      "warn": 5619,
      "market.": 5620,
      "core▁": 5621,
      "continued▁": 5622,
      "institutions.": 5623,
      "more▁than▁a▁": 5624,
      "profit": 5625,
      "Finally,▁": 5626,
      "style▁": 5627,
      "appropriate▁": 5628,
      "जी": 5629,
      "लोग": 5630,
      "▁ten▁": 5631,
      "enty-": 5632,
      "show▁": 5633,
      "surg": 5634,
      "resulting▁": 5635,
      "similar": 5636,
      "attempt▁to▁": 5637,
      "answer▁": 5638,
      "absence▁of▁": 5639,
      "Two▁": 5640,
      "i.": 5641,
      "ific": 5642,
      "uals▁": 5643,
      "ढ़": 5644,
      "is▁tru": 5645,
      "in▁B": 5646,
      "ed▁this▁": 5647,
      "meet▁": 5648,
      "voters▁": 5649,
      "now.": 5650,
      "World▁Bank▁": 5651,
      "sharp▁": 5652,
      "fat": 5653,
      "next": 5654,
      "ated,▁": 5655,
      "es▁(": 5656,
      "▁to▁take▁": 5657,
      "ity▁of▁the▁": 5658,
      "with▁their▁": 5659,
      "position": 5660,
      "ideas▁": 5661,
      "interests▁": 5662,
      "otherwis": 5663,
      "▁today.": 5664,
      "costs▁": 5665,
      "commercial▁": 5666,
      "Mos": 5667,
      "cell": 5668,
      ",▁however,▁": 5669,
      "raint": 5670,
      "may": 5671,
      "have▁not▁": 5672,
      "outside▁": 5673,
      "scor": 5674,
      "medical▁": 5675,
      "leave▁": 5676,
      "commitment▁to▁": 5677,
      "Australi": 5678,
      "Ev": 5679,
      "ble": 5680,
      "e's▁": 5681,
      "easi": 5682,
      "antic": 5683,
      "restructur": 5684,
      "ital▁": 5685,
      "entrepreneur": 5686,
      "prop": 5687,
      "obser": 5688,
      "final▁": 5689,
      "▁that▁there▁": 5690,
      "What": 5691,
      "depend▁": 5692,
      "decades.": 5693,
      "effectively▁": 5694,
      "legitimate▁": 5695,
      "share▁of▁": 5696,
      "catast": 5697,
      "Gaza▁": 5698,
      "objectiv": 5699,
      "dialogu": 5700,
      "Keyn": 5701,
      ",▁their▁": 5702,
      "15▁": 5703,
      "EL": 5704,
      "Fore": 5705,
      "IS": 5706,
      "cop": 5707,
      "wast": 5708,
      "ली▁": 5709,
      "aries▁": 5710,
      "ombi": 5711,
      "emper": 5712,
      "prosec": 5713,
      "ancell": 5714,
      "blam": 5715,
      "giving▁": 5716,
      "So▁the▁": 5717,
      "built▁": 5718,
      "Serbi": 5719,
      "prime▁minister": 5720,
      "intellectual▁": 5721,
      "CAM": 5722,
      "e;▁": 5723,
      "hour": 5724,
      "ness▁to▁": 5725,
      "▁thos": 5726,
      "ers’▁": 5727,
      "ender": 5728,
      "rest▁": 5729,
      "rant▁": 5730,
      "succeed": 5731,
      "would▁be▁a▁": 5732,
      "ledge▁": 5733,
      "candidate▁": 5734,
      "Unfortunately,▁": 5735,
      "Similarly,▁": 5736,
      "ient▁": 5737,
      "er’s▁": 5738,
      "▁किया▁": 5739,
      "running▁": 5740,
      "anyahu": 5741,
      "Syria▁": 5742,
      "southern▁": 5743,
      "create▁a▁": 5744,
      "G-20▁": 5745,
      "associated▁": 5746,
      "Netanyahu": 5747,
      "B▁": 5748,
      "Jord": 5749,
      "Sa": 5750,
      "rout": 5751,
      "vez": 5752,
      "in▁his▁": 5753,
      "de-": 5754,
      "apar": 5755,
      "mental▁": 5756,
      "politics.": 5757,
      "saving▁": 5758,
      "need▁to▁be▁": 5759,
      "speak": 5760,
      "Brazil▁": 5761,
      "reinforc": 5762,
      "senti": 5763,
      "ane": 5764,
      "perf": 5765,
      "arget▁": 5766,
      "्रा": 5767,
      "sense▁": 5768,
      "both▁sid": 5769,
      "authoritarian▁": 5770,
      "ubar": 5771,
      "performance▁": 5772,
      "Social▁": 5773,
      "quarter": 5774,
      "BRIDG": 5775,
      "CAMBRIDG": 5776,
      "dil": 5777,
      "an▁important▁": 5778,
      "plant": 5779,
      "ists.": 5780,
      "essential▁": 5781,
      "ipher": 5782,
      "results▁": 5783,
      "arms▁": 5784,
      "eive▁": 5785,
      "legisl": 5786,
      "ीय▁": 5787,
      "Aug": 5788,
      "II▁": 5789,
      "ered▁": 5790,
      "ision": 5791,
      "rot": 5792,
      "in▁L": 5793,
      "es▁with▁": 5794,
      "▁that▁a▁": 5795,
      "exac": 5796,
      "ize▁the▁": 5797,
      "buy▁": 5798,
      "continue▁": 5799,
      "others.": 5800,
      "electric": 5801,
      "proposed▁": 5802,
      "Liber": 5803,
      "stronger▁": 5804,
      "Republican▁": 5805,
      "nomin": 5806,
      "pul": 5807,
      "its▁t": 5808,
      "ol▁": 5809,
      "es,▁which▁": 5810,
      "financial": 5811,
      "present▁": 5812,
      "not.": 5813,
      "member▁states▁": 5814,
      "members▁of▁the▁": 5815,
      "yield": 5816,
      "पूर्": 5817,
      "simpl": 5818,
      "emphasiz": 5819,
      "लग": 5820,
      "ेश": 5821,
      "impres": 5822,
      "did": 5823,
      "for▁its▁": 5824,
      "or▁a▁": 5825,
      "world's▁": 5826,
      "2008▁": 5827,
      "▁term▁": 5828,
      "brut": 5829,
      "wants▁to▁": 5830,
      "discipl": 5831,
      "monetary▁policy▁": 5832,
      "while▁the▁": 5833,
      "coalition▁": 5834,
      "Cold▁War": 5835,
      "5,▁": 5836,
      "third▁": 5837,
      "es▁that▁the▁": 5838,
      "story▁": 5839,
      "abroad": 5840,
      "parad": 5841,
      "because▁of▁": 5842,
      "desper": 5843,
      "senior▁": 5844,
      "▁try▁to▁": 5845,
      "recogni": 5846,
      "complex▁": 5847,
      "network": 5848,
      "comprehensive▁": 5849,
      "Vlad": 5850,
      "federal▁": 5851,
      "i’s▁": 5852,
      "रण": 5853,
      "▁though▁": 5854,
      "stop": 5855,
      "forward▁": 5856,
      "k▁of▁": 5857,
      "spac": 5858,
      "peopl": 5859,
      "ival": 5860,
      "empt": 5861,
      "life.": 5862,
      "prevail": 5863,
      "becomes▁": 5864,
      "analys": 5865,
      "according▁to▁": 5866,
      "Saddam▁": 5867,
      "Cz": 5868,
      "gap▁": 5869,
      "मह": 5870,
      "of▁those▁": 5871,
      "their▁": 5872,
      "roubl": 5873,
      "company▁": 5874,
      "failed▁": 5875,
      "gene": 5876,
      "barri": 5877,
      "docu": 5878,
      "parts▁of▁the▁": 5879,
      "Never": 5880,
      "aris": 5881,
      "ing,▁the▁": 5882,
      "ght▁to▁": 5883,
      "sign▁": 5884,
      "sufficient▁": 5885,
      "Colombi": 5886,
      "Clinton▁": 5887,
      "At▁the▁same▁time,▁": 5888,
      "vill": 5889,
      "▁transi": 5890,
      "urban▁": 5891,
      "worri": 5892,
      "economies.": 5893,
      "Europe's▁": 5894,
      "following▁": 5895,
      "Democrat": 5896,
      "Octob": 5897,
      "Foreign▁": 5898,
      "ee▁": 5899,
      "y?": 5900,
      "▁thought": 5901,
      "reti": 5902,
      "constitut": 5903,
      "not▁just▁": 5904,
      "to▁be▁": 5905,
      "later▁": 5906,
      "▁technological▁": 5907,
      "Trade▁": 5908,
      "eu": 5909,
      "anni": 5910,
      "attit": 5911,
      "but▁also▁": 5912,
      "victor": 5913,
      "prison": 5914,
      "address▁": 5915,
      "function": 5916,
      "Mubar": 5917,
      "Tun": 5918,
      "bes": 5919,
      "t,▁the▁": 5920,
      "though▁the▁": 5921,
      "Thus,▁": 5922,
      "dead": 5923,
      "ation▁for▁": 5924,
      "lah": 5925,
      "scar": 5926,
      "Europe▁and▁": 5927,
      "strategi": 5928,
      "interests.": 5929,
      "despite▁the▁": 5930,
      "what▁they▁": 5931,
      "Neverth": 5932,
      "Im": 5933,
      "pap": 5934,
      "son▁": 5935,
      "जन": 5936,
      "ated▁to▁": 5937,
      "it▁the▁": 5938,
      "ations▁and▁": 5939,
      "where": 5940,
      "near▁": 5941,
      "quite▁": 5942,
      "more.": 5943,
      "peripher": 5944,
      "other▁word": 5945,
      "prices.": 5946,
      "minister▁": 5947,
      "universi": 5948,
      "was▁to▁": 5949,
      "considerable▁": 5950,
      "when▁they▁": 5951,
      "immigrant": 5952,
      "Vladim": 5953,
      "We": 5954,
      "k.": 5955,
      "tun": 5956,
      "roo": 5957,
      "comes▁": 5958,
      "weigh": 5959,
      "195": 5960,
      "inva": 5961,
      "rupt": 5962,
      "North▁Korea▁": 5963,
      "encourage▁": 5964,
      "alternativ": 5965,
      "percep": 5966,
      "Likewise,▁": 5967,
      "Cor": 5968,
      "a▁time▁": 5969,
      "तर": 5970,
      "सर": 5971,
      "e▁to▁the▁": 5972,
      "that▁": 5973,
      "ing▁is▁": 5974,
      "elin": 5975,
      "depres": 5976,
      "resent": 5977,
      "invest▁": 5978,
      "Russia.": 5979,
      "may▁have▁": 5980,
      "Presid": 5981,
      "sub-": 5982,
      "place.": 5983,
      "how▁the▁": 5984,
      "reducing▁": 5985,
      "movement▁": 5986,
      "influenc": 5987,
      "विश": 5988,
      "Sunni▁": 5989,
      "Bur": 5990,
      "Tim": 5991,
      ",▁because▁": 5992,
      "for▁this▁": 5993,
      "will▁have▁": 5994,
      "spap": 5995,
      "highest▁": 5996,
      "field": 5997,
      "challenges▁": 5998,
      "history.": 5999,
      "services▁": 6000,
      "ensure▁that▁": 6001,
      "revolution": 6002,
      "▁tension": 6003,
      "abandon": 6004,
      "Rather": 6005,
      "Vladimir▁": 6006,
      "ER": 6007,
      "Nic": 6008,
      "Other▁": 6009,
      "gone▁": 6010,
      "ially▁": 6011,
      "slow▁": 6012,
      "struggl": 6013,
      "also▁be▁": 6014,
      "he▁was▁": 6015,
      "forced▁to▁": 6016,
      "case▁of▁": 6017,
      "war▁in▁": 6018,
      "everything▁": 6019,
      "लेकि": 6020,
      "available▁": 6021,
      "अधिक▁": 6022,
      "per▁capita▁": 6023,
      "It": 6024,
      "Ju": 6025,
      "Sud": 6026,
      "dimin": 6027,
      "lose▁": 6028,
      "ras": 6029,
      "s▁for▁the▁": 6030,
      "inet": 6031,
      ",▁I▁": 6032,
      "stock": 6033,
      "in▁some▁": 6034,
      "perspec": 6035,
      "upon▁": 6036,
      "is▁not▁a▁": 6037,
      "creating▁": 6038,
      "broad▁": 6039,
      "getting▁": 6040,
      "incentiv": 6041,
      "intelligence▁": 6042,
      "ric▁": 6043,
      "ve.": 6044,
      "inher": 6045,
      "ing▁in▁the▁": 6046,
      "emin": 6047,
      "rank": 6048,
      "make▁a▁": 6049,
      "worldwide▁": 6050,
      ",▁then▁": 6051,
      "secular▁": 6052,
      "debt.": 6053,
      "reduce▁the▁": 6054,
      "democracy,▁": 6055,
      "Part": 6056,
      "ensure▁": 6057,
      "watch": 6058,
      "cycl": 6059,
      "coup": 6060,
      "industry▁": 6061,
      "Coun": 6062,
      "Har": 6063,
      "fell▁": 6064,
      "i,▁": 6065,
      "met▁": 6066,
      "s▁than▁": 6067,
      "top▁": 6068,
      "estig": 6069,
      "–▁is▁": 6070,
      "intend": 6071,
      "tive,▁": 6072,
      "countries▁have▁": 6073,
      "so.": 6074,
      "dependent▁": 6075,
      "groups▁": 6076,
      "reserves▁": 6077,
      "figure": 6078,
      "▁thousands▁of▁": 6079,
      "चाहिए": 6080,
      "Is▁": 6081,
      "Si": 6082,
      "drop": 6083,
      "lend": 6084,
      "mus": 6085,
      "n.": 6086,
      "pic": 6087,
      "wak": 6088,
      "ए▁": 6089,
      "मार": 6090,
      "ed▁with▁the▁": 6091,
      "ing▁on▁": 6092,
      "diver": 6093,
      "block": 6094,
      "able▁of▁": 6095,
      "still": 6096,
      "equal▁": 6097,
      "ahan▁": 6098,
      "understand▁": 6099,
      "Middle▁East.": 6100,
      "Now▁": 6101,
      "Sal": 6102,
      "es?": 6103,
      "road▁": 6104,
      "provinc": 6105,
      "people▁who▁": 6106,
      "desir": 6107,
      "respect▁": 6108,
      "standard▁": 6109,
      "choos": 6110,
      "questions▁": 6111,
      "far▁from▁": 6112,
      "administr": 6113,
      "obvious▁": 6114,
      "th,▁": 6115,
      "poss": 6116,
      "limits▁": 6117,
      "now,▁": 6118,
      "loan": 6119,
      "break▁": 6120,
      "drive▁": 6121,
      "United▁States.": 6122,
      "intervention▁": 6123,
      "assistance▁": 6124,
      "According▁to▁": 6125,
      "To": 6126,
      "crow": 6127,
      "▁is▁": 6128,
      "has▁t": 6129,
      "devast": 6130,
      "or▁even▁": 6131,
      "persu": 6132,
      "reci": 6133,
      "ism▁and▁": 6134,
      "just▁as▁": 6135,
      "Islamist▁": 6136,
      ",▁together▁": 6137,
      "multilateral▁": 6138,
      "Por": 6139,
      "ten": 6140,
      "योग": 6141,
      "era▁": 6142,
      "accompl": 6143,
      "rid": 6144,
      "Chancell": 6145,
      "In▁fact": 6146,
      "even▁if▁": 6147,
      "may▁not▁": 6148,
      "related▁": 6149,
      "▁tradi": 6150,
      "virtually▁": 6151,
      "distinc": 6152,
      "They▁are▁": 6153,
      "knowledg": 6154,
      "persist": 6155,
      "allowed▁to▁": 6156,
      "shift▁": 6157,
      "Cold▁War▁": 6158,
      "spok": 6159,
      "3,▁": 6160,
      "At": 6161,
      "Cri": 6162,
      "DO": 6163,
      "astr": 6164,
      "ior": 6165,
      "an▁t": 6166,
      "on▁to▁": 6167,
      "although▁": 6168,
      "noth": 6169,
      "rescu": 6170,
      "apor": 6171,
      "lying▁": 6172,
      "generate▁": 6173,
      "failure▁": 6174,
      "atiz": 6175,
      "investment▁in▁": 6176,
      "nationalist▁": 6177,
      "whether▁the▁": 6178,
      "property▁": 6179,
      "▁towards▁": 6180,
      "▁trillion▁": 6181,
      "Meanwhile,▁": 6182,
      "You": 6183,
      "over-": 6184,
      "ments.": 6185,
      "army▁": 6186,
      "argue▁that▁": 6187,
      "December▁": 6188,
      "Mil": 6189,
      "PA": 6190,
      "ib": 6191,
      "वर्": 6192,
      "हो▁": 6193,
      "ous,▁": 6194,
      "▁that▁has▁": 6195,
      "explan": 6196,
      "incid": 6197,
      "obst": 6198,
      "preme▁": 6199,
      "America": 6200,
      "monopol": 6201,
      "remained▁": 6202,
      "public-": 6203,
      "household▁": 6204,
      "broader▁": 6205,
      "extremely▁": 6206,
      "Ric": 6207,
      "dim": 6208,
      "sent": 6209,
      "als,▁": 6210,
      "alism": 6211,
      "depos": 6212,
      "required▁": 6213,
      "Africa,▁": 6214,
      "Shi": 6215,
      "humanitarian▁": 6216,
      "First": 6217,
      "Kim▁": 6218,
      "S▁–▁": 6219,
      "dog": 6220,
      "hand▁": 6221,
      "मान": 6222,
      "ant▁to▁": 6223,
      "entirely▁": 6224,
      "had▁a▁": 6225,
      "free-": 6226,
      "following▁the▁": 6227,
      "weaken": 6228,
      "Nobel▁": 6229,
      "8.": 6230,
      "day.": 6231,
      "nos": 6232,
      "zone▁": 6233,
      "फ़": 6234,
      "in▁these▁": 6235,
      "action.": 6236,
      "rative▁": 6237,
      "life": 6238,
      "chann": 6239,
      "ation▁in▁the▁": 6240,
      "has▁also▁": 6241,
      "will▁continue▁to▁": 6242,
      ",▁which▁is▁": 6243,
      "newspap": 6244,
      "alliance▁": 6245,
      "international▁community▁": 6246,
      "40▁": 6247,
      "Car": 6248,
      "custom": 6249,
      "▁और▁": 6250,
      "are▁th": 6251,
      "ic.": 6252,
      "ed▁into▁": 6253,
      "leagu": 6254,
      "ally▁the▁": 6255,
      "ipul": 6256,
      "sell": 6257,
      "saw▁": 6258,
      "accumul": 6259,
      "it▁is▁not▁": 6260,
      "Iraq,▁": 6261,
      "generally▁": 6262,
      "serious": 6263,
      "agenda▁": 6264,
      "street": 6265,
      "chief▁": 6266,
      "mortgag": 6267,
      "%,▁": 6268,
      "Cha": 6269,
      "Fat": 6270,
      "number": 6271,
      "are▁now▁": 6272,
      "be.": 6273,
      "2007": 6274,
      "▁travel": 6275,
      "case,▁": 6276,
      "Japan,▁": 6277,
      "argument▁": 6278,
      "created▁": 6279,
      ",▁as▁well▁": 6280,
      "significantly▁": 6281,
      "exchange▁rate▁": 6282,
      "bab": 6283,
      "ean▁": 6284,
      "usion▁": 6285,
      ",▁“": 6286,
      "Stre": 6287,
      "so▁that▁": 6288,
      "All": 6289,
      "majority▁of▁": 6290,
      "brid": 6291,
      "northern▁": 6292,
      "potentially▁": 6293,
      "Despite▁": 6294,
      "Depres": 6295,
      "mach": 6296,
      "must": 6297,
      "asy": 6298,
      "condem": 6299,
      "e,▁which▁": 6300,
      "It▁was▁": 6301,
      "seems▁to▁be▁": 6302,
      "schem": 6303,
      "bubbl": 6304,
      "Treaty▁": 6305,
      "safety▁": 6306,
      "psych": 6307,
      "NP": 6308,
      "bir": 6309,
      "deng": 6310,
      "z▁": 6311,
      "पह": 6312,
      "tile▁": 6313,
      "escap": 6314,
      "stopp": 6315,
      "ents.": 6316,
      "prospec": 6317,
      "▁कार": 6318,
      "tured▁": 6319,
      "philos": 6320,
      "fulfill": 6321,
      "system▁of▁": 6322,
      "demand▁for▁": 6323,
      "experim": 6324,
      "में,▁": 6325,
      "liquidity▁": 6326,
      "destroy": 6327,
      "ball": 6328,
      "mere▁": 6329,
      "ouris": 6330,
      "is▁more▁": 6331,
      "worth▁": 6332,
      "via▁": 6333,
      "In▁ad": 6334,
      "symp": 6335,
      "global▁economy▁": 6336,
      "It▁is": 6337,
      "radic": 6338,
      "I▁have▁": 6339,
      "between": 6340,
      "▁time▁to▁": 6341,
      "nowaday": 6342,
      "China▁is▁": 6343,
      "law.": 6344,
      "March▁": 6345,
      "cyc": 6346,
      "On▁the▁contr": 6347,
      "began▁to▁": 6348,
      "i-": 6349,
      "ल्": 6350,
      "enrich": 6351,
      "alleg": 6352,
      "rep": 6353,
      "in▁recent▁": 6354,
      "fores": 6355,
      "uses▁": 6356,
      "percent": 6357,
      "manipul": 6358,
      "Chá": 6359,
      "After": 6360,
      "ideological▁": 6361,
      "century.": 6362,
      "Egypt▁": 6363,
      "sound▁": 6364,
      "soft": 6365,
      "यु": 6366,
      "ings,▁": 6367,
      "es:▁": 6368,
      "oward▁": 6369,
      "up.": 6370,
      "boom▁": 6371,
      "mission": 6372,
      "equally▁": 6373,
      "equip": 6374,
      "ाने": 6375,
      "rules▁": 6376,
      "over▁the▁past▁": 6377,
      "Bank▁of▁": 6378,
      "study▁": 6379,
      "smaller▁": 6380,
      "so-called▁“": 6381,
      "No": 6382,
      "aul": 6383,
      "s,▁they▁": 6384,
      "s▁who▁": 6385,
      "in.": 6386,
      "▁the▁US▁": 6387,
      "tion,▁and▁": 6388,
      "ild▁": 6389,
      "whom▁": 6390,
      "and’s▁": 6391,
      "events▁": 6392,
      "subsequ": 6393,
      "easy▁": 6394,
      "institutions,▁": 6395,
      "factor▁": 6396,
      "looking▁": 6397,
      "corruption▁": 6398,
      "possibly▁": 6399,
      "relations▁with▁": 6400,
      "People▁": 6401,
      ",”": 6402,
      "El": 6403,
      "Kar": 6404,
      "Naz": 6405,
      "nya▁": 6406,
      "process▁of▁": 6407,
      "downtur": 6408,
      "▁करने▁": 6409,
      "service▁": 6410,
      "neighb": 6411,
      "improved▁": 6412,
      "candidates▁": 6413,
      "elsewhere▁": 6414,
      "obstac": 6415,
      "Chávez": 6416,
      "fal": 6417,
      "ia": 6418,
      "ness.": 6419,
      "द▁": 6420,
      "ers▁of▁": 6421,
      "alist": 6422,
      "ingly,▁": 6423,
      "all▁of▁the▁": 6424,
      "In▁other▁word": 6425,
      "ability▁of▁": 6426,
      "secure▁": 6427,
      "ax▁": 6428,
      "state▁of▁": 6429,
      "lesson▁": 6430,
      "Republic▁": 6431,
      "attention▁": 6432,
      "extremis": 6433,
      "धार": 6434,
      "s▁as▁": 6435,
      "ations▁in▁": 6436,
      "modi": 6437,
      "America.": 6438,
      "matters▁": 6439,
      "beginn": 6440,
      "damage▁": 6441,
      "example,▁the▁": 6442,
      "AID": 6443,
      "Just▁": 6444,
      "Mah": 6445,
      "mel": 6446,
      "nu": 6447,
      "smar": 6448,
      "usive▁": 6449,
      "ed▁by": 6450,
      "ency,▁": 6451,
      "declar": 6452,
      "investig": 6453,
      "changes▁": 6454,
      "iver▁": 6455,
      "ideolog": 6456,
      "Polic": 6457,
      "speech▁": 6458,
      "savings▁": 6459,
      "necessarily▁": 6460,
      "25▁": 6461,
      "Apr": 6462,
      "ci": 6463,
      "ें▁": 6464,
      "expres": 6465,
      "aging▁": 6466,
      "ago,▁": 6467,
      "so▁much▁": 6468,
      "and▁the▁US▁": 6469,
      "we▁must▁": 6470,
      "prud": 6471,
      "Ang": 6472,
      "joint▁": 6473,
      "ragma": 6474,
      "decision-": 6475,
      "Kosov": 6476,
      "11": 6477,
      "May▁": 6478,
      "win▁": 6479,
      "ingu": 6480,
      "ray": 6481,
      "uct": 6482,
      "seek▁": 6483,
      "rack": 6484,
      "ated▁by▁the▁": 6485,
      "he▁has▁": 6486,
      ")▁and▁": 6487,
      "price▁of▁": 6488,
      "reluct": 6489,
      "privatiz": 6490,
      "distor": 6491,
      "happen▁": 6492,
      "dramatic▁": 6493,
      "societies▁": 6494,
      "Thail": 6495,
      "punish": 6496,
      "-market▁": 6497,
      "Hum": 6498,
      "My▁": 6499,
      "lending▁": 6500,
      "sun": 6501,
      "The▁most▁": 6502,
      "entie": 6503,
      "buy": 6504,
      "full": 6505,
      "ों▁का▁": 6506,
      "decades,▁": 6507,
      "likely▁to▁be▁": 6508,
      "close▁to▁": 6509,
      "sustained▁": 6510,
      "wider▁": 6511,
      "solution▁": 6512,
      "Latin▁America▁": 6513,
      "around▁the▁world▁": 6514,
      "Federal▁Reserve▁": 6515,
      "Defense▁": 6516,
      "15": 6517,
      "Lab": 6518,
      "V▁": 6519,
      "Wall▁": 6520,
      "mou": 6521,
      "बी": 6522,
      "divers": 6523,
      "ange▁": 6524,
      "so▁far▁": 6525,
      "policies,▁": 6526,
      "compon": 6527,
      "equity▁": 6528,
      "education,▁": 6529,
      "nature▁": 6530,
      "decision▁to▁": 6531,
      "return▁to▁": 6532,
      "),▁and▁": 6533,
      "fel": 6534,
      "sli": 6535,
      "s▁can▁": 6536,
      "ilip": 6537,
      "ade▁": 6538,
      "facing▁": 6539,
      "Russia": 6540,
      "country's▁": 6541,
      "could▁have▁": 6542,
      "expect▁": 6543,
      "levels▁of▁": 6544,
      "knowledge▁": 6545,
      "▁thinking▁": 6546,
      "West.": 6547,
      "capacity▁to▁": 6548,
      "द्ध": 6549,
      "liter": 6550,
      "ra▁": 6551,
      "ें": 6552,
      "eless": 6553,
      "absol": 6554,
      "worth": 6555,
      "Invest": 6556,
      "changed▁": 6557,
      "ated▁in▁": 6558,
      "lower": 6559,
      "draw▁": 6560,
      "follow▁": 6561,
      "Ukraine’s▁": 6562,
      "physical▁": 6563,
      "austerity▁": 6564,
      "eks▁": 6565,
      "led▁by▁": 6566,
      "estern": 6567,
      "and▁political▁": 6568,
      "th▁of▁the▁": 6569,
      "capabil": 6570,
      "ways▁to▁": 6571,
      "China▁has▁": 6572,
      "reform.": 6573,
      "make▁it▁": 6574,
      "doubl": 6575,
      "initiative▁": 6576,
      "▁talk": 6577,
      "facilit": 6578,
      "hundreds▁of▁": 6579,
      "Mic": 6580,
      "Rob": 6581,
      "ber▁": 6582,
      "bag": 6583,
      "hit▁": 6584,
      "artic": 6585,
      "ed▁on▁the▁": 6586,
      "so▁many▁": 6587,
      "ities▁and▁": 6588,
      "egem": 6589,
      "global▁economic▁": 6590,
      "investment.": 6591,
      "reflect▁": 6592,
      "estimat": 6593,
      "Without▁": 6594,
      "current-": 6595,
      "Taliban▁": 6596,
      "Gulf▁": 6597,
      "mic": 6598,
      "te": 6599,
      "जा▁": 6600,
      "si▁": 6601,
      "ri▁": 6602,
      "ent▁and▁": 6603,
      "appear▁": 6604,
      "support.": 6605,
      "young": 6606,
      "universal▁": 6607,
      "geopolitical▁": 6608,
      "Treasury▁": 6609,
      "Tunis": 6610,
      "Mc": 6611,
      "cast": 6612,
      "ma▁": 6613,
      "pi": 6614,
      "enable▁": 6615,
      "its": 6616,
      "urr": 6617,
      "deploy": 6618,
      "th▁and▁": 6619,
      "ence▁that▁": 6620,
      "disrup": 6621,
      "ure.": 6622,
      "bene": 6623,
      "pension▁": 6624,
      "down▁the▁": 6625,
      "far-": 6626,
      "environment▁": 6627,
      "detail": 6628,
      "Mosc": 6629,
      "observer": 6630,
      "current-account▁": 6631,
      "0,▁": 6632,
      "My": 6633,
      "Yem": 6634,
      "bond▁": 6635,
      "s).": 6636,
      "व्य": 6637,
      "them": 6638,
      "ing▁these▁": 6639,
      "stra": 6640,
      "stati": 6641,
      "element": 6642,
      "an▁in": 6643,
      "haz": 6644,
      "acad": 6645,
      "rig": 6646,
      "why▁the▁": 6647,
      "shrin": 6648,
      "e.”": 6649,
      "change▁in▁": 6650,
      "goal▁": 6651,
      "EU.": 6652,
      "arian": 6653,
      "born▁": 6654,
      "loy": 6655,
      "employe": 6656,
      "Committ": 6657,
      "factors▁": 6658,
      "president,▁": 6659,
      "someone▁": 6660,
      "▁this.": 6661,
      "explic": 6662,
      "Security▁Council": 6663,
      "period▁of▁": 6664,
      "Malay": 6665,
      "Kremlin▁": 6666,
      "Ahmad": 6667,
      "-century▁": 6668,
      "Hung": 6669,
      "Sum": 6670,
      "eight▁": 6671,
      "ju": 6672,
      "य▁": 6673,
      "erb": 6674,
      "ons▁": 6675,
      "ous▁and▁": 6676,
      "at▁least": 6677,
      "who": 6678,
      "▁tool": 6679,
      "end.": 6680,
      "endor": 6681,
      "person▁": 6682,
      "Mushar": 6683,
      "France’s▁": 6684,
      "past.": 6685,
      "occurred▁": 6686,
      "अपने▁": 6687,
      "Because▁": 6688,
      "अनु": 6689,
      "4,▁": 6690,
      "Beij": 6691,
      "Don": 6692,
      "push▁": 6693,
      "बढ़": 6694,
      "resid": 6695,
      "ing▁up▁": 6696,
      "eless▁": 6697,
      "forest": 6698,
      "as.": 6699,
      "s,▁it▁": 6700,
      "s,▁including▁": 6701,
      "worse▁": 6702,
      "were▁not▁": 6703,
      "again.": 6704,
      "right.": 6705,
      "medium": 6706,
      "moderate▁": 6707,
      "expected▁": 6708,
      "below▁": 6709,
      "0%▁of▁the▁": 6710,
      "impose▁": 6711,
      "aggressive▁": 6712,
      "Er": 6713,
      "Man": 6714,
      "Qu": 6715,
      "gold▁": 6716,
      "international": 6717,
      "failure▁to▁": 6718,
      "Green": 6719,
      "प्रति": 6720,
      "speech": 6721,
      "Egyptian▁": 6722,
      "away▁from▁": 6723,
      "Great▁Depres": 6724,
      "willingness▁to▁": 6725,
      "January▁": 6726,
      "2,▁": 6727,
      "ahead": 6728,
      "तक▁": 6729,
      "alu": 6730,
      "ed▁from▁the▁": 6731,
      "project▁": 6732,
      "s,▁such▁as▁": 6733,
      "The▁same▁": 6734,
      "The▁second▁": 6735,
      "financing▁": 6736,
      "month▁": 6737,
      "do.": 6738,
      "do▁so▁": 6739,
      "value▁of▁": 6740,
      "natur": 6741,
      "sought▁to▁": 6742,
      "Latin▁American▁": 6743,
      "restore▁": 6744,
      "Perhaps▁": 6745,
      "remarkable▁": 6746,
      "November▁": 6747,
      "Camer": 6748,
      "16": 6749,
      "Dar": 6750,
      "Hus": 6751,
      "hes": 6752,
      "hand,▁": 6753,
      "hegem": 6754,
      "ana▁": 6755,
      "▁that▁we▁": 6756,
      "uck": 6757,
      "seven▁": 6758,
      "would▁have▁been▁": 6759,
      "present": 6760,
      "expensive▁": 6761,
      "ronic▁": 6762,
      "measures": 6763,
      "aspir": 6764,
      "theast▁": 6765,
      "genuine▁": 6766,
      "Chancellor▁": 6767,
      "foot": 6768,
      "harm": 6769,
      "ति▁": 6770,
      "atter": 6771,
      "such": 6772,
      "ed▁to▁a▁": 6773,
      "discrimin": 6774,
      "ther▁the▁": 6775,
      "Russia▁and▁": 6776,
      "Israeli": 6777,
      "equival": 6778,
      "Israelis▁": 6779,
      "book": 6780,
      "due▁to▁": 6781,
      "shift": 6782,
      "अधिक": 6783,
      "dictatorship": 6784,
      "response▁to▁": 6785,
      "skeptic": 6786,
      "dengan▁": 6787,
      "Ahmadine": 6788,
      "Sol": 6789,
      "ed-": 6790,
      "connec": 6791,
      "resor": 6792,
      "▁toge": 6793,
      "ender▁": 6794,
      "flow▁": 6795,
      "”▁–▁": 6796,
      "formul": 6797,
      ":▁a▁": 6798,
      "Israel.": 6799,
      "seriously▁": 6800,
      "Lead": 6801,
      "firms▁": 6802,
      "promoting▁": 6803,
      "indicat": 6804,
      "group▁of▁": 6805,
      "Instead,▁": 6806,
      "-year▁": 6807,
      "Pau": 6808,
      "gun": 6809,
      "odo": 6810,
      "induc": 6811,
      "ors.": 6812,
      "ic,▁": 6813,
      "tion▁to▁the▁": 6814,
      "is▁still▁": 6815,
      "is▁being▁": 6816,
      "very": 6817,
      "exist▁": 6818,
      "chos": 6819,
      ",▁and▁a▁": 6820,
      "▁they▁have▁": 6821,
      "um.": 6822,
      "ies▁and▁": 6823,
      "sad▁": 6824,
      "own.": 6825,
      "presidency▁": 6826,
      "speak▁": 6827,
      "normal▁": 6828,
      "rhetoric▁": 6829,
      "Al▁Qaed": 6830,
      "\\u": 6831,
      "fer▁": 6832,
      "pes": 6833,
      "कि▁": 6834,
      "sively▁": 6835,
      "Thus": 6836,
      "et.": 6837,
      "s,▁a▁": 6838,
      "▁together▁": 6839,
      "y,▁but▁": 6840,
      "year’s▁": 6841,
      "egul": 6842,
      "ified▁": 6843,
[...]
