{
  "version": "1.0",
  "truncation": null,
  "padding": null,
  "added_tokens": [
    {
      "id": 0,
      "content": "<pad>",
      "single_word": false,
      "lstrip": false,
      "rstrip": false,
      "normalized": false,
      "special": true
    },
    {
      "id": 1,
      "content": "<eos>",
      "single_word": false,
      "lstrip": false,
      "rstrip": false,
      "normalized": false,
      "special": true
    },
    {
      "id": 2,
      "content": "<bos>",
      "single_word": false,
      "lstrip": false,
      "rstrip": false,
      "normalized": false,
      "special": true
    },
    {
      "id": 3,
      "content": "<unk>",
      "single_word": false,
      "lstrip": false,
      "rstrip": false,
      "normalized": false,
      "special": true
    },
    {
      "id": 4,
      "content": "<start_of_turn>",
      "single_word": false,
      "lstrip": false,
      "rstrip": false,
      "normalized": false,
      "special": true
    },
    {
      "id": 5,
      "content": "<end_of_turn>",
      "single_word": false,
      "lstrip": false,
      "rstrip": false,
      "normalized": false,
      "special": true
    },
    {
      "id": 6,
      "content": "<start_of_image>",
      "single_word": false,
      "lstrip": false,
      "rstrip": false,
      "normalized": false,
      "special": true
    },
    {
      "id": 7,
      "content": "<start_of_audio>",
      "single_word": false,
      "lstrip": false,
      "rstrip": false,
      "normalized": false,
      "special": true
    },
    {
      "id": 8,
      "content": "<end_of_image>",
      "single_word": false,
      "lstrip": false,
      "rstrip": false,
      "normalized": false,
      "special": true
    },
    {
      "id": 9,
      "content": "<image_soft_token>",
      "single_word": false,
      "lstrip": false,
      "rstrip": false,
      "normalized": false,
      "special": true
    },
    {
      "id": 10,
      "content": "<unused_image0>",
      "single_word": false,
      "lstrip": false,
      "rstrip": false,
      "normalized": false,
      "special": true
    },
    {
      "id": 11,
      "content": "<unused_image1>",
      "single_word": false,
      "lstrip": false,
      "rstrip": false,
      "normalized": false,
      "special": true
    },
    {
      "id": 12,
      "content": "<unused_image2>",
      "single_word": false,
      "lstrip": false,
      "rstrip": false,
      "normalized": false,
      "special": true
    },
    {
      "id": 13,
      "content": "<unused_image3>",
      "single_word": false,
      "lstrip": false,
      "rstrip": false,
      "normalized": false,
      "special": true
    },
    {
      "id": 14,
      "content": "<unused_image4>",
      "single_word": false,
      "lstrip": false,
      "rstrip": false,
      "normalized": false,
      "special": true
    },
    {
      "id": 15,
      "content": "<unused_image5>",
      "single_word": false,
      "lstrip": false,
      "rstrip": false,
      "normalized": false,
      "special": true
    },
    {
      "id": 16,
      "content": "<unused_image6>",
      "single_word": false,
      "lstrip": false,
      "rstrip": false,
      "normalized": false,
      "special": true
    },
    {
      "id": 17,
      "content": "<unused_image7>",
      "single_word": false,
      "lstrip": false,
      "rstrip": false,
      "normalized": false,
      "special": true
    },
    {
      "id": 18,
      "content": "<unused_image8>",
      "single_word": false,
      "lstrip": false,
      "rstrip": false,
      "normalized": false,
      "special": true
    },
    {
      "id": 19,
      "content": "<unused_image9>",
      "single_word": false,
      "lstrip": false,
      "rstrip": false,
      "normalized": false,
      "special": true
    },
    {
      "id": 20,
      "content": "<unused_image10>",
      "single_word": false,
      "lstrip": false,
      "rstrip": false,
      "normalized": false,
      "special": true
    },
    {
      "id": 21,
      "content": "<unused_image11>",
      "single_word": false,
      "lstrip": false,
      "rstrip": false,
      "normalized": false,
      "special": true
    },
    {
      "id": 22,
      "content": "<unused_image12>",
      "single_word": false,
      "lstrip": false,
      "rstrip": false,
      "normalized": false,
      "special": true
    },
    {
      "id": 23,
      "content": "<unused_image13>",
      "single_word": false,
      "lstrip": false,
      "rstrip": false,
      "normalized": false,
      "special": true
    },
    {
      "id": 24,
      "content": "<unused_image14>",
      "single_word": false,
      "lstrip": false,
      "rstrip": false,
      "normalized": false,
      "special": true
    },
    {
      "id": 25,
      "content": "<unused_image15>",
      "single_word": false,
      "lstrip": false,
      "rstrip": false,
      "normalized": false,
      "special": true
    },
    {
      "id": 26,
      "content": "<unused_image16>",
      "single_word": false,
      "lstrip": false,
      "rstrip": false,
      "normalized": false,
      "special": true
    },
    {
      "id": 27,
      "content": "<unused_image17>",
      "single_word": false,
      "lstrip": false,
      "rstrip": false,
      "normalized": false,
      "special": true
    },
    {
      "id": 28,
      "content": "<unused_image18>",
      "single_word": false,
      "lstrip": false,
      "rstrip": false,
      "normalized": false,
      "special": true
    },
    {
      "id": 29,
      "content": "<unused_image19>",
      "single_word": false,
      "lstrip": false,
      "rstrip": false,
      "normalized": false,
      "special": true
    },
    {
      "id": 30,
      "content": "<unused_image20>",
      "single_word": false,
      "lstrip": false,
      "rstrip": false,
      "normalized": false,
      "special": true
    },
    {
      "id": 31,
      "content": "<unused_image21>",
      "single_word": false,
      "lstrip": false,
      "rstrip": false,
      "normalized": false,
      "special": true
    },
    {
      "id": 32,
      "content": "<unused_image22>",
      "single_word": false,
      "lstrip": false,
      "rstrip": false,
      "normalized": false,
      "special": true
    },
    {
      "id": 33,
      "content": "<unused_image23>",
      "single_word": false,
      "lstrip": false,
      "rstrip": false,
      "normalized": false,
      "special": true
    },
    {
      "id": 34,
      "content": "<unused_image24>",
      "single_word": false,
      "lstrip": false,
      "rstrip": false,
      "normalized": false,
      "special": true
    },
    {
      "id": 35,
      "content": "<unused_image25>",
      "single_word": false,
      "lstrip": false,
      "rstrip": false,
      "normalized": false,
      "special": true
    },
    {
      "id": 36,
      "content": "<unused_image26>",
      "single_word": false,
      "lstrip": false,
      "rstrip": false,
      "normalized": false,
      "special": true
    },
    {
      "id": 37,
      "content": "<unused_image27>",
      "single_word": false,
      "lstrip": false,
      "rstrip": false,
      "normalized": false,
      "special": true
    },
    {
      "id": 38,
      "content": "<unused_image28>",
      "single_word": false,
      "lstrip": false,
      "rstrip": false,
      "normalized": false,
      "special": true
    },
    {
      "id": 39,
      "content": "<unused_image29>",
      "single_word": false,
      "lstrip": false,
      "rstrip": false,
      "normalized": false,
      "special": true
    },
    {
      "id": 40,
      "content": "<unused_image30>",
      "single_word": false,
      "lstrip": false,
      "rstrip": false,
      "normalized": false,
      "special": true
    },
    {
      "id": 41,
      "content": "<unused_image31>",
      "single_word": false,
      "lstrip": false,
      "rstrip": false,
      "normalized": false,
      "special": true
    },
    {
      "id": 42,
      "content": "<unused_image32>",
      "single_word": false,
      "lstrip": false,
      "rstrip": false,
      "normalized": false,
      "special": true
    },
    {
      "id": 43,
      "content": "<unused_image33>",
      "single_word": false,
      "lstrip": false,
      "rstrip": false,
      "normalized": false,
      "special": true
    },
    {
      "id": 44,
      "content": "<unused_image34>",
      "single_word": false,
      "lstrip": false,
      "rstrip": false,
      "normalized": false,
      "special": true
    },
    {
      "id": 45,
      "content": "<unused_image35>",
      "single_word": false,
      "lstrip": false,
      "rstrip": false,
      "normalized": false,
      "special": true
    },
    {
      "id": 46,
      "content": "<unused_image36>",
      "single_word": false,
      "lstrip": false,
      "rstrip": false,
      "normalized": false,
      "special": true
    },
    {
      "id": 47,
      "content": "<unused_image37>",
      "single_word": false,
      "lstrip": false,
      "rstrip": false,
      "normalized": false,
      "special": true
    },
    {
      "id": 48,
      "content": "<unused_image38>",
      "single_word": false,
      "lstrip": false,
      "rstrip": false,
      "normalized": false,
      "special": true
    },
    {
      "id": 49,
      "content": "<unused_image39>",
      "single_word": false,
      "lstrip": false,
      "rstrip": false,
      "normalized": false,
      "special": true
    },
    {
      "id": 50,
      "content": "<unused_image40>",
      "single_word": false,
      "lstrip": false,
      "rstrip": false,
      "normalized": false,
      "special": true
    },
    {
      "id": 51,
      "content": "<unused_image41>",
      "single_word": false,
      "lstrip": false,
      "rstrip": false,
      "normalized": false,
      "special": true
    },
    {
      "id": 52,
      "content": "<unused_image42>",
      "single_word": false,
      "lstrip": false,
      "rstrip": false,
      "normalized": false,
      "special": true
    },
    {
      "id": 53,
      "content": "<unused_image43>",
      "single_word": false,
      "lstrip": false,
      "rstrip": false,
      "normalized": false,
      "special": true
    },
    {
      "id": 54,
      "content": "<unused_image44>",
      "single_word": false,
      "lstrip": false,
      "rstrip": false,
      "normalized": false,
      "special": true
    },
    {
      "id": 55,
      "content": "<unused_image45>",
      "single_word": false,
      "lstrip": false,
      "rstrip": false,
      "normalized": false,
      "special": true
    },
    {
      "id": 56,
      "content": "<unused_image46>",
      "single_word": false,
      "lstrip": false,
      "rstrip": false,
      "normalized": false,
      "special": true
    },
    {
      "id": 57,
      "content": "<unused_image47>",
      "single_word": false,
      "lstrip": false,
      "rstrip": false,
      "normalized": false,
      "special": true
    },
    {
      "id": 58,
      "content": "<unused_image48>",
      "single_word": false,
      "lstrip": false,
      "rstrip": false,
      "normalized": false,
      "special": true
    },
    {
      "id": 59,
      "content": "<unused_image49>",
      "single_word": false,
      "lstrip": false,
      "rstrip": false,
      "normalized": false,
      "special": true
    },
    {
      "id": 60,
      "content": "<unused_image50>",
      "single_word": false,
      "lstrip": false,
      "rstrip": false,
      "normalized": false,
      "special": true
    },
    {
      "id": 61,
      "content": "<unused_image51>",
      "single_word": false,
      "lstrip": false,
      "rstrip": false,
      "normalized": false,
      "special": true
    },
    {
      "id": 62,
      "content": "<unused_image52>",
      "single_word": false,
      "lstrip": false,
      "rstrip": false,
      "normalized": false,
      "special": true
    },
    {
      "id": 63,
      "content": "<unused_image53>",
      "single_word": false,
      "lstrip": false,
      "rstrip": false,
      "normalized": false,
      "special": true
    },
    {
      "id": 64,
      "content": "<unused_image54>",
      "single_word": false,
      "lstrip": false,
      "rstrip": false,
      "normalized": false,
      "special": true
    },
    {
      "id": 65,
      "content": "<unused_image55>",
      "single_word": false,
      "lstrip": false,
      "rstrip": false,
      "normalized": false,
      "special": true
    },
    {
      "id": 66,
      "content": "<unused_image56>",
      "single_word": false,
      "lstrip": false,
      "rstrip": false,
      "normalized": false,
      "special": true
    },
    {
      "id": 67,
      "content": "<unused_image57>",
      "single_word": false,
      "lstrip": false,
      "rstrip": false,
      "normalized": false,
      "special": true
    },
    {
      "id": 68,
      "content": "<unused_image58>",
      "single_word": false,
      "lstrip": false,
      "rstrip": false,
      "normalized": false,
      "special": true
    },
    {
      "id": 69,
      "content": "<unused_image59>",
      "single_word": false,
      "lstrip": false,
      "rstrip": false,
      "normalized": false,
      "special": true
    },
    {
      "id": 70,
      "content": "<unused_image60>",
      "single_word": false,
      "lstrip": false,
      "rstrip": false,
      "normalized": false,
      "special": true
    },
    {
      "id": 71,
      "content": "<unused_image61>",
      "single_word": false,
      "lstrip": false,
      "rstrip": false,
      "normalized": false,
      "special": true
    },
    {
      "id": 72,
      "content": "<unused_image62>",
      "single_word": false,
      "lstrip": false,
      "rstrip": false,
      "normalized": false,
      "special": true
    },
    {
      "id": 73,
      "content": "<unused_image63>",
      "single_word": false,
      "lstrip": false,
      "rstrip": false,
      "normalized": false,
      "special": true
    },
    {
      "id": 74,
      "content": "<unused_image64>",
      "single_word": false,
      "lstrip": false,
      "rstrip": false,
      "normalized": false,
      "special": true
    },
    {
      "id": 75,
      "content": "<unused_image65>",
      "single_word": false,
      "lstrip": false,
      "rstrip": false,
      "normalized": false,
      "special": true
    },
    {
      "id": 76,
      "content": "<unused_image66>",
      "single_word": false,
      "lstrip": false,
      "rstrip": false,
      "normalized": false,
      "special": true
    },
    {
      "id": 77,
      "content": "<unused_image67>",
      "single_word": false,
      "lstrip": false,
      "rstrip": false,
      "normalized": false,
      "special": true
    },
    {
      "id": 78,
      "content": "<unused_image68>",
      "single_word": false,
      "lstrip": false,
      "rstrip": false,
      "normalized": false,
      "special": true
    },
    {
      "id": 79,
      "content": "<unused_image69>",
      "single_word": false,
      "lstrip": false,
      "rstrip": false,
      "normalized": false,
      "special": true
    },
    {
      "id": 80,
      "content": "<unused_image70>",
      "single_word": false,
      "lstrip": false,
      "rstrip": false,
      "normalized": false,
      "special": true
    },
    {
      "id": 81,
      "content": "<unused_image71>",
      "single_word": false,
      "lstrip": false,
      "rstrip": false,
      "normalized": false,
      "special": true
    },
    {
      "id": 82,
      "content": "<unused_image72>",
      "single_word": false,
      "lstrip": false,
      "rstrip": false,
      "normalized": false,
      "special": true
    },
    {
      "id": 83,
      "content": "<unused_image73>",
      "single_word": false,
      "lstrip": false,
      "rstrip": false,
      "normalized": false,
      "special": true
    },
    {
      "id": 84,
      "content": "<unused_image74>",
      "single_word": false,
      "lstrip": false,
      "rstrip": false,
      "normalized": false,
      "special": true
    },
    {
      "id": 85,
      "content": "<unused_image75>",
      "single_word": false,
      "lstrip": false,
      "rstrip": false,
      "normalized": false,
      "special": true
    },
    {
      "id": 86,
      "content": "<unused_image76>",
      "single_word": false,
      "lstrip": false,
      "rstrip": false,
      "normalized": false,
      "special": true
    },
    {
      "id": 87,
      "content": "<unused_image77>",
      "single_word": false,
      "lstrip": false,
      "rstrip": false,
      "normalized": false,
      "special": true
    },
    {
      "id": 88,
      "content": "<unused_image78>",
      "single_word": false,
      "lstrip": false,
      "rstrip": false,
      "normalized": false,
      "special": true
    },
    {
      "id": 89,
      "content": "<unused_image79>",
      "single_word": false,
      "lstrip": false,
      "rstrip": false,
      "normalized": false,
      "special": true
    },
    {
      "id": 90,
      "content": "<unused_image80>",
      "single_word": false,
      "lstrip": false,
      "rstrip": false,
      "normalized": false,
      "special": true
    },
    {
      "id": 91,
      "content": "<unused_image81>",
      "single_word": false,
      "lstrip": false,
      "rstrip": false,
      "normalized": false,
      "special": true
    },
    {
      "id": 92,
      "content": "<unused_image82>",
      "single_word": false,
      "lstrip": false,
      "rstrip": false,
      "normalized": false,
      "special": true
    },
    {
      "id": 93,
      "content": "<unused_image83>",
      "single_word": false,
      "lstrip": false,
      "rstrip": false,
      "normalized": false,
      "special": true
    },
    {
      "id": 94,
      "content": "<unused_image84>",
      "single_word": false,
      "lstrip": false,
      "rstrip": false,
      "normalized": false,
      "special": true
    },
    {
      "id": 95,
      "content": "<unused_image85>",
      "single_word": false,
      "lstrip": false,
      "rstrip": false,
      "normalized": false,
      "special": true
    },
    {
      "id": 96,
      "content": "<unused_image86>",
      "single_word": false,
      "lstrip": false,
      "rstrip": false,
      "normalized": false,
      "special": true
    },
    {
      "id": 97,
      "content": "<unused_image87>",
      "single_word": false,
      "lstrip": false,
      "rstrip": false,
      "normalized": false,
      "special": true
    },
    {
      "id": 98,
      "content": "<unused_image88>",
      "single_word": false,
      "lstrip": false,
      "rstrip": false,
      "normalized": false,
      "special": true
    },
    {
      "id": 99,
      "content": "<unused_image89>",
      "single_word": false,
      "lstrip": false,
      "rstrip": false,
      "normalized": false,
      "special": true
    },
    {
      "id": 100,
      "content": "<unused_image90>",
      "single_word": false,
      "lstrip": false,
      "rstrip": false,
      "normalized": false,
      "special": true
    },
    {
      "id": 101,
      "content": "<unused_image91>",
      "single_word": false,
      "lstrip": false,
      "rstrip": false,
      "normalized": false,
      "special": true
    },
    {
      "id": 102,
      "content": "<unused_image92>",
      "single_word": false,
      "lstrip": false,
      "rstrip": false,
      "normalized": false,
      "special": true
    },
    {
      "id": 103,
      "content": "<unused_image93>",
      "single_word": false,
      "lstrip": false,
      "rstrip": false,
      "normalized": false,
      "special": true
    },
    {
      "id": 104,
      "content": "<unused_image94>",
      "single_word": false,
      "lstrip": false,
      "rstrip": false,
      "normalized": false,
      "special": true
    },
    {
      "id": 105,
      "content": "<unused_image95>",
      "single_word": false,
      "lstrip": false,
      "rstrip": false,
      "normalized": false,
      "special": true
    },
    {
      "id": 106,
      "content": "<unused_image96>",
      "single_word": false,
      "lstrip": false,
      "rstrip": false,
      "normalized": false,
      "special": true
    },
    {
      "id": 107,
      "content": "<unused_image97>",
      "single_word": false,
      "lstrip": false,
      "rstrip": false,
      "normalized": false,
      "special": true
    },
    {
      "id": 108,
      "content": "<unused_image98>",
      "single_word": false,
      "lstrip": false,
      "rstrip": false,
      "normalized": false,
      "special": true
    },
    {
      "id": 109,
      "content": "<unused_image99>",
      "single_word": false,
      "lstrip": false,
      "rstrip": false,
      "normalized": false,
      "special": true
    },
    {
      "id": 110,
      "content": "<unused_image100>",
      "single_word": false,
      "lstrip": false,
      "rstrip": false,
      "normalized": false,
      "special": true
    },
    {
      "id": 111,
      "content": "<unused_image101>",
      "single_word": false,
      "lstrip": false,
      "rstrip": false,
      "normalized": false,
      "special": true
    },
    {
      "id": 112,
      "content": "<unused_image102>",
      "single_word": false,
      "lstrip": false,
      "rstrip": false,
      "normalized": false,
      "special": true
    },
    {
      "id": 113,
      "content": "<unused_image103>",
      "single_word": false,
      "lstrip": false,
      "rstrip": false,
      "normalized": false,
      "special": true
    },
    {
      "id": 114,
      "content": "<unused_image104>",
      "single_word": false,
      "lstrip": false,
      "rstrip": false,
      "normalized": false,
      "special": true
    },
    {
      "id": 115,
      "content": "<unused_image105>",
      "single_word": false,
      "lstrip": false,
      "rstrip": false,
      "normalized": false,
      "special": true
    },
    {
      "id": 116,
      "content": "<unused_image106>",
      "single_word": false,
      "lstrip": false,
      "rstrip": false,
      "normalized": false,
      "special": true
    },
    {
      "id": 117,
      "content": "<unused_image107>",
      "single_word": false,
      "lstrip": false,
      "rstrip": false,
      "normalized": false,
      "special": true
    },
    {
      "id": 118,
      "content": "<unused_image108>",
      "single_word": false,
      "lstrip": false,
      "rstrip": false,
      "normalized": false,
      "special": true
    },
    {
      "id": 119,
      "content": "<unused_image109>",
      "single_word": false,
      "lstrip": false,
      "rstrip": false,
      "normalized": false,
      "special": true
    },
    {
      "id": 120,
      "content": "<unused_image110>",
      "single_word": false,
      "lstrip": false,
      "rstrip": false,
      "normalized": false,
      "special": true
    },
    {
      "id": 121,
      "content": "<unused_image111>",
      "single_word": false,
      "lstrip": false,
      "rstrip": false,
      "normalized": false,
      "special": true
    },
    {
      "id": 122,
      "content": "<unused_image112>",
      "single_word": false,
      "lstrip": false,
      "rstrip": false,
      "normalized": false,
      "special": true
    },
    {
      "id": 123,
      "content": "<unused_image113>",
      "single_word": false,
      "lstrip": false,
      "rstrip": false,
      "normalized": false,
      "special": true
    },
    {
      "id": 124,
      "content": "<unused_image114>",
      "single_word": false,
      "lstrip": false,
      "rstrip": false,
      "normalized": false,
      "special": true
    },
    {
      "id": 125,
      "content": "<unused_image115>",
      "single_word": false,
      "lstrip": false,
      "rstrip": false,
      "normalized": false,
      "special": true
    },
    {
      "id": 126,
      "content": "<unused_image116>",
      "single_word": false,
      "lstrip": false,
      "rstrip": false,
      "normalized": false,
      "special": true
    },
    {
      "id": 127,
      "content": "<unused_image117>",
      "single_word": false,
      "lstrip": false,
      "rstrip": false,
      "normalized": false,
      "special": true
    },
    {
      "id": 128,
      "content": "<unused_image118>",
      "single_word": false,
      "lstrip": false,
      "rstrip": false,
      "normalized": false,
      "special": true
    },
    {
      "id": 129,
      "content": "<unused_image119>",
      "single_word": false,
      "lstrip": false,
      "rstrip": false,
      "normalized": false,
      "special": true
    },
    {
      "id": 130,
      "content": "<unused_image120>",
      "single_word": false,
      "lstrip": false,
      "rstrip": false,
      "normalized": false,
      "special": true
    },
    {
      "id": 131,
      "content": "<unused_image121>",
      "single_word": false,
      "lstrip": false,
      "rstrip": false,
      "normalized": false,
      "special": true
    },
    {
      "id": 132,
      "content": "<unused_image122>",
      "single_word": false,
      "lstrip": false,
      "rstrip": false,
      "normalized": false,
      "special": true
    },
    {
      "id": 133,
      "content": "<unused_image123>",
      "single_word": false,
      "lstrip": false,
      "rstrip": false,
      "normalized": false,
      "special": true
    },
    {
      "id": 134,
      "content": "<unused_image124>",
      "single_word": false,
      "lstrip": false,
      "rstrip": false,
      "normalized": false,
      "special": true
    },
    {
      "id": 135,
      "content": "<unused_image125>",
      "single_word": false,
      "lstrip": false,
      "rstrip": false,
      "normalized": false,
      "special": true
    },
    {
      "id": 136,
      "content": "<end_of_audio>",
      "single_word": false,
      "lstrip": false,
      "rstrip": false,
      "normalized": false,
      "special": true
    },
    {
      "id": 137,
      "content": "<audio_soft_token>",
      "single_word": false,
      "lstrip": false,
      "rstrip": false,
      "normalized": false,
      "special": true
    },
    {
      "id": 138,
      "content": "<unused_audio0>",
      "single_word": false,
      "lstrip": false,
      "rstrip": false,
      "normalized": false,
      "special": true
    },
    {
      "id": 139,
      "content": "<unused_audio1>",
      "single_word": false,
      "lstrip": false,
      "rstrip": false,
      "normalized": false,
      "special": true
    },
    {
      "id": 140,
      "content": "<unused_audio2>",
      "single_word": false,
      "lstrip": false,
      "rstrip": false,
      "normalized": false,
      "special": true
    },
    {
      "id": 141,
      "content": "<unused_audio3>",
      "single_word": false,
      "lstrip": false,
      "rstrip": false,
      "normalized": false,
      "special": true
    },
    {
      "id": 142,
      "content": "<unused_audio4>",
      "single_word": false,
      "lstrip": false,
      "rstrip": false,
      "normalized": false,
      "special": true
    },
    {
      "id": 143,
      "content": "<unused_audio5>",
      "single_word": false,
      "lstrip": false,
      "rstrip": false,
      "normalized": false,
      "special": true
    },
    {
      "id": 144,
      "content": "<unused_audio6>",
      "single_word": false,
      "lstrip": false,
      "rstrip": false,
      "normalized": false,
      "special": true
    },
    {
      "id": 145,
      "content": "<unused_audio7>",
      "single_word": false,
      "lstrip": false,
      "rstrip": false,
      "normalized": false,
      "special": true
    },
    {
      "id": 146,
      "content": "<unused_audio8>",
      "single_word": false,
      "lstrip": false,
      "rstrip": false,
      "normalized": false,
      "special": true
    },
    {
      "id": 147,
      "content": "<unused_audio9>",
      "single_word": false,
      "lstrip": false,
      "rstrip": false,
      "normalized": false,
      "special": true
    },
    {
      "id": 148,
      "content": "<unused_audio10>",
      "single_word": false,
      "lstrip": false,
      "rstrip": false,
      "normalized": false,
      "special": true
    },
    {
      "id": 149,
      "content": "<unused_audio11>",
      "single_word": false,
      "lstrip": false,
      "rstrip": false,
      "normalized": false,
      "special": true
    },
    {
      "id": 150,
      "content": "<unused_audio12>",
      "single_word": false,
      "lstrip": false,
      "rstrip": false,
      "normalized": false,
      "special": true
    },
    {
      "id": 151,
      "content": "<unused_audio13>",
      "single_word": false,
      "lstrip": false,
      "rstrip": false,
      "normalized": false,
      "special": true
    },
    {
      "id": 152,
      "content": "<unused_audio14>",
      "single_word": false,
      "lstrip": false,
      "rstrip": false,
      "normalized": false,
      "special": true
    },
    {
      "id": 153,
      "content": "<unused_audio15>",
      "single_word": false,
      "lstrip": false,
      "rstrip": false,
      "normalized": false,
      "special": true
    },
    {
      "id": 154,
      "content": "<unused_audio16>",
      "single_word": false,
      "lstrip": false,
      "rstrip": false,
      "normalized": false,
      "special": true
    },
    {
      "id": 155,
      "content": "<unused_audio17>",
      "single_word": false,
      "lstrip": false,
      "rstrip": false,
      "normalized": false,
      "special": true
    },
    {
      "id": 156,
      "content": "<unused_audio18>",
      "single_word": false,
      "lstrip": false,
      "rstrip": false,
      "normalized": false,
      "special": true
    },
    {
      "id": 157,
      "content": "<unused_audio19>",
      "single_word": false,
      "lstrip": false,
      "rstrip": false,
      "normalized": false,
      "special": true
    },
    {
      "id": 158,
      "content": "<unused_audio20>",
      "single_word": false,
      "lstrip": false,
      "rstrip": false,
      "normalized": false,
      "special": true
    },
    {
      "id": 159,
      "content": "<unused_audio21>",
      "single_word": false,
      "lstrip": false,
      "rstrip": false,
      "normalized": false,
      "special": true
    },
    {
      "id": 160,
      "content": "<unused_audio22>",
      "single_word": false,
      "lstrip": false,
      "rstrip": false,
      "normalized": false,
      "special": true
    },
    {
      "id": 161,
      "content": "<unused_audio23>",
      "single_word": false,
      "lstrip": false,
      "rstrip": false,
      "normalized": false,
      "special": true
    },
    {
      "id": 162,
      "content": "<unused_audio24>",
      "single_word": false,
      "lstrip": false,
      "rstrip": false,
      "normalized": false,
      "special": true
    },
    {
      "id": 163,
      "content": "<unused_audio25>",
      "single_word": false,
      "lstrip": false,
      "rstrip": false,
      "normalized": false,
      "special": true
    },
    {
      "id": 164,
      "content": "<unused_audio26>",
      "single_word": false,
      "lstrip": false,
      "rstrip": false,
      "normalized": false,
      "special": true
    },
    {
      "id": 165,
      "content": "<unused_audio27>",
      "single_word": false,
      "lstrip": false,
      "rstrip": false,
      "normalized": false,
      "special": true
    },
    {
      "id": 166,
      "content": "<unused_audio28>",
      "single_word": false,
      "lstrip": false,
      "rstrip": false,
      "normalized": false,
      "special": true
    },
    {
      "id": 167,
      "content": "<unused_audio29>",
      "single_word": false,
      "lstrip": false,
      "rstrip": false,
      "normalized": false,
      "special": true
    },
    {
      "id": 168,
      "content": "<unused_audio30>",
      "single_word": false,
      "lstrip": false,
      "rstrip": false,
      "normalized": false,
      "special": true
    },
    {
      "id": 169,
      "content": "<unused_audio31>",
      "single_word": false,
      "lstrip": false,
      "rstrip": false,
      "normalized": false,
      "special": true
    },
    {
      "id": 170,
      "content": "<unused_audio32>",
      "single_word": false,
      "lstrip": false,
      "rstrip": false,
      "normalized": false,
      "special": true
    },
    {
      "id": 171,
      "content": "<unused_audio33>",
      "single_word": false,
      "lstrip": false,
      "rstrip": false,
      "normalized": false,
      "special": true
    },
    {
      "id": 172,
      "content": "<unused_audio34>",
      "single_word": false,
      "lstrip": false,
      "rstrip": false,
      "normalized": false,
      "special": true
    },
    {
      "id": 173,
      "content": "<unused_audio35>",
      "single_word": false,
      "lstrip": false,
      "rstrip": false,
      "normalized": false,
      "special": true
    },
    {
      "id": 174,
      "content": "<unused_audio36>",
      "single_word": false,
      "lstrip": false,
      "rstrip": false,
      "normalized": false,
      "special": true
    },
    {
      "id": 175,
      "content": "<unused_audio37>",
      "single_word": false,
      "lstrip": false,
      "rstrip": false,
      "normalized": false,
      "special": true
    },
    {
      "id": 176,
      "content": "<unused_audio38>",
      "single_word": false,
      "lstrip": false,
      "rstrip": false,
      "normalized": false,
      "special": true
    },
    {
      "id": 177,
      "content": "<unused_audio39>",
      "single_word": false,
      "lstrip": false,
      "rstrip": false,
      "normalized": false,
      "special": true
    },
    {
      "id": 178,
      "content": "<unused_audio40>",
      "single_word": false,
      "lstrip": false,
      "rstrip": false,
      "normalized": false,
      "special": true
    },
    {
      "id": 179,
      "content": "<unused_audio41>",
      "single_word": false,
      "lstrip": false,
      "rstrip": false,
      "normalized": false,
      "special": true
    },
    {
      "id": 180,
      "content": "<unused_audio42>",
      "single_word": false,
      "lstrip": false,
      "rstrip": false,
      "normalized": false,
      "special": true
    },
    {
      "id": 181,
      "content": "<unused_audio43>",
      "single_word": false,
      "lstrip": false,
      "rstrip": false,
      "normalized": false,
      "special": true
    },
    {
      "id": 182,
      "content": "<unused_audio44>",
      "single_word": false,
      "lstrip": false,
      "rstrip": false,
      "normalized": false,
      "special": true
    },
    {
      "id": 183,
      "content": "<unused_audio45>",
      "single_word": false,
      "lstrip": false,
      "rstrip": false,
      "normalized": false,
      "special": true
    },
    {
      "id": 184,
      "content": "<unused_audio46>",
      "single_word": false,
      "lstrip": false,
      "rstrip": false,
      "normalized": false,
      "special": true
    },
    {
      "id": 185,
      "content": "<unused_audio47>",
      "single_word": false,
      "lstrip": false,
      "rstrip": false,
      "normalized": false,
      "special": true
    },
    {
      "id": 186,
      "content": "<unused_audio48>",
      "single_word": false,
      "lstrip": false,
      "rstrip": false,
      "normalized": false,
      "special": true
    },
    {
      "id": 187,
      "content": "<unused_audio49>",
      "single_word": false,
      "lstrip": false,
      "rstrip": false,
      "normalized": false,
      "special": true
    },
    {
      "id": 188,
      "content": "<unused_audio50>",
      "single_word": false,
      "lstrip": false,
      "rstrip": false,
      "normalized": false,
      "special": true
    },
    {
      "id": 189,
      "content": "<unused_audio51>",
      "single_word": false,
      "lstrip": false,
      "rstrip": false,
      "normalized": false,
      "special": true
    },
    {
      "id": 190,
      "content": "<unused_audio52>",
      "single_word": false,
      "lstrip": false,
      "rstrip": false,
      "normalized": false,
      "special": true
    },
    {
      "id": 191,
      "content": "<unused_audio53>",
      "single_word": false,
      "lstrip": false,
      "rstrip": false,
      "normalized": false,
      "special": true
    },
    {
      "id": 192,
      "content": "<unused_audio54>",
      "single_word": false,
      "lstrip": false,
      "rstrip": false,
      "normalized": false,
      "special": true
    },
    {
      "id": 193,
      "content": "<unused_audio55>",
      "single_word": false,
      "lstrip": false,
      "rstrip": false,
      "normalized": false,
      "special": true
    },
    {
      "id": 194,
      "content": "<unused_audio56>",
      "single_word": false,
      "lstrip": false,
      "rstrip": false,
      "normalized": false,
      "special": true
    },
    {
      "id": 195,
      "content": "<unused_audio57>",
      "single_word": false,
      "lstrip": false,
      "rstrip": false,
      "normalized": false,
      "special": true
    },
    {
      "id": 196,
      "content": "<unused_audio58>",
      "single_word": false,
      "lstrip": false,
      "rstrip": false,
      "normalized": false,
      "special": true
    },
    {
      "id": 197,
      "content": "<unused_audio59>",
      "single_word": false,
      "lstrip": false,
      "rstrip": false,
      "normalized": false,
      "special": true
    },
    {
      "id": 198,
      "content": "<unused_audio60>",
      "single_word": false,
      "lstrip": false,
      "rstrip": false,
      "normalized": false,
      "special": true
    },
    {
      "id": 199,
      "content": "<unused_audio61>",
      "single_word": false,
      "lstrip": false,
      "rstrip": false,
      "normalized": false,
      "special": true
    },
    {
      "id": 200,
      "content": "<unused_audio62>",
      "single_word": false,
      "lstrip": false,
      "rstrip": false,
      "normalized": false,
      "special": true
    },
    {
      "id": 201,
      "content": "<unused_audio63>",
      "single_word": false,
      "lstrip": false,
      "rstrip": false,
      "normalized": false,
      "special": true
    },
    {
      "id": 202,
      "content": "<unused_audio64>",
      "single_word": false,
      "lstrip": false,
      "rstrip": false,
      "normalized": false,
      "special": true
    },
    {
      "id": 203,
      "content": "<unused_audio65>",
      "single_word": false,
      "lstrip": false,
      "rstrip": false,
      "normalized": false,
      "special": true
    },
    {
      "id": 204,
      "content": "<unused_audio66>",
      "single_word": false,
      "lstrip": false,
      "rstrip": false,
      "normalized": false,
      "special": true
    },
    {
      "id": 205,
      "content": "<unused_audio67>",
      "single_word": false,
      "lstrip": false,
      "rstrip": false,
      "normalized": false,
      "special": true
    },
    {
      "id": 206,
      "content": "<unused_audio68>",
      "single_word": false,
      "lstrip": false,
      "rstrip": false,
      "normalized": false,
      "special": true
    },
    {
      "id": 207,
      "content": "<unused_audio69>",
      "single_word": false,
      "lstrip": false,
      "rstrip": false,
      "normalized": false,
      "special": true
    },
    {
      "id": 208,
      "content": "<unused_audio70>",
      "single_word": false,
      "lstrip": false,
      "rstrip": false,
      "normalized": false,
      "special": true
    },
    {
      "id": 209,
      "content": "<unused_audio71>",
      "single_word": false,
      "lstrip": false,
      "rstrip": false,
      "normalized": false,
      "special": true
    },
    {
      "id": 210,
      "content": "<unused_audio72>",
      "single_word": false,
      "lstrip": false,
      "rstrip": false,
      "normalized": false,
      "special": true
    },
    {
      "id": 211,
      "content": "<unused_audio73>",
      "single_word": false,
      "lstrip": false,
      "rstrip": false,
      "normalized": false,
      "special": true
    },
    {
      "id": 212,
      "content": "<unused_audio74>",
      "single_word": false,
      "lstrip": false,
      "rstrip": false,
      "normalized": false,
      "special": true
    },
    {
      "id": 213,
      "content": "<unused_audio75>",
      "single_word": false,
      "lstrip": false,
      "rstrip": false,
      "normalized": false,
      "special": true
    },
    {
      "id": 214,
      "content": "<unused_audio76>",
      "single_word": false,
      "lstrip": false,
      "rstrip": false,
      "normalized": false,
      "special": true
    },
    {
      "id": 215,
      "content": "<unused_audio77>",
      "single_word": false,
      "lstrip": false,
      "rstrip": false,
      "normalized": false,
      "special": true
    },
    {
      "id": 216,
      "content": "<unused_audio78>",
      "single_word": false,
      "lstrip": false,
      "rstrip": false,
      "normalized": false,
      "special": true
    },
    {
      "id": 217,
      "content": "<unused_audio79>",
      "single_word": false,
      "lstrip": false,
      "rstrip": false,
      "normalized": false,
      "special": true
    },
    {
      "id": 218,
      "content": "<unused_audio80>",
      "single_word": false,
      "lstrip": false,
      "rstrip": false,
      "normalized": false,
      "special": true
    },
    {
      "id": 219,
      "content": "<unused_audio81>",
      "single_word": false,
      "lstrip": false,
      "rstrip": false,
      "normalized": false,
      "special": true
    },
    {
      "id": 220,
      "content": "<unused_audio82>",
      "single_word": false,
      "lstrip": false,
      "rstrip": false,
      "normalized": false,
      "special": true
    },
    {
      "id": 221,
      "content": "<unused_audio83>",
      "single_word": false,
      "lstrip": false,
      "rstrip": false,
      "normalized": false,
      "special": true
    },
    {
      "id": 222,
      "content": "<unused_audio84>",
      "single_word": false,
      "lstrip": false,
      "rstrip": false,
      "normalized": false,
      "special": true
    },
    {
      "id": 223,
      "content": "<unused_audio85>",
      "single_word": false,
      "lstrip": false,
      "rstrip": false,
      "normalized": false,
      "special": true
    },
    {
      "id": 224,
      "content": "<unused_audio86>",
      "single_word": false,
      "lstrip": false,
      "rstrip": false,
      "normalized": false,
      "special": true
    },
    {
      "id": 225,
      "content": "<unused_audio87>",
      "single_word": false,
      "lstrip": false,
      "rstrip": false,
      "normalized": false,
      "special": true
    },
    {
      "id": 226,
      "content": "<unused_audio88>",
      "single_word": false,
      "lstrip": false,
      "rstrip": false,
      "normalized": false,
      "special": true
    },
    {
      "id": 227,
      "content": "<unused_audio89>",
      "single_word": false,
      "lstrip": false,
      "rstrip": false,
      "normalized": false,
      "special": true
    },
    {
      "id": 228,
      "content": "<unused_audio90>",
      "single_word": false,
      "lstrip": false,
      "rstrip": false,
      "normalized": false,
      "special": true
    },
    {
      "id": 229,
      "content": "<unused_audio91>",
      "single_word": false,
      "lstrip": false,
      "rstrip": false,
      "normalized": false,
      "special": true
    },
    {
      "id": 230,
      "content": "<unused_audio92>",
      "single_word": false,
      "lstrip": false,
      "rstrip": false,
      "normalized": false,
      "special": true
    },
    {
      "id": 231,
      "content": "<unused_audio93>",
      "single_word": false,
      "lstrip": false,
      "rstrip": false,
      "normalized": false,
      "special": true
    },
    {
      "id": 232,
      "content": "<unused_audio94>",
      "single_word": false,
      "lstrip": false,
      "rstrip": false,
      "normalized": false,
      "special": true
    },
    {
      "id": 233,
      "content": "<unused_audio95>",
      "single_word": false,
      "lstrip": false,
      "rstrip": false,
      "normalized": false,
      "special": true
    },
    {
      "id": 234,
      "content": "<unused_audio96>",
      "single_word": false,
      "lstrip": false,
      "rstrip": false,
      "normalized": false,
      "special": true
    },
    {
      "id": 235,
      "content": "<unused_audio97>",
      "single_word": false,
      "lstrip": false,
      "rstrip": false,
      "normalized": false,
      "special": true
    },
    {
      "id": 236,
      "content": "<unused_audio98>",
      "single_word": false,
      "lstrip": false,
      "rstrip": false,
      "normalized": false,
      "special": true
    },
    {
      "id": 237,
      "content": "<unused_audio99>",
      "single_word": false,
      "lstrip": false,
      "rstrip": false,
      "normalized": false,
      "special": true
    },
    {
      "id": 238,
      "content": "<unused_audio100>",
      "single_word": false,
      "lstrip": false,
      "rstrip": false,
      "normalized": false,
      "special": true
    },
    {
      "id": 239,
      "content": "<unused_audio101>",
      "single_word": false,
      "lstrip": false,
      "rstrip": false,
      "normalized": false,
      "special": true
    },
    {
      "id": 240,
      "content": "<unused_audio102>",
      "single_word": false,
      "lstrip": false,
      "rstrip": false,
      "normalized": false,
      "special": true
    },
    {
      "id": 241,
      "content": "<unused_audio103>",
      "single_word": false,
      "lstrip": false,
      "rstrip": false,
      "normalized": false,
      "special": true
    },
    {
      "id": 242,
      "content": "<unused_audio104>",
      "single_word": false,
      "lstrip": false,
      "rstrip": false,
      "normalized": false,
      "special": true
    },
    {
      "id": 243,
      "content": "<unused_audio105>",
      "single_word": false,
      "lstrip": false,
      "rstrip": false,
      "normalized": false,
      "special": true
    },
    {
      "id": 244,
      "content": "<unused_audio106>",
      "single_word": false,
      "lstrip": false,
      "rstrip": false,
      "normalized": false,
      "special": true
    },
    {
      "id": 245,
      "content": "<unused_audio107>",
      "single_word": false,
      "lstrip": false,
      "rstrip": false,
      "normalized": false,
      "special": true
    },
    {
      "id": 246,
      "content": "<unused_audio108>",
      "single_word": false,
      "lstrip": false,
      "rstrip": false,
      "normalized": false,
      "special": true
    },
    {
      "id": 247,
      "content": "<unused_audio109>",
      "single_word": false,
      "lstrip": false,
      "rstrip": false,
      "normalized": false,
      "special": true
    },
    {
      "id": 248,
      "content": "<unused_audio110>",
      "single_word": false,
      "lstrip": false,
      "rstrip": false,
      "normalized": false,
      "special": true
    },
    {
      "id": 249,
      "content": "<unused_audio111>",
      "single_word": false,
      "lstrip": false,
      "rstrip": false,
      "normalized": false,
      "special": true
    },
    {
      "id": 250,
      "content": "<unused_audio112>",
      "single_word": false,
      "lstrip": false,
      "rstrip": false,
      "normalized": false,
      "special": true
    },
    {
      "id": 251,
      "content": "<unused_audio113>",
      "single_word": false,
      "lstrip": false,
      "rstrip": false,
      "normalized": false,
      "special": true
    },
    {
      "id": 252,
      "content": "<unused_audio114>",
      "single_word": false,
      "lstrip": false,
      "rstrip": false,
      "normalized": false,
      "special": true
    },
    {
      "id": 253,
      "content": "<unused_audio115>",
      "single_word": false,
      "lstrip": false,
      "rstrip": false,
      "normalized": false,
      "special": true
    },
    {
      "id": 254,
      "content": "<unused_audio116>",
      "single_word": false,
      "lstrip": false,
      "rstrip": false,
      "normalized": false,
      "special": true
    },
    {
      "id": 255,
      "content": "<unused_audio117>",
      "single_word": false,
      "lstrip": false,
      "rstrip": false,
      "normalized": false,
      "special": true
    },
    {
      "id": 256,
      "content": "<unused_audio118>",
      "single_word": false,
      "lstrip": false,
      "rstrip": false,
      "normalized": false,
      "special": true
    },
    {
      "id": 257,
      "content": "<unused_audio119>",
      "single_word": false,
      "lstrip": false,
      "rstrip": false,
      "normalized": false,
      "special": true
    },
    {
      "id": 258,
      "content": "<unused_audio120>",
      "single_word": false,
      "lstrip": false,
      "rstrip": false,
      "normalized": false,
      "special": true
    },
    {
      "id": 259,
      "content": "<unused_audio121>",
      "single_word": false,
      "lstrip": false,
      "rstrip": false,
      "normalized": false,
      "special": true
    },
    {
      "id": 260,
      "content": "<unused_audio122>",
      "single_word": false,
      "lstrip": false,
      "rstrip": false,
      "normalized": false,
      "special": true
    },
    {
      "id": 261,
      "content": "<unused_audio123>",
      "single_word": false,
      "lstrip": false,
      "rstrip": false,
      "normalized": false,
      "special": true
    },
    {
      "id": 262,
      "content": "<unused_audio124>",
      "single_word": false,
      "lstrip": false,
      "rstrip": false,
      "normalized": false,
      "special": true
    },
    {
      "id": 263,
      "content": "<unused_audio125>",
      "single_word": false,
      "lstrip": false,
      "rstrip": false,
      "normalized": false,
      "special": true
    }
  ],
  "normalizer": {
    "type": "Replace",
    "pattern": {
      "String": " "
    },
    "content": "▁"
  },
  "pre_tokenizer": {
    "type": "Split",
    "pattern": {
      "String": " "
    },
    "behavior": "MergedWithPrevious",
    "invert": false
  },
  "post_processor": {
    "type": "TemplateProcessing",
    "single": [
      {
        "SpecialToken": {
          "id": "<bos>",
          "type_id": 0
        }
      },
      {
        "Sequence": {
          "id": "A",
          "type_id": 0
        }
      }
    ],
    "pair": [
      {
        "SpecialToken": {
          "id": "<bos>",
          "type_id": 0
        }
      },
      {
        "Sequence": {
          "id": "A",
          "type_id": 0
        }
      },
      {
        "SpecialToken": {
          "id": "<bos>",
          "type_id": 1
        }
      },
      {
        "Sequence": {
          "id": "B",
          "type_id": 1
        }
      }
    ],
    "special_tokens": {
      "<bos>": {
        "id": "<bos>",
        "ids": [
          2
        ],
        "tokens": [
          "<bos>"
        ]
      }
    }
  },
  "decoder": {
    "type": "Sequence",
    "decoders": [
      {
        "type": "Replace",
        "pattern": {
          "String": "▁"
        },
        "content": " "
      },
      {
        "type": "ByteFallback"
      },
      {
        "type": "Fuse"
      }
    ]
  },
  "model": {
    "type": "BPE",
    "dropout": null,
    "unk_token": "<unk>",
    "continuing_subword_prefix": null,
    "end_of_word_suffix": null,
    "fuse_unk": true,
    "byte_fallback": true,
    "ignore_merges": false,
    "vocab": {
      "<pad>": 0,
      "<eos>": 1,
      "<bos>": 2,
      "<unk>": 3,
      "<start_of_turn>": 4,
      "<end_of_turn>": 5,
      "<start_of_image>": 6,
      "<start_of_audio>": 7,
      "<end_of_image>": 8,
      "<image_soft_token>": 9,
      "<unused_image0>": 10,
      "<unused_image1>": 11,
      "<unused_image2>": 12,
      "<unused_image3>": 13,
      "<unused_image4>": 14,
      "<unused_image5>": 15,
      "<unused_image6>": 16,
      "<unused_image7>": 17,
      "<unused_image8>": 18,
      "<unused_image9>": 19,
      "<unused_image10>": 20,
      "<unused_image11>": 21,
      "<unused_image12>": 22,
      "<unused_image13>": 23,
      "<unused_image14>": 24,
      "<unused_image15>": 25,
      "<unused_image16>": 26,
      "<unused_image17>": 27,
      "<unused_image18>": 28,
      "<unused_image19>": 29,
      "<unused_image20>": 30,
      "<unused_image21>": 31,
      "<unused_image22>": 32,
      "<unused_image23>": 33,
      "<unused_image24>": 34,
      "<unused_image25>": 35,
      "<unused_image26>": 36,
      "<unused_image27>": 37,
      "<unused_image28>": 38,
      "<unused_image29>": 39,
      "<unused_image30>": 40,
      "<unused_image31>": 41,
      "<unused_image32>": 42,
      "<unused_image33>": 43,
      "<unused_image34>": 44,
      "<unused_image35>": 45,
      "<unused_image36>": 46,
      "<unused_image37>": 47,
      "<unused_image38>": 48,
      "<unused_image39>": 49,
      "<unused_image40>": 50,
      "<unused_image41>": 51,
      "<unused_image42>": 52,
      "<unused_image43>": 53,
      "<unused_image44>": 54,
      "<unused_image45>": 55,
      "<unused_image46>": 56,
      "<unused_image47>": 57,
      "<unused_image48>": 58,
      "<unused_image49>": 59,
      "<unused_image50>": 60,
      "<unused_image51>": 61,
      "<unused_image52>": 62,
      "<unused_image53>": 63,
      "<unused_image54>": 64,
      "<unused_image55>": 65,
      "<unused_image56>": 66,
      "<unused_image57>": 67,
      "<unused_image58>": 68,
      "<unused_image59>": 69,
      "<unused_image60>": 70,
      "<unused_image61>": 71,
      "<unused_image62>": 72,
      "<unused_image63>": 73,
      "<unused_image64>": 74,
      "<unused_image65>": 75,
      "<unused_image66>": 76,
      "<unused_image67>": 77,
      "<unused_image68>": 78,
      "<unused_image69>": 79,
      "<unused_image70>": 80,
      "<unused_image71>": 81,
      "<unused_image72>": 82,
      "<unused_image73>": 83,
      "<unused_image74>": 84,
      "<unused_image75>": 85,
      "<unused_image76>": 86,
      "<unused_image77>": 87,
      "<unused_image78>": 88,
      "<unused_image79>": 89,
      "<unused_image80>": 90,
      "<unused_image81>": 91,
      "<unused_image82>": 92,
      "<unused_image83>": 93,
      "<unused_image84>": 94,
      "<unused_image85>": 95,
      "<unused_image86>": 96,
      "<unused_image87>": 97,
      "<unused_image88>": 98,
      "<unused_image89>": 99,
      "<unused_image90>": 100,
      "<unused_image91>": 101,
      "<unused_image92>": 102,
      "<unused_image93>": 103,
      "<unused_image94>": 104,
      "<unused_image95>": 105,
      "<unused_image96>": 106,
      "<unused_image97>": 107,
      "<unused_image98>": 108,
      "<unused_image99>": 109,
      "<unused_image100>": 110,
      "<unused_image101>": 111,
      "<unused_image102>": 112,
      "<unused_image103>": 113,
      "<unused_image104>": 114,
      "<unused_image105>": 115,
      "<unused_image106>": 116,
      "<unused_image107>": 117,
      "<unused_image108>": 118,
      "<unused_image109>": 119,
      "<unused_image110>": 120,
      "<unused_image111>": 121,
      "<unused_image112>": 122,
      "<unused_image113>": 123,
      "<unused_image114>": 124,
      "<unused_image115>": 125,
      "<unused_image116>": 126,
      "<unused_image117>": 127,
      "<unused_image118>": 128,
      "<unused_image119>": 129,
      "<unused_image120>": 130,
      "<unused_image121>": 131,
      "<unused_image122>": 132,
      "<unused_image123>": 133,
      "<unused_image124>": 134,
      "<unused_image125>": 135,
      "<end_of_audio>": 136,
      "<audio_soft_token>": 137,
      "<unused_audio0>": 138,
      "<unused_audio1>": 139,
      "<unused_audio2>": 140,
      "<unused_audio3>": 141,
      "<unused_audio4>": 142,
      "<unused_audio5>": 143,
      "<unused_audio6>": 144,
      "<unused_audio7>": 145,
      "<unused_audio8>": 146,
      "<unused_audio9>": 147,
      "<unused_audio10>": 148,
      "<unused_audio11>": 149,
      "<unused_audio12>": 150,
      "<unused_audio13>": 151,
      "<unused_audio14>": 152,
      "<unused_audio15>": 153,
      "<unused_audio16>": 154,
      "<unused_audio17>": 155,
      "<unused_audio18>": 156,
      "<unused_audio19>": 157,
      "<unused_audio20>": 158,
      "<unused_audio21>": 159,
      "<unused_audio22>": 160,
      "<unused_audio23>": 161,
      "<unused_audio24>": 162,
      "<unused_audio25>": 163,
      "<unused_audio26>": 164,
      "<unused_audio27>": 165,
      "<unused_audio28>": 166,
      "<unused_audio29>": 167,
      "<unused_audio30>": 168,
      "<unused_audio31>": 169,
      "<unused_audio32>": 170,
      "<unused_audio33>": 171,
      "<unused_audio34>": 172,
      "<unused_audio35>": 173,
      "<unused_audio36>": 174,
      "<unused_audio37>": 175,
      "<unused_audio38>": 176,
      "<unused_audio39>": 177,
      "<unused_audio40>": 178,
      "<unused_audio41>": 179,
      "<unused_audio42>": 180,
      "<unused_audio43>": 181,
      "<unused_audio44>": 182,
      "<unused_audio45>": 183,
      "<unused_audio46>": 184,
      "<unused_audio47>": 185,
      "<unused_audio48>": 186,
      "<unused_audio49>": 187,
      "<unused_audio50>": 188,
      "<unused_audio51>": 189,
      "<unused_audio52>": 190,
      "<unused_audio53>": 191,
      "<unused_audio54>": 192,
      "<unused_audio55>": 193,
      "<unused_audio56>": 194,
      "<unused_audio57>": 195,
      "<unused_audio58>": 196,
      "<unused_audio59>": 197,
      "<unused_audio60>": 198,
      "<unused_audio61>": 199,
      "<unused_audio62>": 200,
      "<unused_audio63>": 201,
      "<unused_audio64>": 202,
      "<unused_audio65>": 203,
      "<unused_audio66>": 204,
      "<unused_audio67>": 205,
      "<unused_audio68>": 206,
      "<unused_audio69>": 207,
      "<unused_audio70>": 208,
      "<unused_audio71>": 209,
      "<unused_audio72>": 210,
      "<unused_audio73>": 211,
      "<unused_audio74>": 212,
      "<unused_audio75>": 213,
      "<unused_audio76>": 214,
      "<unused_audio77>": 215,
      "<unused_audio78>": 216,
      "<unused_audio79>": 217,
      "<unused_audio80>": 218,
      "<unused_audio81>": 219,
      "<unused_audio82>": 220,
      "<unused_audio83>": 221,
      "<unused_audio84>": 222,
      "<unused_audio85>": 223,
      "<unused_audio86>": 224,
      "<unused_audio87>": 225,
      "<unused_audio88>": 226,
      "<unused_audio89>": 227,
      "<unused_audio90>": 228,
      "<unused_audio91>": 229,
      "<unused_audio92>": 230,
      "<unused_audio93>": 231,
      "<unused_audio94>": 232,
      "<unused_audio95>": 233,
      "<unused_audio96>": 234,
      "<unused_audio97>": 235,
      "<unused_audio98>": 236,
      "<unused_audio99>": 237,
      "<unused_audio100>": 238,
      "<unused_audio101>": 239,
      "<unused_audio102>": 240,
      "<unused_audio103>": 241,
      "<unused_audio104>": 242,
      "<unused_audio105>": 243,
      "<unused_audio106>": 244,
      "<unused_audio107>": 245,
      "<unused_audio108>": 246,
      "<unused_audio109>": 247,
      "<unused_audio110>": 248,
      "<unused_audio111>": 249,
      "<unused_audio112>": 250,
      "<unused_audio113>": 251,
      "<unused_audio114>": 252,
      "<unused_audio115>": 253,
      "<unused_audio116>": 254,
      "<unused_audio117>": 255,
      "<unused_audio118>": 256,
      "<unused_audio119>": 257,
      "<unused_audio120>": 258,
      "<unused_audio121>": 259,
      "<unused_audio122>": 260,
      "<unused_audio123>": 261,
      "<unused_audio124>": 262,
      "<unused_audio125>": 263,
      "!": 264,
      "\"": 265,
      "%": 266,
      "&": 267,
      "'": 268,
      "(": 269,
      ")": 270,
      "+": 271,
      ",": 272,
      "-": 273,
      ".": 274,
      "/": 275,
      "0": 276,
      "1": 277,
      "2": 278,
      "3": 279,
      "4": 280,
      "5": 281,
      "6": 282,
      "7": 283,
      "8": 284,
      "9": 285,
      ":": 286,
      ";": 287,
      "?": 288,
      "A": 289,
      "B": 290,
      "C": 291,
      "D": 292,
      "E": 293,
      "F": 294,
      "G": 295,
      "H": 296,
      "I": 297,
      "J": 298,
      "K": 299,
      "L": 300,
      "M": 301,
      "N": 302,
      "O": 303,
      "P": 304,
      "Q": 305,
      "R": 306,
      "S": 307,
      "T": 308,
      "U": 309,
      "V": 310,
      "W": 311,
      "X": 312,
      "Y": 313,
      "Z": 314,
      "[": 315,
      "]": 316,
      "a": 317,
      "b": 318,
      "c": 319,
      "d": 320,
      "e": 321,
      "f": 322,
      "g": 323,
      "h": 324,
      "i": 325,
      "j": 326,
      "k": 327,
      "l": 328,
      "m": 329,
      "n": 330,
      "o": 331,
      "p": 332,
      "q": 333,
      "r": 334,
      "s": 335,
      "t": 336,
      "u": 337,
      "v": 338,
      "w": 339,
      "x": 340,
      "y": 341,
      "z": 342,
      " ": 343,
      "°": 344,
      "²": 345,
      "½": 346,
      "¾": 347,
      "́": 348,
      "̃": 349,
      "̆": 350,
      "̈": 351,
      "А": 352,
      "Б": 353,
      "В": 354,
      "Г": 355,
      "Д": 356,
      "Е": 357,
      "Ж": 358,
      "З": 359,
      "И": 360,
      "К": 361,
      "Л": 362,
      "М": 363,
      "Н": 364,
      "О": 365,
      "П": 366,
      "Р": 367,
      "С": 368,
      "Т": 369,
      "У": 370,
      "Ф": 371,
      "Х": 372,
      "Ц": 373,
      "Ч": 374,
      "Ш": 375,
      "Э": 376,
      "Ю": 377,
      "Я": 378,
      "а": 379,
      "б": 380,
      "в": 381,
      "г": 382,
      "д": 383,
      "е": 384,
      "ж": 385,
      "з": 386,
      "и": 387,
      "к": 388,
      "л": 389,
      "м": 390,
      "н": 391,
      "о": 392,
      "п": 393,
      "р": 394,
      "с": 395,
      "т": 396,
      "у": 397,
      "ф": 398,
      "х": 399,
      "ц": 400,
      "ч": 401,
      "ш": 402,
      "щ": 403,
      "ъ": 404,
      "ы": 405,
      "ь": 406,
      "э": 407,
      "ю": 408,
      "я": 409,
      "‑": 410,
      "–": 411,
      "—": 412,
      "№": 413,
      "▁": 414,
      "▁п": 415,
      "ст": 416,
      "▁в": 417,
      "и▁": 418,
      ",▁": 419,
      "е▁": 420,
      "о▁": 421,
      "й": 422,
      "ни": 423,
      "на": 424,
      "ра": 425,
      "но": 426,
      "ко": 427,
      "ро": 428,
      "ре": 429,
      "то": 430,
      "я▁": 431,
      "ны": 432,
      "ль": 433,
      "▁по": 434,
      "ет": 435,
      "▁с": 436,
      "ва": 437,
      "й▁": 438,
      "ка": 439,
      "ли": 440,
      "ле": 441,
      "ри": 442,
      "не": 443,
      "▁в▁": 444,
      "те": 445,
      "м▁": 446,
      "ла": 447,
      "ме": 448,
      "го": 449,
      "за": 450,
      "та": 451,
      "х▁": 452,
      "ть": 453,
      "да": 454,
      "об": 455,
      "мо": 456,
      "де": 457,
      "во": 458,
      "че": 459,
      "ло": 460,
      "до": 461,
      "ве": 462,
      "ки": 463,
      "ви": 464,
      "ми": 465,
      "т▁": 466,
      "бы": 467,
      "ти": 468,
      "ди": 469,
      "бо": 470,
      "на▁": 471,
      "ру": 472,
      "ма": 473,
      "ча": 474,
      "го▁": 475,
      "ся▁": 476,
      "ци": 477,
      "ли▁": 478,
      "то▁": 479,
      "по": 480,
      "▁про": 481,
      "ста": 482,
      "к▁": 483,
      "из": 484,
      "но▁": 485,
      "ры": 486,
      ",▁ч": 487,
      "у▁": 488,
      "ть▁": 489,
      "ля": 490,
      "же": 491,
      "сто": 492,
      "от": 493,
      "се": 494,
      "▁во": 495,
      "ско": 496,
      "со": 497,
      "ь▁": 498,
      "га": 499,
      "▁при": 500,
      "ся": 501,
      "кото": 502,
      "ы▁": 503,
      "хо": 504,
      "ги": 505,
      "ет▁": 506,
      "чи": 507,
      "нны": 508,
      "ше": 509,
      "в▁": 510,
      "ще": 511,
      "ши": 512,
      "раз": 513,
      "ер": 514,
      "не▁": 515,
      "ски": 516,
      ".▁": 517,
      "ис": 518,
      "▁пре": 519,
      "лю": 520,
      "▁вы": 521,
      "ую": 522,
      "па": 523,
      ",▁что▁": 524,
      "н▁": 525,
      "ния▁": 526,
      "щи": 527,
      "ми▁": 528,
      "ния": 529,
      "си": 530,
      "тель": 531,
      "ност": 532,
      "лу": 533,
      "ние▁": 534,
      "жи": 535,
      "це": 536,
      "а▁": 537,
      "л▁": 538,
      "которы": 539,
      "ту": 540,
      "ду": 541,
      "ние": 542,
      "ной▁": 543,
      "ку": 544,
      "ют": 545,
      "мож": 546,
      "ств": 547,
      "вы": 548,
      "с▁": 549,
      "▁пе": 550,
      "он": 551,
      "вер": 552,
      "стра": 553,
      "вля": 554,
      "ор": 555,
      "са": 556,
      "ля▁": 557,
      "ем": 558,
      "же▁": 559,
      "▁по▁": 560,
      "бе": 561,
      "▁со": 562,
      "рова": 563,
      "ин": 564,
      "мен": 565,
      "бу": 566,
      "ного▁": 567,
      ",▁что": 568,
      "ло▁": 569,
      "▁и▁": 570,
      "как▁": 571,
      "ные▁": 572,
      "ты": 573,
      "▁под": 574,
      "ки▁": 575,
      "су": 576,
      "том": 577,
      "ется▁": 578,
      "вле": 579,
      "или▁": 580,
      "пе": 581,
      "боль": 582,
      "зо": 583,
      "сти": 584,
      "ных▁": 585,
      "ос": 586,
      "кон": 587,
      "зна": 588,
      "рас": 589,
      "из▁": 590,
      "0▁": 591,
      "ну": 592,
      "ны▁": 593,
      "▁пред": 594,
      "гу": 595,
      "жа": 596,
      "гра": 597,
      "для▁": 598,
      "да▁": 599,
      "ла▁": 600,
      "ю▁": 601,
      "ют▁": 602,
      "зы": 603,
      "▁пере": 604,
      "ан": 605,
      "дру": 606,
      "ен": 607,
      "ня": 608,
      "▁вре": 609,
      "част": 610,
      "▁с▁": 611,
      "сле": 612,
      ",▁по": 613,
      "В▁": 614,
      "ко▁": 615,
      ",▁которы": 616,
      "▁ва": 617,
      "от▁": 618,
      "▁ве": 619,
      "ар": 620,
      "▁все": 621,
      "так": 622,
      "стве": 623,
      "сь": 624,
      "явля": 625,
      "пу": 626,
      "ря": 627,
      "это": 628,
      "▁се": 629,
      "фи": 630,
      "сь▁": 631,
      "ую▁": 632,
      "тра": 633,
      "—▁": 634,
      "мы": 635,
      "пи": 636,
      "▁воз": 637,
      "тре": 638,
      "это▁": 639,
      "боле": 640,
      "д▁": 641,
      "му": 642,
      "й▁с": 643,
      "м,▁": 644,
      "ство": 645,
      "ющи": 646,
      "сте": 647,
      "би": 648,
      "й,▁": 649,
      "лет": 650,
      "за▁": 651,
      "й.": 652,
      "ства": 653,
      "стро": 654,
      "ходи": 655,
      "ле▁": 656,
      "рез": 657,
      "ак": 658,
      "ды": 659,
      "ща": 660,
      "од": 661,
      "ска": 662,
      "▁го": 663,
      "▁ви": 664,
      "ком": 665,
      "ться▁": 666,
      "дол": 667,
      ",▁чтобы": 668,
      "мер": 669,
      "▁пра": 670,
      "стоя": 671,
      "ти▁": 672,
      "▁сво": 673,
      "зи": 674,
      "испо": 675,
      "те▁": 676,
      "ное▁": 677,
      "могу": 678,
      "ная▁": 679,
      "чески": 680,
      "ша": 681,
      "стви": 682,
      "нии▁": 683,
      "и.": 684,
      "ется": 685,
      "▁врем": 686,
      "аль": 687,
      "гла": 688,
      "нь": 689,
      "ный▁": 690,
      "до▁": 691,
      "и,▁": 692,
      "ред": 693,
      "исполь": 694,
      "дя": 695,
      "спо": 696,
      "нов": 697,
      "ство▁": 698,
      ",▁в▁": 699,
      "соб": 700,
      "ка▁": 701,
      "та▁": 702,
      "дет": 703,
      "про": 704,
      "рабо": 705,
      "ке": 706,
      "фор": 707,
      "ным▁": 708,
      "мно": 709,
      "которо": 710,
      "ются▁": 711,
      "клю": 712,
      "лы": 713,
      "ции▁": 714,
      "ба": 715,
      "ду▁": 716,
      "сту": 717,
      "лан": 718,
      "в.": 719,
      "р▁": 720,
      "каза": 721,
      "други": 722,
      "его▁": 723,
      "м.": 724,
      "также▁": 725,
      "ес": 726,
      "пра": 727,
      "пре": 728,
      "▁пу": 729,
      "лько▁": 730,
      "теле": 731,
      "ствен": 732,
      ",▁а▁": 733,
      "нача": 734,
      "ность": 735,
      "более▁": 736,
      "она": 737,
      "ца": 738,
      "мест": 739,
      "00▁": 740,
      "де▁": 741,
      "он▁": 742,
      "▁па": 743,
      "ных": 744,
      "ек": 745,
      "ческо": 746,
      "зыва": 747,
      "гда▁": 748,
      "тся▁": 749,
      "сти▁": 750,
      "ном▁": 751,
      "нные▁": 752,
      "их▁": 753,
      "мет": 754,
      "нима": 755,
      "жде": 756,
      ",▁и▁": 757,
      "ми.": 758,
      "ав": 759,
      "ё": 760,
      "ран": 761,
      "того": 762,
      "▁полу": 763,
      "были▁": 764,
      "нных▁": 765,
      "Ко": 766,
      "рт": 767,
      "ные": 768,
      "обы": 769,
      "является▁": 770,
      "На": 771,
      "вет": 772,
      "име": 773,
      "кру": 774,
      "кры": 775,
      "при": 776,
      "ри▁": 777,
      "тро": 778,
      "▁вы▁": 779,
      "ний▁": 780,
      "они▁": 781,
      "\".": 782,
      "Ка": 783,
      "ха": 784,
      ",▁как▁": 785,
      "цен": 786,
      ",▁чтобы▁": 787,
      "▁пер": 788,
      "▁пос": 789,
      "как": 790,
      "▁время▁": 791,
      "20": 792,
      "сть▁": 793,
      "тер": 794,
      "ложе": 795,
      "вя": 796,
      "вши": 797,
      "▁са": 798,
      "обо": 799,
      "горо": 800,
      "19": 801,
      "бли": 802,
      "ни▁": 803,
      ",▁но▁": 804,
      "образ": 805,
      "дела": 806,
      "больш": 807,
      "\"▁": 808,
      "тив": 809,
      "зова": 810,
      "По": 811,
      "му▁": 812,
      "ной": 813,
      "так▁": 814,
      "или": 815,
      "ке▁": 816,
      "сть": 817,
      "ров": 818,
      "люде": 819,
      "Со": 820,
      "зда": 821,
      "се▁": 822,
      "ус": 823,
      "ться": 824,
      "дова": 825,
      "было▁": 826,
      "больши": 827,
      "ную▁": 828,
      "дер": 829,
      "▁прави": 830,
      ",▁на": 831,
      "лове": 832,
      ",▁которые▁": 833,
      ",▁в": 834,
      "кра": 835,
      "м▁с": 836,
      "нь▁": 837,
      "еди": 838,
      "ку▁": 839,
      "х.": 840,
      "обра": 841,
      "был▁": 842,
      "ности▁": 843,
      "может▁": 844,
      "ву": 845,
      "дви": 846,
      "ды▁": 847,
      "ск": 848,
      "ника": 849,
      "таки": 850,
      "дар": 851,
      "оби": 852,
      "ских▁": 853,
      "обыч": 854,
      "ты▁": 855,
      "фо": 856,
      "точ": 857,
      "челове": 858,
      "доста": 859,
      "долж": 860,
      "г▁": 861,
      "оста": 862,
      "ния.": 863,
      "нием▁": 864,
      "ей": 865,
      "оче": 866,
      "тя": 867,
      "ра▁": 868,
      "тов": 869,
      "год": 870,
      "объ": 871,
      "гро": 872,
      "пы": 873,
      "х,▁": 874,
      "стре": 875,
      "вой▁": 876,
      "пол": 877,
      "ей▁": 878,
      "сво": 879,
      "ков": 880,
      "лага": 881,
      "изве": 882,
      "▁предста": 883,
      ":▁": 884,
      "им": 885,
      "ного": 886,
      "▁помо": 887,
      "обще": 888,
      "могут▁": 889,
      ").": 890,
      "личе": 891,
      "логи": 892,
      "жива": 893,
      "Не": 894,
      "для": 895,
      "жда": 896,
      "лся▁": 897,
      "пис": 898,
      "хра": 899,
      "тор": 900,
      "ными▁": 901,
      "лё": 902,
      "мени": 903,
      "быть▁": 904,
      "ской▁": 905,
      "может": 906,
      "орга": 907,
      "▁пи": 908,
      ",▁и": 909,
      "ры▁": 910,
      "следова": 911,
      "ез": 912,
      "язы": 913,
      "дей": 914,
      "ского▁": 915,
      "ся▁в▁": 916,
      "ский▁": 917,
      "ключа": 918,
      "кла": 919,
      "яви": 920,
      ",▁ко": 921,
      "нию": 922,
      "неско": 923,
      "веде": 924,
      "использ": 925,
      ")▁": 926,
      "Во": 927,
      ",▁г": 928,
      "ман": 929,
      "стан": 930,
      "ходя": 931,
      "нный▁": 932,
      "работа": 933,
      "извест": 934,
      "эк": 935,
      "▁в▁с": 936,
      "над": 937,
      "ное": 938,
      "некоторы": 939,
      "доро": 940,
      "пас": 941,
      "использова": 942,
      "Ма": 943,
      "исто": 944,
      "три": 945,
      "▁вз": 946,
      "ль▁": 947,
      "мене": 948,
      "ция▁": 949,
      "живо": 950,
      "▁возмож": 951,
      "форма": 952,
      "Это▁": 953,
      "гру": 954,
      "зва": 955,
      "лли": 956,
      "явле": 957,
      "▁пла": 958,
      ",▁с": 959,
      "куль": 960,
      "ству": 961,
      "могут": 962,
      "образо": 963,
      "бле": 964,
      "и▁по": 965,
      "ре▁": 966,
      "ят": 967,
      "нов▁": 968,
      "лись": 969,
      "гово": 970,
      "через": 971,
      "отно": 972,
      "можно▁": 973,
      "—▁это▁": 974,
      "ства▁": 975,
      "многи": 976,
      "живот": 977,
      "Та": 978,
      "м▁в▁": 979,
      "фе": 980,
      "х▁с": 981,
      "этом": 982,
      "й▁в▁": 983,
      "ниц": 984,
      "нию▁": 985,
      "нова": 986,
      "коро": 987,
      "количе": 988,
      "тов▁": 989,
      "льта": 990,
      "лич": 991,
      "меж": 992,
      "ден": 993,
      "чё": 994,
      "чем▁": 995,
      ".▁О": 996,
      "ность▁": 997,
      "культу": 998,
      "СШ": 999,
      "Се": 1000,
      "гда": 1001,
      "ульта": 1002,
      "низ": 1003,
      "без": 1004,
      "США": 1005,
      "Бо": 1006,
      "дне": 1007,
      "кре": 1008,
      "фа": 1009,
      "▁пар": 1010,
      "и▁на": 1011,
      "й▁по": 1012,
      "ков▁": 1013,
      "род": 1014,
      "ции": 1015,
      "отя▁": 1016,
      "откры": 1017,
      "луч": 1018,
      "результа": 1019,
      "компа": 1020,
      "▁после▁": 1021,
      "Ес": 1022,
      "За": 1023,
      "зем": 1024,
      "оди": 1025,
      "ря▁": 1026,
      "эти": 1027,
      "я,▁": 1028,
      ",▁о": 1029,
      "вать▁": 1030,
      "кан": 1031,
      "лег": 1032,
      "лен": 1033,
      "теше": 1034,
      "зави": 1035,
      "▁произ": 1036,
      "▁вой": 1037,
      "чита": 1038,
      "емы": 1039,
      "ступ": 1040,
      "вро": 1041,
      "есть▁": 1042,
      "смо": 1043,
      "хи": 1044,
      "е▁на": 1045,
      "ник": 1046,
      "лись▁": 1047,
      "ма▁": 1048,
      "стои": 1049,
      "луча": 1050,
      "буд": 1051,
      "суще": 1052,
      "преде": 1053,
      "ональ": 1054,
      "Па": 1055,
      "ге": 1056,
      "уча": 1057,
      "ких▁": 1058,
      "хоро": 1059,
      "тури": 1060,
      "вых▁": 1061,
      "особ": 1062,
      "след": 1063,
      "5▁": 1064,
      "его": 1065,
      "зво": 1066,
      "опреде": 1067,
      "чет": 1068,
      "ва▁": 1069,
      "сторо": 1070,
      "котора": 1071,
      "тельно▁": 1072,
      "распо": 1073,
      "̈▁": 1074,
      "нет": 1075,
      "око": 1076,
      "пер": 1077,
      "уче": 1078,
      "ниче": 1079,
      "находи": 1080,
      "коно": 1081,
      "ком▁": 1082,
      "рев": 1083,
      "▁си": 1084,
      "обла": 1085,
      "▁году": 1086,
      "\",▁": 1087,
      "Ин": 1088,
      "сло": 1089,
      "х▁по": 1090,
      "▁все▁": 1091,
      "ним▁": 1092,
      "рав": 1093,
      "ново": 1094,
      "рес": 1095,
      "льно▁": 1096,
      "каж": 1097,
      "личи": 1098,
      "места": 1099,
      "да.": 1100,
      "ми,▁": 1101,
      "циаль": 1102,
      "ская▁": 1103,
      "▁получи": 1104,
      "истори": 1105,
      "Са": 1106,
      "вра": 1107,
      "е▁по": 1108,
      "кти": 1109,
      "много▁": 1110,
      "рь": 1111,
      "ью": 1112,
      "я.": 1113,
      "–▁": 1114,
      "▁при▁": 1115,
      "рен": 1116,
      "только▁": 1117,
      "ети": 1118,
      "тери": 1119,
      "милли": 1120,
      "дици": 1121,
      "стано": 1122,
      "часто▁": 1123,
      ",▁который▁": 1124,
      "этого▁": 1125,
      "через▁": 1126,
      "дна": 1127,
      "юще": 1128,
      "них▁": 1129,
      "рай": 1130,
      "кой▁": 1131,
      "вать": 1132,
      "води": 1133,
      "был": 1134,
      "ляр": 1135,
      "▁под▁": 1136,
      "судар": 1137,
      "▁важ": 1138,
      "правле": 1139,
      "очень▁": 1140,
      "зависи": 1141,
      "остро": 1142,
      "са▁": 1143,
      "ун": 1144,
      "чу": 1145,
      "что▁": 1146,
      "▁вла": 1147,
      "▁вер": 1148,
      "и▁с": 1149,
      "на.": 1150,
      "но,▁": 1151,
      "но▁в▁": 1152,
      "ней": 1153,
      "даже▁": 1154,
      "дель": 1155,
      "из-": 1156,
      "буду": 1157,
      "▁путеше": 1158,
      "действи": 1159,
      "особен": 1160,
      "ген": 1161,
      "е.": 1162,
      "и▁в▁": 1163,
      "ме▁": 1164,
      "нство▁": 1165,
      "ори": 1166,
      "ут": 1167,
      "эле": 1168,
      "на▁по": 1169,
      "коман": 1170,
      "государ": 1171,
      "ки,▁": 1172,
      "бы▁": 1173,
      "циональ": 1174,
      "пособ": 1175,
      "нным▁": 1176,
      "мень": 1177,
      "основ": 1178,
      "также": 1179,
      "▁себ": 1180,
      "тран": 1181,
      "▁первы": 1182,
      "движе": 1183,
      "около▁": 1184,
      "Ве": 1185,
      "бра": 1186,
      "вре": 1187,
      "дли": 1188,
      "мы▁": 1189,
      "ост": 1190,
      "шо": 1191,
      "ране": 1192,
      "ров▁": 1193,
      "мери": 1194,
      "мини": 1195,
      "была▁": 1196,
      "жен": 1197,
      "нных": 1198,
      "нными▁": 1199,
      "▁высо": 1200,
      "ются": 1201,
      "ствую": 1202,
      "нуж": 1203,
      "друго": 1204,
      "большо": 1205,
      "человек": 1206,
      "▁помощ": 1207,
      "писа": 1208,
      ",▁вы": 1209,
      "Ра": 1210,
      "дву": 1211,
      "мо▁": 1212,
      "ня▁": 1213,
      "тет": 1214,
      "тру": 1215,
      "уда": 1216,
      "фри": 1217,
      ",▁так▁": 1218,
      "низа": 1219,
      "называ": 1220,
      "реги": 1221,
      "том▁": 1222,
      "ны.": 1223,
      "ным": 1224,
      "тели▁": 1225,
      "тан": 1226,
      "ки.": 1227,
      "ские▁": 1228,
      "стране": 1229,
      "глав": 1230,
      "других▁": 1231,
      "автом": 1232,
      "200": 1233,
      "груп": 1234,
      "Пос": 1235,
      "ави": 1236,
      "еще": 1237,
      "кро": 1238,
      "ную": 1239,
      "огра": 1240,
      "спе": 1241,
      "ур": 1242,
      "кой": 1243,
      "лия": 1244,
      "лиза": 1245,
      "м▁и▁": 1246,
      "лось▁": 1247,
      "дов": 1248,
      "мар": 1249,
      "ции.": 1250,
      "▁проти": 1251,
      "стве▁": 1252,
      "знача": 1253,
      ",▁а▁также▁": 1254,
      "должны▁": 1255,
      "несколько▁": 1256,
      "использу": 1257,
      "ствует▁": 1258,
      "расположе": 1259,
      "000▁": 1260,
      "На▁": 1261,
      "она▁": 1262,
      "фек": 1263,
      "цу": 1264,
      "чи▁": 1265,
      ",▁за": 1266,
      "нару": 1267,
      "ной▁с": 1268,
      "ка.": 1269,
      "теля": 1270,
      "голо": 1271,
      "▁прош": 1272,
      "▁пробле": 1273,
      "▁вос": 1274,
      "исследова": 1275,
      "которых▁": 1276,
      "верх": 1277,
      "сут": 1278,
      "если▁": 1279,
      ",▁когда▁": 1280,
      "острова": 1281,
      "автомоби": 1282,
      "̈н": 1283,
      "иг": 1284,
      "пла": 1285,
      "ски▁": 1286,
      "т▁в▁": 1287,
      "тся": 1288,
      "шта": 1289,
      "ян": 1290,
      "и▁и▁": 1291,
      "нитель": 1292,
      "ном": 1293,
      "ноч": 1294,
      "ный": 1295,
      "ными": 1296,
      "▁поли": 1297,
      "кар": 1298,
      "лось": 1299,
      "ру▁": 1300,
      "ция": 1301,
      "▁проис": 1302,
      "сколь": 1303,
      "ет▁на": 1304,
      "разви": 1305,
      "▁предпо": 1306,
      "часть▁": 1307,
      ",▁поэтом": 1308,
      "глас": 1309,
      "фото": 1310,
      ",▁где▁": 1311,
      ",▁при": 1312,
      "n▁": 1313,
      "Га": 1314,
      "Это": 1315,
      "ал": 1316,
      "бро": 1317,
      "и▁про": 1318,
      "ну▁": 1319,
      "оз": 1320,
      "ссо": 1321,
      "участ": 1322,
      "ца▁": 1323,
      ",▁котора": 1324,
      "нирова": 1325,
      "настоя": 1326,
      "▁су": 1327,
      "нер": 1328,
      "общи": 1329,
      "вод": 1330,
      "были": 1331,
      "ответ": 1332,
      "ском▁": 1333,
      "ности": 1334,
      "вые▁": 1335,
      "пера": 1336,
      "▁всех▁": 1337,
      "ствова": 1338,
      "ющих": 1339,
      "ланди": 1340,
      "больше▁": 1341,
      "▁правитель": 1342,
      "достаточ": 1343,
      "Дж": 1344,
      "Зем": 1345,
      "Ки": 1346,
      "Одна": 1347,
      "дь": 1348,
      "ем▁": 1349,
      "жиз": 1350,
      "онов▁": 1351,
      "сы": 1352,
      "сси": 1353,
      "ту▁": 1354,
      "ше▁": 1355,
      "ще▁": 1356,
      "сты": 1357,
      "▁в▁по": 1358,
      ",▁не": 1359,
      ",▁которо": 1360,
      ",▁как": 1361,
      ",▁чем▁": 1362,
      "нии": 1363,
      "назва": 1364,
      "рами": 1365,
      "рей": 1366,
      "реше": 1367,
      "тори": 1368,
      "ны▁в▁": 1369,
      "▁попу": 1370,
      "ках▁": 1371,
      "ней▁": 1372,
      "него▁": 1373,
      "место": 1374,
      "обре": 1375,
      "обходи": 1376,
      "кие▁": 1377,
      "тирова": 1378,
      "ми▁и▁": 1379,
      "страна": 1380,
      "зопас": 1381,
      "распро": 1382,
      "ческих▁": 1383,
      "способ": 1384,
      "много": 1385,
      "обычно▁": 1386,
      ":▁\"": 1387,
      "Боль": 1388,
      "зависимо": 1389,
      "11": 1390,
      "Го": 1391,
      "емо": 1392,
      "л▁в▁": 1393,
      "мпи": 1394,
      "т.": 1395,
      "эконо": 1396,
      "стру": 1397,
      "▁во▁": 1398,
      "ний": 1399,
      "раже": 1400,
      "торо": 1401,
      "▁собо": 1402,
      "вари": 1403,
      "каче": 1404,
      "тече": 1405,
      "дости": 1406,
      "мир": 1407,
      "цию": 1408,
      "пор": 1409,
      "безопас": 1410,
      "инте": 1411,
      "информа": 1412,
      "▁поддер": 1413,
      "значи": 1414,
      "являются▁": 1415,
      "ческой▁": 1416,
      "авто": 1417,
      "пример": 1418,
      "усло": 1419,
      "организа": 1420,
      "транспо": 1421,
      ",▁по▁": 1422,
      "16": 1423,
      "Ис": 1424,
      "Лу": 1425,
      "дж": 1426,
      "доб": 1427,
      "л,▁что▁": 1428,
      "м▁с▁": 1429,
      "н▁в▁": 1430,
      "уни": 1431,
      "ху": 1432,
      "це▁": 1433,
      "что": 1434,
      "ний.": 1435,
      "нии,▁": 1436,
      "рак": 1437,
      "▁сказа": 1438,
      "й▁и▁": 1439,
      "лась▁": 1440,
      "гото": 1441,
      "запа": 1442,
      "заяви": 1443,
      "момен": 1444,
      "быть": 1445,
      "мати": 1446,
      "часто": 1447,
      "▁проце": 1448,
      "▁приве": 1449,
      "ских": 1450,
      "ующи": 1451,
      "ния▁в▁": 1452,
      "туа": 1453,
      "ние.": 1454,
      "верше": 1455,
      "страда": 1456,
      "больше": 1457,
      "значе": 1458,
      "сказа": 1459,
      "ется▁в▁": 1460,
      "▁время": 1461,
      "круп": 1462,
      "вяза": 1463,
      "может▁быть▁": 1464,
      "объек": 1465,
      "Некоторы": 1466,
      "некоторые▁": 1467,
      "между▁": 1468,
      "будет▁": 1469,
      "экономи": 1470,
      "00": 1471,
      "10▁": 1472,
      "Ав": 1473,
      "Си": 1474,
      "Фран": 1475,
      "Хотя▁": 1476,
      "Эти▁": 1477,
      "кто": 1478,
      "лся": 1479,
      "они": 1480,
      "сса": 1481,
      "сред": 1482,
      "цы▁": 1483,
      "ст▁": 1484,
      "ная": 1485,
      "но▁по": 1486,
      "ному": 1487,
      "лько": 1488,
      "лива": 1489,
      "мог": 1490,
      "мой▁": 1491,
      "лод": 1492,
      "лом▁": 1493,
      "ложи": 1494,
      "дов▁": 1495,
      "миль": 1496,
      "бова": 1497,
      "матери": 1498,
      "циа": 1499,
      "селе": 1500,
      "ган": 1501,
      "верси": 1502,
      "тыва": 1503,
      "контро": 1504,
      "грам": 1505,
      "▁времени": 1506,
      "актив": 1507,
      "▁году▁": 1508,
      "ческие▁": 1509,
      "шая▁": 1510,
      "ключе": 1511,
      "прави": 1512,
      ",▁включа": 1513,
      "отноше": 1514,
      "многих▁": 1515,
      "Если": 1516,
      "вропе": 1517,
      "4▁": 1518,
      "e▁": 1519,
      "Ар": 1520,
      "Афри": 1521,
      "Бу": 1522,
      "Да": 1523,
      "Лю": 1524,
      "Ми": 1525,
      "Мо": 1526,
      "Но": 1527,
      "Они▁": 1528,
      "Про": 1529,
      "бо▁": 1530,
      "зре": 1531,
      "их": 1532,
      "кри": 1533,
      "м▁по": 1534,
      "оке": 1535,
      "сла": 1536,
      "сы▁": 1537,
      "слу": 1538,
      "тря▁": 1539,
      "уч": 1540,
      "▁пло": 1541,
      "стер": 1542,
      ",▁а": 1543,
      "йте": 1544,
      "ний,▁": 1545,
      "нии.": 1546,
      "нан": 1547,
      "ны,▁": 1548,
      "ли,▁что▁": 1549,
      "тех": 1550,
      "тем▁": 1551,
      "ть▁сво": 1552,
      "дале": 1553,
      "обнару": 1554,
      "чески▁": 1555,
      "изи": 1556,
      "скоре": 1557,
      "га▁": 1558,
      "▁приня": 1559,
      "ход": 1560,
      "будет": 1561,
      ",▁которые": 1562,
      "▁всего": 1563,
      "этой▁": 1564,
      ",▁в▁которо": 1565,
      "центра": 1566,
      "▁самы": 1567,
      "▁правило": 1568,
      "тяже": 1569,
      "езд": 1570,
      "▁произо": 1571,
      "стоит▁": 1572,
      "авиа": 1573,
      "распростране": 1574,
      "Он▁": 1575,
      "Сан": 1576,
      "гри": 1577,
      "ди▁": 1578,
      "з▁": 1579,
      "нг": 1580,
      "нного▁": 1581,
      "ок": 1582,
      "ро▁": 1583,
      "со▁": 1584,
      "хотя▁": 1585,
      ",▁со": 1586,
      ",▁не▁": 1587,
      "е▁и▁": 1588,
      "нико": 1589,
      "това": 1590,
      "▁послед": 1591,
      "казыва": 1592,
      "лиш": 1593,
      "лича": 1594,
      "лимпи": 1595,
      "лень": 1596,
      "лаго": 1597,
      "лась": 1598,
      "гор": 1599,
      "та.": 1600,
      "ть,▁": 1601,
      "допол": 1602,
      "доступ": 1603,
      "мина": 1604,
      "было": 1605,
      "ции,▁": 1606,
      "▁во▁время▁": 1607,
      "▁призна": 1608,
      ".▁В▁": 1609,
      "любо": 1610,
      "пан": 1611,
      "▁пери": 1612,
      "▁созда": 1613,
      "тыся": 1614,
      "телей▁": 1615,
      "тернет": 1616,
      "такие▁": 1617,
      "▁представи": 1618,
      "▁представля": 1619,
      "использую": 1620,
      "надца": 1621,
      "образова": 1622,
      "лучше": 1623,
      "результате▁": 1624,
      "из-за▁": 1625,
      "особенно▁": 1626,
      "▁себя▁": 1627,
      "ограниче": 1628,
      "скольку▁": 1629,
      "-ли": 1630,
      "17": 1631,
      "18": 1632,
      "ar": 1633,
      "er": 1634,
      "in": 1635,
      "До": 1636,
      "То": 1637,
      "бри": 1638,
      "дра": 1639,
      "дво": 1640,
      "е▁в▁": 1641,
      "ино": 1642,
      "им▁": 1643,
      "лет▁": 1644,
      "опас": 1645,
      "означа": 1646,
      "пин": 1647,
      "сдела": 1648,
      "учи": 1649,
      "уще": 1650,
      "ффек": 1651,
      "ью▁": 1652,
      "яс": 1653,
      "▁(": 1654,
      "▁включа": 1655,
      "йских▁": 1656,
      "▁поч": 1657,
      "ете": 1658,
      "ли▁в▁": 1659,
      "не.": 1660,
      "нее▁": 1661,
      "необходи": 1662,
      "тем": 1663,
      "гон": 1664,
      "ть.": 1665,
      "дом▁": 1666,
      "дово": 1667,
      "досто": 1668,
      "ким▁": 1669,
      "быва": 1670,
      "тия▁": 1671,
      "маши": 1672,
      "цио": 1673,
      "ть▁на": 1674,
      "ть▁на▁": 1675,
      "различ": 1676,
      "▁предоста": 1677,
      "▁выбо": 1678,
      "ности.": 1679,
      "нием": 1680,
      "страли": 1681,
      "том,▁что▁": 1682,
      "традици": 1683,
      "▁виде": 1684,
      "другие▁": 1685,
      "ческого▁": 1686,
      "▁получе": 1687,
      "вяз": 1688,
      "▁само": 1689,
      "город": 1690,
      "годня": 1691,
      "относи": 1692,
      "Если▁": 1693,
      "четы": 1694,
      "становле": 1695,
      "нужно▁": 1696,
      "После▁": 1697,
      "▁против▁": 1698,
      "настояще": 1699,
      "услови": 1700,
      "тря▁на▁": 1701,
      ",▁про": 1702,
      "0-": 1703,
      "6▁": 1704,
      "Ва": 1705,
      "Пи": 1706,
      "При": 1707,
      "Пер": 1708,
      "бер": 1709,
      "ее▁": 1710,
      "еся▁": 1711,
      "еха": 1712,
      "жчи": 1713,
      "нта": 1714,
      "сс": 1715,
      "тся▁в▁": 1716,
      "фун": 1717,
      "стри": 1718,
      "▁влия": 1719,
      "йте▁": 1720,
      "раль": 1721,
      "новы": 1722,
      "ре.": 1723,
      "то,▁что▁": 1724,
      "▁посе": 1725,
      "▁сле": 1726,
      "ка,▁": 1727,
      "ката": 1728,
      "нё": 1729,
      "неч": 1730,
      "несе": 1731,
      "меся": 1732,
      "гов": 1733,
      "обви": 1734,
      "лож": 1735,
      "видет": 1736,
      "малень": 1737,
      "цион": 1738,
      "▁продол": 1739,
      "сточ": 1740,
      "отдель": 1741,
      "себ": 1742,
      "▁пример": 1743,
      "ших▁": 1744,
      "ния▁и▁": 1745,
      "ют,▁что▁": 1746,
      "можно": 1747,
      "мента": 1748,
      "ки▁и▁": 1749,
      "тому▁": 1750,
      "▁предлага": 1751,
      "▁переда": 1752,
      "▁вари": 1753,
      "фициаль": 1754,
      "требу": 1755,
      "требова": 1756,
      "более": 1757,
      "ющие▁": 1758,
      "бира": 1759,
      "дый▁": 1760,
      "одним▁": 1761,
      "▁практи": 1762,
      "ческий▁": 1763,
      "ностью": 1764,
      "место▁": 1765,
      "ждения▁": 1766,
      "един": 1767,
      "▁взя": 1768,
      "количество▁": 1769,
      "один▁": 1770,
      "элек": 1771,
      "двух▁": 1772,
      "гласно▁": 1773,
      "Некоторые▁": 1774,
      "верситет": 1775,
      "дополнитель": 1776,
      "\"▁и▁": 1777,
      "),▁": 1778,
      "1▁": 1779,
      ";▁": 1780,
      "II": 1781,
      "Для▁": 1782,
      "С▁": 1783,
      "Юж": 1784,
      "аб": 1785,
      "гре": 1786,
      "два": 1787,
      "её": 1788,
      "еще▁": 1789,
      "зу": 1790,
      "зя": 1791,
      "кту": 1792,
      "лы▁": 1793,
      "л:▁\"": 1794,
      "нк": 1795,
      "оказа": 1796,
      "пло": 1797,
      "твер": 1798,
      "физи": 1799,
      "хва": 1800,
      "чь": 1801,
      "шко": 1802,
      "энер": 1803,
      "эффек": 1804,
      "яза": 1805,
      "▁у": 1806,
      "▁пти": 1807,
      "ств▁": 1808,
      "и▁не": 1809,
      "йти▁": 1810,
      "но.": 1811,
      "нове": 1812,
      "ному▁": 1813,
      "нологи": 1814,
      "кого▁": 1815,
      "роди": 1816,
      "реко": 1817,
      "той▁": 1818,
      "то▁время▁": 1819,
      "ный▁с": 1820,
      "▁пол": 1821,
      "▁побе": 1822,
      "ли.": 1823,
      "лев": 1824,
      "м▁(": 1825,
      "меча": 1826,
      "месте": 1827,
      "деся": 1828,
      "день": 1829,
      "была": 1830,
      "став": 1831,
      "отсут": 1832,
      "состоя": 1833,
      "▁причи": 1834,
      "широ": 1835,
      "люда": 1836,
      "ния,▁": 1837,
      "ку.": 1838,
      "меня": 1839,
      "основа": 1840,
      "жар": 1841,
      "графи": 1842,
      "▁вас▁": 1843,
      "▁всё▁": 1844,
      "является": 1845,
      "▁север": 1846,
      "▁возду": 1847,
      "строи": 1848,
      "▁года": 1849,
      "множе": 1850,
      "лыж": 1851,
      "правля": 1852,
      "ностью▁": 1853,
      "имеет▁": 1854,
      "ться.": 1855,
      "скую▁": 1856,
      ",▁где": 1857,
      "лись▁в▁": 1858,
      "этих▁": 1859,
      "ступле": 1860,
      "зволя": 1861,
      "острово": 1862,
      "▁путешестви": 1863,
      "ещё▁": 1864,
      ",▁поэтому▁": 1865,
      "зависимости▁": 1866,
      "▁произош": 1867,
      ",▁под": 1868,
      "or": 1869,
      "Ви": 1870,
      "Гер": 1871,
      "Его▁": 1872,
      "Пе": 1873,
      "По▁": 1874,
      "Ре": 1875,
      "У▁": 1876,
      "благо": 1877,
      "в.▁": 1878,
      "гля": 1879,
      "зы▁": 1880,
      "зон": 1881,
      "имен": 1882,
      "игра": 1883,
      "кли": 1884,
      "кло": 1885,
      "кто▁": 1886,
      "лн": 1887,
      "лле": 1888,
      "нной▁": 1889,
      "ологи": 1890,
      "счита": 1891,
      "три▁": 1892,
      "уже▁": 1893,
      "угро": 1894,
      "шру": 1895,
      "ях▁": 1896,
      "▁пы": 1897,
      "▁пя": 1898,
      "▁пря": 1899,
      "▁вет": 1900,
      "▁вну": 1901,
      "▁внима": 1902,
      "▁встре": 1903,
      "▁второ": 1904,
      "ник▁": 1905,
      "находя": 1906,
      "роят": 1907,
      "рели": 1908,
      "льные▁": 1909,
      "вар": 1910,
      "лирова": 1911,
      "нес": 1912,
      "непо": 1913,
      "заня": 1914,
      "занима": 1915,
      "там▁": 1916,
      "ть▁в▁": 1917,
      "мор": 1918,
      "вое": 1919,
      "миро": 1920,
      "мину": 1921,
      "бога": 1922,
      "цию▁": 1923,
      "ставля": 1924,
      "к▁и▁": 1925,
      "жен▁": 1926,
      "созда": 1927,
      "▁приро": 1928,
      "▁прибли": 1929,
      "чис": 1930,
      "па▁": 1931,
      "ности,▁": 1932,
      "ние▁в▁": 1933,
      "кус": 1934,
      "верши": 1935,
      "гражда": 1936,
      ",▁поскольку▁": 1937,
      "▁вам▁": 1938,
      "публи": 1939,
      "▁севе": 1940,
      "мужчи": 1941,
      "одной▁": 1942,
      "комп": 1943,
      "если": 1944,
      "того,▁": 1945,
      "▁перво": 1946,
      "▁посети": 1947,
      "людей,▁": 1948,
      "большин": 1949,
      "большинство▁": 1950,
      "держа": 1951,
      "очень": 1952,
      "▁представле": 1953,
      "животных": 1954,
      "США▁": 1955,
      "–▁это▁": 1956,
      "миллионов▁": 1957,
      "меньше": 1958,
      "мерикан": 1959,
      "достаточно▁": 1960,
      "Кита": 1961,
      "▁популяр": 1962,
      "Больши": 1963,
      "Австрали": 1964,
      "8▁": 1965,
      "an": 1966,
      "es": 1967,
      "ro": 1968,
      "Кро": 1969,
      "Ни": 1970,
      "Пу": 1971,
      "Так": 1972,
      "Япо": 1973,
      "ат": 1974,
      "бан": 1975,
      "ги▁": 1976,
      "глу": 1977,
      "грес": 1978,
      "д.": 1979,
      "дже": 1980,
      "два▁": 1981,
      "европе": 1982,
      "зде": 1983,
      "иде": 1984,
      "лся▁в▁": 1985,
      "мь": 1986,
      "мя": 1987,
      "огро": 1988,
      "у,▁": 1989,
      "уве": 1990,
      "че▁": 1991,
      "юж": 1992,
      "я▁по": 1993,
      "стем": 1994,
      "и▁за": 1995,
      ",▁у": 1996,
      "е▁за": 1997,
      "й▁в": 1998,
      "наи": 1999
    },
    "merges": [
      [
        "▁",
        "п"
      ],
      [
        "с",
        "т"
      ],
      [
        "▁",
        "в"
      ],
      [
        "и",
        "▁"
      ],
      [
        ",",
        "▁"
      ],
      [
        "е",
        "▁"
      ],
      [
        "о",
        "▁"
      ],
      [
        "и",
        "̆"
      ],
      [
        "н",
        "и"
      ],
      [
        "н",
        "а"
      ],
      [
        "р",
        "а"
      ],
      [
        "н",
        "о"
      ],
      [
        "к",
        "о"
      ],
      [
        "р",
        "о"
      ],
      [
        "р",
        "е"
      ],
      [
        "т",
        "о"
      ],
      [
        "я",
        "▁"
      ],
      [
        "н",
        "ы"
      ],
      [
        "л",
        "ь"
      ],
      [
        "▁п",
        "о"
      ],
      [
        "е",
        "т"
      ],
      [
        "▁",
        "с"
      ],
      [
        "в",
        "а"
      ],
      [
        "й",
        "▁"
      ],
      [
        "к",
        "а"
      ],
      [
        "л",
        "и"
      ],
      [
        "л",
        "е"
      ],
      [
        "р",
        "и"
      ],
      [
        "н",
        "е"
      ],
      [
        "▁в",
        "▁"
      ],
      [
        "т",
        "е"
      ],
      [
        "м",
        "▁"
      ],
      [
        "л",
        "а"
      ],
      [
        "м",
        "е"
      ],
      [
        "г",
        "о"
      ],
      [
        "з",
        "а"
      ],
      [
        "т",
        "а"
      ],
      [
        "х",
        "▁"
      ],
      [
        "т",
        "ь"
      ],
      [
        "д",
        "а"
      ],
      [
        "о",
        "б"
      ],
      [
        "м",
        "о"
      ],
      [
        "д",
        "е"
      ],
      [
        "в",
        "о"
      ],
      [
        "ч",
        "е"
      ],
      [
        "л",
        "о"
      ],
      [
        "д",
        "о"
      ],
      [
        "в",
        "е"
      ],
      [
        "к",
        "и"
      ],
      [
        "в",
        "и"
      ],
      [
        "м",
        "и"
      ],
      [
        "т",
        "▁"
      ],
      [
        "б",
        "ы"
      ],
      [
        "т",
        "и"
      ],
      [
        "д",
        "и"
      ],
      [
        "б",
        "о"
      ],
      [
        "на",
        "▁"
      ],
      [
        "р",
        "у"
      ],
      [
        "м",
        "а"
      ],
      [
        "ч",
        "а"
      ],
      [
        "г",
        "о▁"
      ],
      [
        "с",
        "я▁"
      ],
      [
        "ц",
        "и"
      ],
      [
        "л",
        "и▁"
      ],
      [
        "т",
        "о▁"
      ],
      [
        "п",
        "о"
      ],
      [
        "▁п",
        "ро"
      ],
      [
        "ст",
        "а"
      ],
      [
        "к",
        "▁"
      ],
      [
        "и",
        "з"
      ],
      [
        "н",
        "о▁"
      ],
      [
        "р",
        "ы"
      ],
      [
        ",▁",
        "ч"
      ],
      [
        "у",
        "▁"
      ],
      [
        "ть",
        "▁"
      ],
      [
        "л",
        "я"
      ],
      [
        "ж",
        "е"
      ],
      [
        "ст",
        "о"
      ],
      [
        "о",
        "т"
      ],
      [
        "с",
        "е"
      ],
      [
        "▁в",
        "о"
      ],
      [
        "с",
        "ко"
      ],
      [
        "с",
        "о"
      ],
      [
        "ь",
        "▁"
      ],
      [
        "г",
        "а"
      ],
      [
        "▁п",
        "ри"
      ],
      [
        "с",
        "я"
      ],
      [
        "ко",
        "то"
      ],
      [
        "ы",
        "▁"
      ],
      [
        "х",
        "о"
      ],
      [
        "г",
        "и"
      ],
      [
        "ет",
        "▁"
      ],
      [
        "ч",
        "и"
      ],
      [
        "н",
        "ны"
      ],
      [
        "ш",
        "е"
      ],
      [
        "в",
        "▁"
      ],
      [
        "щ",
        "е"
      ],
      [
        "ш",
        "и"
      ],
      [
        "ра",
        "з"
      ],
      [
        "е",
        "р"
      ],
      [
        "н",
        "е▁"
      ],
      [
        "с",
        "ки"
      ],
      [
        ".",
        "▁"
      ],
      [
        "и",
        "с"
      ],
      [
        "▁п",
        "ре"
      ],
      [
        "л",
        "ю"
      ],
      [
        "▁в",
        "ы"
      ],
      [
        "у",
        "ю"
      ],
      [
        "п",
        "а"
      ],
      [
        ",▁ч",
        "то▁"
      ],
      [
        "н",
        "▁"
      ],
      [
        "ни",
        "я▁"
      ],
      [
        "щ",
        "и"
      ],
      [
        "м",
        "и▁"
      ],
      [
        "ни",
        "я"
      ],
      [
        "с",
        "и"
      ],
      [
        "те",
        "ль"
      ],
      [
        "но",
        "ст"
      ],
      [
        "л",
        "у"
      ],
      [
        "ни",
        "е▁"
      ],
      [
        "ж",
        "и"
      ],
      [
        "ц",
        "е"
      ],
      [
        "а",
        "▁"
      ],
      [
        "л",
        "▁"
      ],
      [
        "кото",
        "ры"
      ],
      [
        "т",
        "у"
      ],
      [
        "д",
        "у"
      ],
      [
        "ни",
        "е"
      ],
      [
        "но",
        "й▁"
      ],
      [
        "к",
        "у"
      ],
      [
        "ю",
        "т"
      ],
      [
        "мо",
        "ж"
      ],
      [
        "ст",
        "в"
      ],
      [
        "в",
        "ы"
      ],
      [
        "с",
        "▁"
      ],
      [
        "▁п",
        "е"
      ],
      [
        "о",
        "н"
      ],
      [
        "ве",
        "р"
      ],
      [
        "ст",
        "ра"
      ],
      [
        "в",
        "ля"
      ],
      [
        "о",
        "р"
      ],
      [
        "с",
        "а"
      ],
      [
        "л",
        "я▁"
      ],
      [
        "е",
        "м"
      ],
      [
        "ж",
        "е▁"
      ],
      [
        "▁п",
        "о▁"
      ],
      [
        "б",
        "е"
      ],
      [
        "▁с",
        "о"
      ],
      [
        "ро",
        "ва"
      ],
      [
        "и",
        "н"
      ],
      [
        "ме",
        "н"
      ],
      [
        "б",
        "у"
      ],
      [
        "но",
        "го▁"
      ],
      [
        ",▁ч",
        "то"
      ],
      [
        "л",
        "о▁"
      ],
      [
        "▁",
        "и▁"
      ],
      [
        "ка",
        "к▁"
      ],
      [
        "ны",
        "е▁"
      ],
      [
        "т",
        "ы"
      ],
      [
        "▁по",
        "д"
      ],
      [
        "к",
        "и▁"
      ],
      [
        "с",
        "у"
      ],
      [
        "то",
        "м"
      ],
      [
        "ет",
        "ся▁"
      ],
      [
        "в",
        "ле"
      ],
      [
        "и",
        "ли▁"
      ],
      [
        "п",
        "е"
      ],
      [
        "бо",
        "ль"
      ],
      [
        "з",
        "о"
      ],
      [
        "ст",
        "и"
      ],
      [
        "ны",
        "х▁"
      ],
      [
        "о",
        "с"
      ],
      [
        "ко",
        "н"
      ],
      [
        "з",
        "на"
      ],
      [
        "ра",
        "с"
      ],
      [
        "из",
        "▁"
      ],
      [
        "0",
        "▁"
      ],
      [
        "н",
        "у"
      ],
      [
        "ны",
        "▁"
      ],
      [
        "▁пре",
        "д"
      ],
      [
        "г",
        "у"
      ],
      [
        "ж",
        "а"
      ],
      [
        "г",
        "ра"
      ],
      [
        "д",
        "ля▁"
      ],
      [
        "да",
        "▁"
      ],
      [
        "ла",
        "▁"
      ],
      [
        "ю",
        "▁"
      ],
      [
        "ю",
        "т▁"
      ],
      [
        "з",
        "ы"
      ],
      [
        "▁пе",
        "ре"
      ],
      [
        "а",
        "н"
      ],
      [
        "д",
        "ру"
      ],
      [
        "е",
        "н"
      ],
      [
        "н",
        "я"
      ],
      [
        "▁в",
        "ре"
      ],
      [
        "ча",
        "ст"
      ],
      [
        "▁с",
        "▁"
      ],
      [
        "с",
        "ле"
      ],
      [
        ",",
        "▁по"
      ],
      [
        "В",
        "▁"
      ],
      [
        "к",
        "о▁"
      ],
      [
        ",▁",
        "которы"
      ],
      [
        "▁в",
        "а"
      ],
      [
        "о",
        "т▁"
      ],
      [
        "▁в",
        "е"
      ],
      [
        "а",
        "р"
      ],
      [
        "▁в",
        "се"
      ],
      [
        "та",
        "к"
      ],
      [
        "ст",
        "ве"
      ],
      [
        "с",
        "ь"
      ],
      [
        "я",
        "вля"
      ],
      [
        "п",
        "у"
      ],
      [
        "р",
        "я"
      ],
      [
        "э",
        "то"
      ],
      [
        "▁с",
        "е"
      ],
      [
        "ф",
        "и"
      ],
      [
        "с",
        "ь▁"
      ],
      [
        "ую",
        "▁"
      ],
      [
        "т",
        "ра"
      ],
      [
        "—",
        "▁"
      ],
      [
        "м",
        "ы"
      ],
      [
        "п",
        "и"
      ],
      [
        "▁во",
        "з"
      ],
      [
        "т",
        "ре"
      ],
      [
        "э",
        "то▁"
      ],
      [
        "бо",
        "ле"
      ],
      [
        "д",
        "▁"
      ],
      [
        "м",
        "у"
      ],
      [
        "й",
        "▁с"
      ],
      [
        "м",
        ",▁"
      ],
      [
        "ст",
        "во"
      ],
      [
        "ю",
        "щи"
      ],
      [
        "ст",
        "е"
      ],
      [
        "б",
        "и"
      ],
      [
        "й",
        ",▁"
      ],
      [
        "л",
        "ет"
      ],
      [
        "за",
        "▁"
      ],
      [
        "й",
        "."
      ],
      [
        "ст",
        "ва"
      ],
      [
        "ст",
        "ро"
      ],
      [
        "хо",
        "ди"
      ],
      [
        "л",
        "е▁"
      ],
      [
        "ре",
        "з"
      ],
      [
        "а",
        "к"
      ],
      [
        "д",
        "ы"
      ],
      [
        "щ",
        "а"
      ],
      [
        "о",
        "д"
      ],
      [
        "с",
        "ка"
      ],
      [
        "▁",
        "го"
      ],
      [
        "▁в",
        "и"
      ],
      [
        "ко",
        "м"
      ],
      [
        "ть",
        "ся▁"
      ],
      [
        "до",
        "л"
      ],
      [
        ",▁что",
        "бы"
      ],
      [
        "ме",
        "р"
      ],
      [
        "▁п",
        "ра"
      ],
      [
        "сто",
        "я"
      ],
      [
        "т",
        "и▁"
      ],
      [
        "▁с",
        "во"
      ],
      [
        "з",
        "и"
      ],
      [
        "ис",
        "по"
      ],
      [
        "т",
        "е▁"
      ],
      [
        "но",
        "е▁"
      ],
      [
        "мо",
        "гу"
      ],
      [
        "на",
        "я▁"
      ],
      [
        "че",
        "ски"
      ],
      [
        "ш",
        "а"
      ],
      [
        "ст",
        "ви"
      ],
      [
        "ни",
        "и▁"
      ],
      [
        "и",
        "."
      ],
      [
        "ет",
        "ся"
      ],
      [
        "▁вре",
        "м"
      ],
      [
        "а",
        "ль"
      ],
      [
        "г",
        "ла"
      ],
      [
        "н",
        "ь"
      ],
      [
        "ны",
        "й▁"
      ],
      [
        "д",
        "о▁"
      ],
      [
        "и",
        ",▁"
      ],
      [
        "ре",
        "д"
      ],
      [
        "испо",
        "ль"
      ],
      [
        "д",
        "я"
      ],
      [
        "с",
        "по"
      ],
      [
        "но",
        "в"
      ],
      [
        "ств",
        "о▁"
      ],
      [
        ",",
        "▁в▁"
      ],
      [
        "с",
        "об"
      ],
      [
        "ка",
        "▁"
      ],
      [
        "та",
        "▁"
      ],
      [
        "д",
        "ет"
      ],
      [
        "п",
        "ро"
      ],
      [
        "ра",
        "бо"
      ],
      [
        "к",
        "е"
      ],
      [
        "ф",
        "ор"
      ],
      [
        "ны",
        "м▁"
      ],
      [
        "м",
        "но"
      ],
      [
        "кото",
        "ро"
      ],
      [
        "ют",
        "ся▁"
      ],
      [
        "к",
        "лю"
      ],
      [
        "л",
        "ы"
      ],
      [
        "ци",
        "и▁"
      ],
      [
        "б",
        "а"
      ],
      [
        "д",
        "у▁"
      ],
      [
        "ст",
        "у"
      ],
      [
        "ла",
        "н"
      ],
      [
        "в",
        "."
      ],
      [
        "р",
        "▁"
      ],
      [
        "ка",
        "за"
      ],
      [
        "дру",
        "ги"
      ],
      [
        "е",
        "го▁"
      ],
      [
        "м",
        "."
      ],
      [
        "так",
        "же▁"
      ],
      [
        "е",
        "с"
      ],
      [
        "п",
        "ра"
      ],
      [
        "п",
        "ре"
      ],
      [
        "▁п",
        "у"
      ],
      [
        "ль",
        "ко▁"
      ],
      [
        "те",
        "ле"
      ],
      [
        "стве",
        "н"
      ],
      [
        ",▁",
        "а▁"
      ],
      [
        "на",
        "ча"
      ],
      [
        "ност",
        "ь"
      ],
      [
        "боле",
        "е▁"
      ],
      [
        "о",
        "на"
      ],
      [
        "ц",
        "а"
      ],
      [
        "ме",
        "ст"
      ],
      [
        "0",
        "0▁"
      ],
      [
        "д",
        "е▁"
      ],
      [
        "о",
        "н▁"
      ],
      [
        "▁п",
        "а"
      ],
      [
        "ны",
        "х"
      ],
      [
        "е",
        "к"
      ],
      [
        "че",
        "ско"
      ],
      [
        "зы",
        "ва"
      ],
      [
        "г",
        "да▁"
      ],
      [
        "т",
        "ся▁"
      ],
      [
        "ст",
        "и▁"
      ],
      [
        "но",
        "м▁"
      ],
      [
        "нны",
        "е▁"
      ],
      [
        "и",
        "х▁"
      ],
      [
        "м",
        "ет"
      ],
      [
        "ни",
        "ма"
      ],
      [
        "ж",
        "де"
      ],
      [
        ",▁",
        "и▁"
      ],
      [
        "ми",
        "."
      ],
      [
        "а",
        "в"
      ],
      [
        "е",
        "̈"
      ],
      [
        "ра",
        "н"
      ],
      [
        "то",
        "го"
      ],
      [
        "▁по",
        "лу"
      ],
      [
        "бы",
        "ли▁"
      ],
      [
        "нны",
        "х▁"
      ],
      [
        "К",
        "о"
      ],
      [
        "р",
        "т"
      ],
      [
        "ны",
        "е"
      ],
      [
        "об",
        "ы"
      ],
      [
        "явля",
        "ется▁"
      ],
      [
        "Н",
        "а"
      ],
      [
        "в",
        "ет"
      ],
      [
        "и",
        "ме"
      ],
      [
        "к",
        "ру"
      ],
      [
        "к",
        "ры"
      ],
      [
        "п",
        "ри"
      ],
      [
        "р",
        "и▁"
      ],
      [
        "т",
        "ро"
      ],
      [
        "▁в",
        "ы▁"
      ],
      [
        "ни",
        "й▁"
      ],
      [
        "он",
        "и▁"
      ],
      [
        "\"",
        "."
      ],
      [
        "К",
        "а"
      ],
      [
        "х",
        "а"
      ],
      [
        ",▁",
        "как▁"
      ],
      [
        "це",
        "н"
      ],
      [
        ",▁чтобы",
        "▁"
      ],
      [
        "▁п",
        "ер"
      ],
      [
        "▁по",
        "с"
      ],
      [
        "ка",
        "к"
      ],
      [
        "▁врем",
        "я▁"
      ],
      [
        "2",
        "0"
      ],
      [
        "ст",
        "ь▁"
      ],
      [
        "те",
        "р"
      ],
      [
        "ло",
        "же"
      ],
      [
        "в",
        "я"
      ],
      [
        "в",
        "ши"
      ],
      [
        "▁с",
        "а"
      ],
      [
        "об",
        "о"
      ],
      [
        "го",
        "ро"
      ],
      [
        "1",
        "9"
      ],
      [
        "б",
        "ли"
      ],
      [
        "н",
        "и▁"
      ],
      [
        ",▁",
        "но▁"
      ],
      [
        "об",
        "раз"
      ],
      [
        "де",
        "ла"
      ],
      [
        "боль",
        "ш"
      ],
      [
        "\"",
        "▁"
      ],
      [
        "ти",
        "в"
      ],
      [
        "зо",
        "ва"
      ],
      [
        "П",
        "о"
      ],
      [
        "м",
        "у▁"
      ],
      [
        "но",
        "й"
      ],
      [
        "та",
        "к▁"
      ],
      [
        "и",
        "ли"
      ],
      [
        "к",
        "е▁"
      ],
      [
        "ст",
        "ь"
      ],
      [
        "ро",
        "в"
      ],
      [
        "лю",
        "де"
      ],
      [
        "С",
        "о"
      ],
      [
        "з",
        "да"
      ],
      [
        "с",
        "е▁"
      ],
      [
        "у",
        "с"
      ],
      [
        "ть",
        "ся"
      ],
      [
        "до",
        "ва"
      ],
      [
        "бы",
        "ло▁"
      ],
      [
        "боль",
        "ши"
      ],
      [
        "н",
        "ую▁"
      ],
      [
        "де",
        "р"
      ],
      [
        "▁пра",
        "ви"
      ],
      [
        ",▁",
        "на"
      ],
      [
        "ло",
        "ве"
      ],
      [
        ",▁которы",
        "е▁"
      ],
      [
        ",",
        "▁в"
      ],
      [
        "к",
        "ра"
      ],
      [
        "м",
        "▁с"
      ],
      [
        "н",
        "ь▁"
      ],
      [
        "е",
        "ди"
      ],
      [
        "к",
        "у▁"
      ],
      [
        "х",
        "."
      ],
      [
        "об",
        "ра"
      ],
      [
        "бы",
        "л▁"
      ],
      [
        "ност",
        "и▁"
      ],
      [
        "мож",
        "ет▁"
      ],
      [
        "в",
        "у"
      ],
      [
        "д",
        "ви"
      ],
      [
        "д",
        "ы▁"
      ],
      [
        "с",
        "к"
      ],
      [
        "ни",
        "ка"
      ],
      [
        "та",
        "ки"
      ],
      [
        "да",
        "р"
      ],
      [
        "об",
        "и"
      ],
      [
        "ски",
        "х▁"
      ],
      [
        "обы",
        "ч"
      ],
      [
        "т",
        "ы▁"
      ],
      [
        "ф",
        "о"
      ],
      [
        "то",
        "ч"
      ],
      [
        "че",
        "лове"
      ],
      [
        "до",
        "ста"
      ],
      [
        "дол",
        "ж"
      ],
      [
        "г",
        "▁"
      ],
      [
        "о",
        "ста"
      ],
      [
        "ния",
        "."
      ],
      [
        "ние",
        "м▁"
      ],
      [
        "е",
        "й"
      ],
      [
        "о",
        "че"
      ],
      [
        "т",
        "я"
      ],
      [
        "ра",
        "▁"
      ],
      [
        "то",
        "в"
      ],
      [
        "го",
        "д"
      ],
      [
        "об",
        "ъ"
      ],
      [
        "г",
        "ро"
      ],
      [
        "п",
        "ы"
      ],
      [
        "х",
        ",▁"
      ],
      [
        "ст",
        "ре"
      ],
      [
        "во",
        "й▁"
      ],
      [
        "по",
        "л"
      ],
      [
        "е",
        "й▁"
      ],
      [
        "с",
        "во"
      ],
      [
        "ко",
        "в"
      ],
      [
        "ла",
        "га"
      ],
      [
        "из",
        "ве"
      ],
      [
        "▁пред",
        "ста"
      ],
      [
        ":",
        "▁"
      ],
      [
        "и",
        "м"
      ],
      [
        "но",
        "го"
      ],
      [
        "▁по",
        "мо"
      ],
      [
        "об",
        "ще"
      ],
      [
        "могу",
        "т▁"
      ],
      [
        ")",
        "."
      ],
      [
        "ли",
        "че"
      ],
      [
        "ло",
        "ги"
      ],
      [
        "жи",
        "ва"
      ],
      [
        "Н",
        "е"
      ],
      [
        "д",
        "ля"
      ],
      [
        "ж",
        "да"
      ],
      [
        "л",
        "ся▁"
      ],
      [
        "п",
        "ис"
      ],
      [
        "х",
        "ра"
      ],
      [
        "то",
        "р"
      ],
      [
        "ны",
        "ми▁"
      ],
      [
        "ле",
        "̈"
      ],
      [
        "ме",
        "ни"
      ],
      [
        "бы",
        "ть▁"
      ],
      [
        "ско",
        "й▁"
      ],
      [
        "мож",
        "ет"
      ],
      [
        "ор",
        "га"
      ],
      [
        "▁п",
        "и"
      ],
      [
        ",▁",
        "и"
      ],
      [
        "ры",
        "▁"
      ],
      [
        "сле",
        "дова"
      ],
      [
        "е",
        "з"
      ],
      [
        "я",
        "зы"
      ],
      [
        "де",
        "й"
      ],
      [
        "ско",
        "го▁"
      ],
      [
        "ся",
        "▁в▁"
      ],
      [
        "ски",
        "й▁"
      ],
      [
        "клю",
        "ча"
      ],
      [
        "к",
        "ла"
      ],
      [
        "я",
        "ви"
      ],
      [
        ",▁",
        "ко"
      ],
      [
        "ни",
        "ю"
      ],
      [
        "не",
        "ско"
      ],
      [
        "ве",
        "де"
      ],
      [
        "исполь",
        "з"
      ],
      [
        ")",
        "▁"
      ],
      [
        "В",
        "о"
      ],
      [
        ",▁",
        "г"
      ],
      [
        "ма",
        "н"
      ],
      [
        "ста",
        "н"
      ],
      [
        "хо",
        "дя"
      ],
      [
        "нны",
        "й▁"
      ],
      [
        "рабо",
        "та"
      ],
      [
        "изве",
        "ст"
      ],
      [
        "э",
        "к"
      ],
      [
        "▁в",
        "▁с"
      ],
      [
        "на",
        "д"
      ],
      [
        "но",
        "е"
      ],
      [
        "не",
        "которы"
      ],
      [
        "до",
        "ро"
      ],
      [
        "па",
        "с"
      ],
      [
        "исполь",
        "зова"
      ],
      [
        "М",
        "а"
      ],
      [
        "и",
        "сто"
      ],
      [
        "т",
        "ри"
      ],
      [
        "▁в",
        "з"
      ],
      [
        "ль",
        "▁"
      ],
      [
        "ме",
        "не"
      ],
      [
        "ци",
        "я▁"
      ],
      [
        "жи",
        "во"
      ],
      [
        "▁воз",
        "мож"
      ],
      [
        "фор",
        "ма"
      ],
      [
        "Э",
        "то▁"
      ],
      [
        "г",
        "ру"
      ],
      [
        "з",
        "ва"
      ],
      [
        "л",
        "ли"
      ],
      [
        "я",
        "вле"
      ],
      [
        "▁п",
        "ла"
      ],
      [
        ",▁",
        "с"
      ],
      [
        "ку",
        "ль"
      ],
      [
        "ств",
        "у"
      ],
      [
        "могу",
        "т"
      ],
      [
        "образ",
        "о"
      ],
      [
        "б",
        "ле"
      ],
      [
        "и",
        "▁по"
      ],
      [
        "р",
        "е▁"
      ],
      [
        "я",
        "т"
      ],
      [
        "но",
        "в▁"
      ],
      [
        "ли",
        "сь"
      ],
      [
        "го",
        "во"
      ],
      [
        "че",
        "рез"
      ],
      [
        "от",
        "но"
      ],
      [
        "мож",
        "но▁"
      ],
      [
        "—▁",
        "это▁"
      ],
      [
        "ства",
        "▁"
      ],
      [
        "мно",
        "ги"
      ],
      [
        "живо",
        "т"
      ],
      [
        "Т",
        "а"
      ],
      [
        "м",
        "▁в▁"
      ],
      [
        "ф",
        "е"
      ],
      [
        "х",
        "▁с"
      ],
      [
        "э",
        "том"
      ],
      [
        "й",
        "▁в▁"
      ],
      [
        "ни",
        "ц"
      ],
      [
        "ни",
        "ю▁"
      ],
      [
        "но",
        "ва"
      ],
      [
        "ко",
        "ро"
      ],
      [
        "ко",
        "личе"
      ],
      [
        "то",
        "в▁"
      ],
      [
        "ль",
        "та"
      ],
      [
        "ли",
        "ч"
      ],
      [
        "ме",
        "ж"
      ],
      [
        "де",
        "н"
      ],
      [
        "че",
        "̈"
      ],
      [
        "че",
        "м▁"
      ],
      [
        ".▁",
        "О"
      ],
      [
        "ност",
        "ь▁"
      ],
      [
        "куль",
        "ту"
      ],
      [
        "С",
        "Ш"
      ],
      [
        "С",
        "е"
      ],
      [
        "г",
        "да"
      ],
      [
        "у",
        "льта"
      ],
      [
        "ни",
        "з"
      ],
      [
        "бе",
        "з"
      ],
      [
        "СШ",
        "А"
      ],
      [
        "Б",
        "о"
      ],
      [
        "д",
        "не"
      ],
      [
        "к",
        "ре"
      ],
      [
        "ф",
        "а"
      ],
      [
        "▁п",
        "ар"
      ],
      [
        "и▁",
        "на"
      ],
      [
        "й",
        "▁по"
      ],
      [
        "ко",
        "в▁"
      ],
      [
        "ро",
        "д"
      ],
      [
        "ци",
        "и"
      ],
      [
        "от",
        "я▁"
      ],
      [
        "от",
        "кры"
      ],
      [
        "лу",
        "ч"
      ],
      [
        "рез",
        "ульта"
      ],
      [
        "ком",
        "па"
      ],
      [
        "▁пос",
        "ле▁"
      ],
      [
        "Е",
        "с"
      ],
      [
        "З",
        "а"
      ],
      [
        "з",
        "ем"
      ],
      [
        "о",
        "ди"
      ],
      [
        "р",
        "я▁"
      ],
      [
        "э",
        "ти"
      ],
      [
        "я",
        ",▁"
      ],
      [
        ",▁",
        "о"
      ],
      [
        "ва",
        "ть▁"
      ],
      [
        "ка",
        "н"
      ],
      [
        "ле",
        "г"
      ],
      [
        "ле",
        "н"
      ],
      [
        "те",
        "ше"
      ],
      [
        "за",
        "ви"
      ],
      [
        "▁про",
        "из"
      ],
      [
        "▁во",
        "й"
      ],
      [
        "чи",
        "та"
      ],
      [
        "ем",
        "ы"
      ],
      [
        "сту",
        "п"
      ],
      [
        "в",
        "ро"
      ],
      [
        "е",
        "сть▁"
      ],
      [
        "с",
        "мо"
      ],
      [
        "х",
        "и"
      ],
      [
        "е▁",
        "на"
      ],
      [
        "ни",
        "к"
      ],
      [
        "ли",
        "сь▁"
      ],
      [
        "ма",
        "▁"
      ],
      [
        "сто",
        "и"
      ],
      [
        "лу",
        "ча"
      ],
      [
        "бу",
        "д"
      ],
      [
        "су",
        "ще"
      ],
      [
        "пре",
        "де"
      ],
      [
        "она",
        "ль"
      ],
      [
        "П",
        "а"
      ],
      [
        "г",
        "е"
      ],
      [
        "у",
        "ча"
      ],
      [
        "ки",
        "х▁"
      ],
      [
        "хо",
        "ро"
      ],
      [
        "ту",
        "ри"
      ],
      [
        "вы",
        "х▁"
      ],
      [
        "ос",
        "об"
      ],
      [
        "сле",
        "д"
      ],
      [
        "5",
        "▁"
      ],
      [
        "е",
        "го"
      ],
      [
        "з",
        "во"
      ],
      [
        "о",
        "преде"
      ],
      [
        "ч",
        "ет"
      ],
      [
        "ва",
        "▁"
      ],
      [
        "сто",
        "ро"
      ],
      [
        "кото",
        "ра"
      ],
      [
        "тель",
        "но▁"
      ],
      [
        "рас",
        "по"
      ],
      [
        "̈",
        "▁"
      ],
      [
        "н",
        "ет"
      ],
      [
        "о",
        "ко"
      ],
      [
        "п",
        "ер"
      ],
      [
        "у",
        "че"
      ],
      [
        "ни",
        "че"
      ],
      [
        "на",
        "ходи"
      ],
      [
        "ко",
        "но"
      ],
      [
        "ко",
        "м▁"
      ],
      [
        "ре",
        "в"
      ],
      [
        "▁с",
        "и"
      ],
      [
        "об",
        "ла"
      ],
      [
        "▁го",
        "ду"
      ],
      [
        "\"",
        ",▁"
      ],
      [
        "И",
        "н"
      ],
      [
        "с",
        "ло"
      ],
      [
        "х",
        "▁по"
      ],
      [
        "▁в",
        "се▁"
      ],
      [
        "ни",
        "м▁"
      ],
      [
        "ра",
        "в"
      ],
      [
        "но",
        "во"
      ],
      [
        "ре",
        "с"
      ],
      [
        "ль",
        "но▁"
      ],
      [
        "ка",
        "ж"
      ],
      [
        "ли",
        "чи"
      ],
      [
        "ме",
        "ста"
      ],
      [
        "да",
        "."
      ],
      [
        "ми",
        ",▁"
      ],
      [
        "ци",
        "аль"
      ],
      [
        "ска",
        "я▁"
      ],
      [
        "▁полу",
        "чи"
      ],
      [
        "исто",
        "ри"
      ],
      [
        "С",
        "а"
      ],
      [
        "в",
        "ра"
      ],
      [
        "е",
        "▁по"
      ],
      [
        "к",
        "ти"
      ],
      [
        "м",
        "ного▁"
      ],
      [
        "р",
        "ь"
      ],
      [
        "ь",
        "ю"
      ],
      [
        "я",
        "."
      ],
      [
        "–",
        "▁"
      ],
      [
        "▁п",
        "ри▁"
      ],
      [
        "ре",
        "н"
      ],
      [
        "то",
        "лько▁"
      ],
      [
        "ет",
        "и"
      ],
      [
        "те",
        "ри"
      ],
      [
        "ми",
        "лли"
      ],
      [
        "ди",
        "ци"
      ],
      [
        "ста",
        "но"
      ],
      [
        "част",
        "о▁"
      ],
      [
        ",▁которы",
        "й▁"
      ],
      [
        "это",
        "го▁"
      ],
      [
        "через",
        "▁"
      ],
      [
        "д",
        "на"
      ],
      [
        "ю",
        "ще"
      ],
      [
        "ни",
        "х▁"
      ],
      [
        "ра",
        "й"
      ],
      [
        "ко",
        "й▁"
      ],
      [
        "ва",
        "ть"
      ],
      [
        "во",
        "ди"
      ],
      [
        "бы",
        "л"
      ],
      [
        "ля",
        "р"
      ],
      [
        "▁под",
        "▁"
      ],
      [
        "су",
        "дар"
      ],
      [
        "▁ва",
        "ж"
      ],
      [
        "пра",
        "вле"
      ],
      [
        "оче",
        "нь▁"
      ],
      [
        "зави",
        "си"
      ],
      [
        "о",
        "стро"
      ],
      [
        "с",
        "а▁"
      ],
      [
        "у",
        "н"
      ],
      [
        "ч",
        "у"
      ],
      [
        "ч",
        "то▁"
      ],
      [
        "▁в",
        "ла"
      ],
      [
        "▁в",
        "ер"
      ],
      [
        "и▁",
        "с"
      ],
      [
        "на",
        "."
      ],
      [
        "но",
        ",▁"
      ],
      [
        "но",
        "▁в▁"
      ],
      [
        "не",
        "й"
      ],
      [
        "да",
        "же▁"
      ],
      [
        "де",
        "ль"
      ],
      [
        "из",
        "-"
      ],
      [
        "бу",
        "ду"
      ],
      [
        "▁пу",
        "теше"
      ],
      [
        "дей",
        "стви"
      ],
      [
        "особ",
        "ен"
      ],
      [
        "г",
        "ен"
      ],
      [
        "е",
        "."
      ],
      [
        "и",
        "▁в▁"
      ],
      [
        "м",
        "е▁"
      ],
      [
        "н",
        "ство▁"
      ],
      [
        "о",
        "ри"
      ],
      [
        "у",
        "т"
      ],
      [
        "э",
        "ле"
      ],
      [
        "на",
        "▁по"
      ],
      [
        "ко",
        "ман"
      ],
      [
        "го",
        "судар"
      ],
      [
        "ки",
        ",▁"
      ],
      [
        "бы",
        "▁"
      ],
      [
        "ци",
        "ональ"
      ],
      [
        "по",
        "соб"
      ],
      [
        "нны",
        "м▁"
      ],
      [
        "мен",
        "ь"
      ],
      [
        "ос",
        "нов"
      ],
      [
        "так",
        "же"
      ],
      [
        "▁се",
        "б"
      ],
      [
        "тра",
        "н"
      ],
      [
        "▁пер",
        "вы"
      ],
      [
        "дви",
        "же"
      ],
      [
        "око",
        "ло▁"
      ],
      [
        "В",
        "е"
      ],
      [
        "б",
        "ра"
      ],
      [
        "в",
        "ре"
      ],
      [
        "д",
        "ли"
      ],
      [
        "м",
        "ы▁"
      ],
      [
        "о",
        "ст"
      ],
      [
        "ш",
        "о"
      ],
      [
        "ра",
        "не"
      ],
      [
        "ро",
        "в▁"
      ],
      [
        "ме",
        "ри"
      ],
      [
        "ми",
        "ни"
      ],
      [
        "бы",
        "ла▁"
      ],
      [
        "же",
        "н"
      ],
      [
        "нны",
        "х"
      ],
      [
        "нны",
        "ми▁"
      ],
      [
        "▁вы",
        "со"
      ],
      [
        "ют",
        "ся"
      ],
      [
        "ств",
        "ую"
      ],
      [
        "ну",
        "ж"
      ],
      [
        "дру",
        "го"
      ],
      [
        "больш",
        "о"
      ],
      [
        "челове",
        "к"
      ],
      [
        "▁помо",
        "щ"
      ],
      [
        "пис",
        "а"
      ],
      [
        ",",
        "▁вы"
      ],
      [
        "Р",
        "а"
      ],
      [
        "д",
        "ву"
      ],
      [
        "м",
        "о▁"
      ],
      [
        "н",
        "я▁"
      ],
      [
        "т",
        "ет"
      ],
      [
        "т",
        "ру"
      ],
      [
        "у",
        "да"
      ],
      [
        "ф",
        "ри"
      ],
      [
        ",▁",
        "так▁"
      ],
      [
        "ни",
        "за"
      ],
      [
        "на",
        "зыва"
      ],
      [
        "ре",
        "ги"
      ],
      [
        "то",
        "м▁"
      ],
      [
        "ны",
        "."
      ],
      [
        "ны",
        "м"
      ],
      [
        "те",
        "ли▁"
      ],
      [
        "та",
        "н"
      ],
      [
        "ки",
        "."
      ],
      [
        "ски",
        "е▁"
      ],
      [
        "стра",
        "не"
      ],
      [
        "гла",
        "в"
      ],
      [
        "други",
        "х▁"
      ],
      [
        "ав",
        "том"
      ],
      [
        "20",
        "0"
      ],
      [
        "гру",
        "п"
      ],
      [
        "П",
        "ос"
      ],
      [
        "а",
        "ви"
      ],
      [
        "е",
        "ще"
      ],
      [
        "к",
        "ро"
      ],
      [
        "н",
        "ую"
      ],
      [
        "о",
        "гра"
      ],
      [
        "с",
        "пе"
      ],
      [
        "у",
        "р"
      ],
      [
        "ко",
        "й"
      ],
      [
        "ли",
        "я"
      ],
      [
        "ли",
        "за"
      ],
      [
        "м▁",
        "и▁"
      ],
      [
        "ло",
        "сь▁"
      ],
      [
        "до",
        "в"
      ],
      [
        "ма",
        "р"
      ],
      [
        "ци",
        "и."
      ],
      [
        "▁про",
        "ти"
      ],
      [
        "ств",
        "е▁"
      ],
      [
        "зна",
        "ча"
      ],
      [
        ",▁а▁",
        "также▁"
      ],
      [
        "долж",
        "ны▁"
      ],
      [
        "неско",
        "лько▁"
      ],
      [
        "использ",
        "у"
      ],
      [
        "ству",
        "ет▁"
      ],
      [
        "распо",
        "ложе"
      ],
      [
        "0",
        "00▁"
      ],
      [
        "Н",
        "а▁"
      ],
      [
        "о",
        "на▁"
      ],
      [
        "ф",
        "ек"
      ],
      [
        "ц",
        "у"
      ],
      [
        "ч",
        "и▁"
      ],
      [
        ",▁",
        "за"
      ],
      [
        "на",
        "ру"
      ],
      [
        "но",
        "й▁с"
      ],
      [
        "ка",
        "."
      ],
      [
        "те",
        "ля"
      ],
      [
        "го",
        "ло"
      ],
      [
        "▁про",
        "ш"
      ],
      [
        "▁про",
        "бле"
      ],
      [
        "▁во",
        "с"
      ],
      [
        "ис",
        "следова"
      ],
      [
        "которы",
        "х▁"
      ],
      [
        "вер",
        "х"
      ],
      [
        "су",
        "т"
      ],
      [
        "ес",
        "ли▁"
      ],
      [
        ",▁ко",
        "гда▁"
      ],
      [
        "ост",
        "рова"
      ],
      [
        "автом",
        "оби"
      ],
      [
        "̈",
        "н"
      ],
      [
        "и",
        "г"
      ],
      [
        "п",
        "ла"
      ],
      [
        "с",
        "ки▁"
      ],
      [
        "т",
        "▁в▁"
      ],
      [
        "т",
        "ся"
      ],
      [
        "ш",
        "та"
      ],
      [
        "я",
        "н"
      ],
      [
        "и▁",
        "и▁"
      ],
      [
        "ни",
        "тель"
      ],
      [
        "но",
        "м"
      ],
      [
        "но",
        "ч"
      ],
      [
        "ны",
        "й"
      ],
      [
        "ны",
        "ми"
      ],
      [
        "▁по",
        "ли"
      ],
      [
        "ка",
        "р"
      ],
      [
        "ло",
        "сь"
      ],
      [
        "ру",
        "▁"
      ],
      [
        "ци",
        "я"
      ],
      [
        "▁про",
        "ис"
      ],
      [
        "ско",
        "ль"
      ],
      [
        "ет▁",
        "на"
      ],
      [
        "раз",
        "ви"
      ],
      [
        "▁пред",
        "по"
      ],
      [
        "част",
        "ь▁"
      ],
      [
        ",▁по",
        "этом"
      ],
      [
        "гла",
        "с"
      ],
      [
        "фо",
        "то"
      ],
      [
        ",▁г",
        "де▁"
      ],
      [
        ",",
        "▁при"
      ],
      [
        "n",
        "▁"
      ],
      [
        "Г",
        "а"
      ],
      [
        "Э",
        "то"
      ],
      [
        "а",
        "л"
      ],
      [
        "б",
        "ро"
      ],
      [
        "и",
        "▁про"
      ],
      [
        "н",
        "у▁"
      ],
      [
        "о",
        "з"
      ],
      [
        "с",
        "со"
      ],
      [
        "у",
        "част"
      ],
      [
        "ц",
        "а▁"
      ],
      [
        ",▁",
        "котора"
      ],
      [
        "ни",
        "рова"
      ],
      [
        "на",
        "стоя"
      ],
      [
        "▁с",
        "у"
      ],
      [
        "не",
        "р"
      ],
      [
        "об",
        "щи"
      ],
      [
        "во",
        "д"
      ],
      [
        "бы",
        "ли"
      ],
      [
        "от",
        "вет"
      ],
      [
        "ско",
        "м▁"
      ],
      [
        "ност",
        "и"
      ],
      [
        "вы",
        "е▁"
      ],
      [
        "пе",
        "ра"
      ],
      [
        "▁все",
        "х▁"
      ],
      [
        "ство",
        "ва"
      ],
      [
        "ющи",
        "х"
      ],
      [
        "лан",
        "ди"
      ],
      [
        "больш",
        "е▁"
      ],
      [
        "▁прави",
        "тель"
      ],
      [
        "доста",
        "точ"
      ],
      [
        "Д",
        "ж"
      ],
      [
        "З",
        "ем"
      ],
      [
        "К",
        "и"
      ],
      [
        "О",
        "дна"
      ],
      [
        "д",
        "ь"
      ],
      [
        "е",
        "м▁"
      ],
      [
        "ж",
        "из"
      ],
      [
        "о",
        "нов▁"
      ],
      [
        "с",
        "ы"
      ],
      [
        "с",
        "си"
      ],
      [
        "т",
        "у▁"
      ],
      [
        "ш",
        "е▁"
      ],
      [
        "щ",
        "е▁"
      ],
      [
        "ст",
        "ы"
      ],
      [
        "▁в",
        "▁по"
      ],
      [
        ",▁",
        "не"
      ],
      [
        ",▁",
        "которо"
      ],
      [
        ",▁",
        "как"
      ],
      [
        ",▁",
        "чем▁"
      ],
      [
        "ни",
        "и"
      ],
      [
        "на",
        "зва"
      ],
      [
        "ра",
        "ми"
      ],
      [
        "ре",
        "й"
      ],
      [
        "ре",
        "ше"
      ],
      [
        "то",
        "ри"
      ],
      [
        "ны",
        "▁в▁"
      ],
      [
        "▁по",
        "пу"
      ],
      [
        "ка",
        "х▁"
      ],
      [
        "не",
        "й▁"
      ],
      [
        "не",
        "го▁"
      ],
      [
        "ме",
        "сто"
      ],
      [
        "об",
        "ре"
      ],
      [
        "об",
        "ходи"
      ],
      [
        "ки",
        "е▁"
      ],
      [
        "ти",
        "рова"
      ],
      [
        "ми▁",
        "и▁"
      ],
      [
        "стра",
        "на"
      ],
      [
        "зо",
        "пас"
      ],
      [
        "рас",
        "про"
      ],
      [
        "чески",
        "х▁"
      ],
      [
        "спо",
        "соб"
      ],
      [
        "мно",
        "го"
      ],
      [
        "обыч",
        "но▁"
      ],
      [
        ":▁",
        "\""
      ],
      [
        "Бо",
        "ль"
      ],
      [
        "зависи",
        "мо"
      ],
      [
        "1",
        "1"
      ],
      [
        "Г",
        "о"
      ],
      [
        "е",
        "мо"
      ],
      [
        "л",
        "▁в▁"
      ],
      [
        "м",
        "пи"
      ],
      [
        "т",
        "."
      ],
      [
        "э",
        "коно"
      ],
      [
        "ст",
        "ру"
      ],
      [
        "▁в",
        "о▁"
      ],
      [
        "ни",
        "й"
      ],
      [
        "ра",
        "же"
      ],
      [
        "то",
        "ро"
      ],
      [
        "▁с",
        "обо"
      ],
      [
        "ва",
        "ри"
      ],
      [
        "ка",
        "че"
      ],
      [
        "те",
        "че"
      ],
      [
        "до",
        "сти"
      ],
      [
        "ми",
        "р"
      ],
      [
        "ци",
        "ю"
      ],
      [
        "по",
        "р"
      ],
      [
        "бе",
        "зопас"
      ],
      [
        "ин",
        "те"
      ],
      [
        "ин",
        "форма"
      ],
      [
        "▁под",
        "дер"
      ],
      [
        "зна",
        "чи"
      ],
      [
        "явля",
        "ются▁"
      ],
      [
        "ческо",
        "й▁"
      ],
      [
        "ав",
        "то"
      ],
      [
        "при",
        "мер"
      ],
      [
        "ус",
        "ло"
      ],
      [
        "орга",
        "низа"
      ],
      [
        "тран",
        "спо"
      ],
      [
        ",",
        "▁по▁"
      ],
      [
        "1",
        "6"
      ],
      [
        "И",
        "с"
      ],
      [
        "Л",
        "у"
      ],
      [
        "д",
        "ж"
      ],
      [
        "д",
        "об"
      ],
      [
        "л",
        ",▁что▁"
      ],
      [
        "м",
        "▁с▁"
      ],
      [
        "н",
        "▁в▁"
      ],
      [
        "у",
        "ни"
      ],
      [
        "х",
        "у"
      ],
      [
        "ц",
        "е▁"
      ],
      [
        "ч",
        "то"
      ],
      [
        "ни",
        "й."
      ],
      [
        "ни",
        "и,▁"
      ],
      [
        "ра",
        "к"
      ],
      [
        "▁с",
        "каза"
      ],
      [
        "й▁",
        "и▁"
      ],
      [
        "ла",
        "сь▁"
      ],
      [
        "го",
        "то"
      ],
      [
        "за",
        "па"
      ],
      [
        "за",
        "яви"
      ],
      [
        "мо",
        "мен"
      ],
      [
        "бы",
        "ть"
      ],
      [
        "ма",
        "ти"
      ],
      [
        "ча",
        "сто"
      ],
      [
        "▁про",
        "це"
      ],
      [
        "▁при",
        "ве"
      ],
      [
        "ски",
        "х"
      ],
      [
        "ую",
        "щи"
      ],
      [
        "ния",
        "▁в▁"
      ],
      [
        "ту",
        "а"
      ],
      [
        "ние",
        "."
      ],
      [
        "вер",
        "ше"
      ],
      [
        "стра",
        "да"
      ],
      [
        "боль",
        "ше"
      ],
      [
        "зна",
        "че"
      ],
      [
        "ска",
        "за"
      ],
      [
        "ется",
        "▁в▁"
      ],
      [
        "▁врем",
        "я"
      ],
      [
        "кру",
        "п"
      ],
      [
        "вя",
        "за"
      ],
      [
        "может▁",
        "быть▁"
      ],
      [
        "объ",
        "ек"
      ],
      [
        "Не",
        "которы"
      ],
      [
        "некоторы",
        "е▁"
      ],
      [
        "меж",
        "ду▁"
      ],
      [
        "буд",
        "ет▁"
      ],
      [
        "эконо",
        "ми"
      ],
      [
        "0",
        "0"
      ],
      [
        "1",
        "0▁"
      ],
      [
        "А",
        "в"
      ],
      [
        "С",
        "и"
      ],
      [
        "Ф",
        "ран"
      ],
      [
        "Х",
        "отя▁"
      ],
      [
        "Э",
        "ти▁"
      ],
      [
        "к",
        "то"
      ],
      [
        "л",
        "ся"
      ],
      [
        "о",
        "ни"
      ],
      [
        "с",
        "са"
      ],
      [
        "с",
        "ред"
      ],
      [
        "ц",
        "ы▁"
      ],
      [
        "ст",
        "▁"
      ],
      [
        "на",
        "я"
      ],
      [
        "но",
        "▁по"
      ],
      [
        "но",
        "му"
      ],
      [
        "ль",
        "ко"
      ],
      [
        "ли",
        "ва"
      ],
      [
        "мо",
        "г"
      ],
      [
        "мо",
        "й▁"
      ],
      [
        "ло",
        "д"
      ],
      [
        "ло",
        "м▁"
      ],
      [
        "ло",
        "жи"
      ],
      [
        "до",
        "в▁"
      ],
      [
        "ми",
        "ль"
      ],
      [
        "бо",
        "ва"
      ],
      [
        "ма",
        "тери"
      ],
      [
        "ци",
        "а"
      ],
      [
        "се",
        "ле"
      ],
      [
        "га",
        "н"
      ],
      [
        "вер",
        "си"
      ],
      [
        "ты",
        "ва"
      ],
      [
        "кон",
        "тро"
      ],
      [
        "гра",
        "м"
      ],
      [
        "▁вре",
        "мени"
      ],
      [
        "ак",
        "тив"
      ],
      [
        "▁го",
        "ду▁"
      ],
      [
        "чески",
        "е▁"
      ],
      [
        "ша",
        "я▁"
      ],
      [
        "клю",
        "че"
      ],
      [
        "пра",
        "ви"
      ],
      [
        ",▁в",
        "ключа"
      ],
      [
        "отно",
        "ше"
      ],
      [
        "многи",
        "х▁"
      ],
      [
        "Ес",
        "ли"
      ],
      [
        "вро",
        "пе"
      ],
      [
        "4",
        "▁"
      ],
      [
        "e",
        "▁"
      ],
      [
        "А",
        "р"
      ],
      [
        "А",
        "фри"
      ],
      [
        "Б",
        "у"
      ],
      [
        "Д",
        "а"
      ],
      [
        "Л",
        "ю"
      ],
      [
        "М",
        "и"
      ],
      [
        "М",
        "о"
      ],
      [
        "Н",
        "о"
      ],
      [
        "О",
        "ни▁"
      ],
      [
        "П",
        "ро"
      ],
      [
        "б",
        "о▁"
      ],
      [
        "з",
        "ре"
      ],
      [
        "и",
        "х"
      ],
      [
        "к",
        "ри"
      ],
      [
        "м",
        "▁по"
      ],
      [
        "о",
        "ке"
      ],
      [
        "с",
        "ла"
      ],
      [
        "с",
        "ы▁"
      ],
      [
        "с",
        "лу"
      ],
      [
        "т",
        "ря▁"
      ],
      [
        "у",
        "ч"
      ],
      [
        "▁п",
        "ло"
      ],
      [
        "ст",
        "ер"
      ],
      [
        ",▁",
        "а"
      ],
      [
        "й",
        "те"
      ],
      [
        "ни",
        "й,▁"
      ],
      [
        "ни",
        "и."
      ],
      [
        "на",
        "н"
      ],
      [
        "ны",
        ",▁"
      ],
      [
        "ли",
        ",▁что▁"
      ],
      [
        "те",
        "х"
      ],
      [
        "те",
        "м▁"
      ],
      [
        "ть",
        "▁сво"
      ],
      [
        "да",
        "ле"
      ],
      [
        "об",
        "нару"
      ],
      [
        "че",
        "ски▁"
      ],
      [
        "из",
        "и"
      ],
      [
        "ско",
        "ре"
      ],
      [
        "га",
        "▁"
      ],
      [
        "▁при",
        "ня"
      ],
      [
        "хо",
        "д"
      ],
      [
        "бу",
        "дет"
      ],
      [
        ",▁которы",
        "е"
      ],
      [
        "▁все",
        "го"
      ],
      [
        "это",
        "й▁"
      ],
      [
        ",▁в▁",
        "которо"
      ],
      [
        "цен",
        "тра"
      ],
      [
        "▁са",
        "мы"
      ],
      [
        "▁прави",
        "ло"
      ],
      [
        "тя",
        "же"
      ],
      [
        "ез",
        "д"
      ],
      [
        "▁произ",
        "о"
      ],
      [
        "стои",
        "т▁"
      ],
      [
        "ави",
        "а"
      ],
      [
        "распро",
        "стране"
      ],
      [
        "О",
        "н▁"
      ],
      [
        "С",
        "ан"
      ],
      [
        "г",
        "ри"
      ],
      [
        "д",
        "и▁"
      ],
      [
        "з",
        "▁"
      ],
      [
        "н",
        "г"
      ],
      [
        "н",
        "ного▁"
      ],
      [
        "о",
        "к"
      ],
      [
        "р",
        "о▁"
      ],
      [
        "с",
        "о▁"
      ],
      [
        "х",
        "отя▁"
      ],
      [
        ",▁",
        "со"
      ],
      [
        ",▁",
        "не▁"
      ],
      [
        "е▁",
        "и▁"
      ],
      [
        "ни",
        "ко"
      ],
      [
        "то",
        "ва"
      ],
      [
        "▁по",
        "след"
      ],
      [
        "ка",
        "зыва"
      ],
      [
        "ли",
        "ш"
      ],
      [
        "ли",
        "ча"
      ],
      [
        "ли",
        "мпи"
      ],
      [
        "ле",
        "нь"
      ],
      [
        "ла",
        "го"
      ],
      [
        "ла",
        "сь"
      ],
      [
        "го",
        "р"
      ],
      [
        "та",
        "."
      ],
      [
        "ть",
        ",▁"
      ],
      [
        "до",
        "пол"
      ],
      [
        "до",
        "ступ"
      ],
      [
        "ми",
        "на"
      ],
      [
        "бы",
        "ло"
      ],
      [
        "ци",
        "и,▁"
      ],
      [
        "▁во",
        "▁время▁"
      ],
      [
        "▁при",
        "зна"
      ],
      [
        ".▁",
        "В▁"
      ],
      [
        "лю",
        "бо"
      ],
      [
        "па",
        "н"
      ],
      [
        "▁пе",
        "ри"
      ],
      [
        "▁со",
        "зда"
      ],
      [
        "ты",
        "ся"
      ],
      [
        "теле",
        "й▁"
      ],
      [
        "тер",
        "нет"
      ],
      [
        "таки",
        "е▁"
      ],
      [
        "▁предста",
        "ви"
      ],
      [
        "▁предста",
        "вля"
      ],
      [
        "использ",
        "ую"
      ],
      [
        "над",
        "ца"
      ],
      [
        "образо",
        "ва"
      ],
      [
        "луч",
        "ше"
      ],
      [
        "результа",
        "те▁"
      ],
      [
        "из-",
        "за▁"
      ],
      [
        "особен",
        "но▁"
      ],
      [
        "▁себ",
        "я▁"
      ],
      [
        "огра",
        "ниче"
      ],
      [
        "сколь",
        "ку▁"
      ],
      [
        "-",
        "ли"
      ],
      [
        "1",
        "7"
      ],
      [
        "1",
        "8"
      ],
      [
        "a",
        "r"
      ],
      [
        "e",
        "r"
      ],
      [
        "i",
        "n"
      ],
      [
        "Д",
        "о"
      ],
      [
        "Т",
        "о"
      ],
      [
        "б",
        "ри"
      ],
      [
        "д",
        "ра"
      ],
      [
        "д",
        "во"
      ],
      [
        "е",
        "▁в▁"
      ],
      [
        "и",
        "но"
      ],
      [
        "и",
        "м▁"
      ],
      [
        "л",
        "ет▁"
      ],
      [
        "о",
        "пас"
      ],
      [
        "о",
        "знача"
      ],
      [
        "п",
        "ин"
      ],
      [
        "с",
        "дела"
      ],
      [
        "у",
        "чи"
      ],
      [
        "у",
        "ще"
      ],
      [
        "ф",
        "фек"
      ],
      [
        "ь",
        "ю▁"
      ],
      [
        "я",
        "с"
      ],
      [
        "▁",
        "("
      ],
      [
        "▁в",
        "ключа"
      ],
      [
        "й",
        "ских▁"
      ],
      [
        "▁по",
        "ч"
      ],
      [
        "ет",
        "е"
      ],
      [
        "ли",
        "▁в▁"
      ],
      [
        "не",
        "."
      ],
      [
        "не",
        "е▁"
      ],
      [
        "не",
        "обходи"
      ],
      [
        "те",
        "м"
      ],
      [
        "го",
        "н"
      ],
      [
        "ть",
        "."
      ],
      [
        "до",
        "м▁"
      ],
      [
        "до",
        "во"
      ],
      [
        "до",
        "сто"
      ],
      [
        "ки",
        "м▁"
      ],
      [
        "бы",
        "ва"
      ],
      [
        "ти",
        "я▁"
      ],
      [
        "ма",
        "ши"
      ],
      [
        "ци",
        "о"
      ],
      [
        "ть▁",
        "на"
      ],
      [
        "ть▁",
        "на▁"
      ],
      [
        "раз",
        "лич"
      ],
      [
        "▁пре",
        "доста"
      ],
      [
        "▁вы",
        "бо"
      ],
      [
        "ност",
        "и."
      ],
      [
        "ние",
        "м"
      ],
      [
        "стра",
        "ли"
      ],
      [
        "том",
        ",▁что▁"
      ],
      [
        "тра",
        "дици"
      ],
      [
        "▁ви",
        "де"
      ],
      [
        "други",
        "е▁"
      ],
      [
        "ческо",
        "го▁"
      ],
      [
        "▁полу",
        "че"
      ],
      [
        "вя",
        "з"
      ],
      [
        "▁са",
        "мо"
      ],
      [
        "горо",
        "д"
      ],
      [
        "год",
        "ня"
      ],
      [
        "отно",
        "си"
      ],
      [
        "Ес",
        "ли▁"
      ],
      [
        "чет",
        "ы"
      ],
      [
        "стано",
        "вле"
      ],
      [
        "нуж",
        "но▁"
      ],
      [
        "Пос",
        "ле▁"
      ],
      [
        "▁проти",
        "в▁"
      ],
      [
        "настоя",
        "ще"
      ],
      [
        "усло",
        "ви"
      ],
      [
        "тря▁",
        "на▁"
      ],
      [
        ",",
        "▁про"
      ],
      [
        "0",
        "-"
      ],
      [
        "6",
        "▁"
      ],
      [
        "В",
        "а"
      ],
      [
        "П",
        "и"
      ],
      [
        "П",
        "ри"
      ],
      [
        "П",
        "ер"
      ],
      [
        "б",
        "ер"
      ],
      [
        "е",
        "е▁"
      ],
      [
        "е",
        "ся▁"
      ],
      [
        "е",
        "ха"
      ],
      [
        "ж",
        "чи"
      ],
      [
        "н",
        "та"
      ],
      [
        "с",
        "с"
      ],
      [
        "т",
        "ся▁в▁"
      ],
      [
        "ф",
        "ун"
      ],
      [
        "ст",
        "ри"
      ],
      [
        "▁в",
        "лия"
      ],
      [
        "й",
        "те▁"
      ],
      [
        "ра",
        "ль"
      ],
      [
        "но",
        "вы"
      ],
      [
        "ре",
        "."
      ],
      [
        "то",
        ",▁что▁"
      ],
      [
        "▁по",
        "се"
      ],
      [
        "▁с",
        "ле"
      ],
      [
        "ка",
        ",▁"
      ],
      [
        "ка",
        "та"
      ],
      [
        "не",
        "̈"
      ],
      [
        "не",
        "ч"
      ],
      [
        "не",
        "се"
      ],
      [
        "ме",
        "ся"
      ],
      [
        "го",
        "в"
      ],
      [
        "об",
        "ви"
      ],
      [
        "ло",
        "ж"
      ],
      [
        "ви",
        "дет"
      ],
      [
        "ма",
        "лень"
      ],
      [
        "ци",
        "он"
      ],
      [
        "▁про",
        "дол"
      ],
      [
        "сто",
        "ч"
      ],
      [
        "от",
        "дель"
      ],
      [
        "се",
        "б"
      ],
      [
        "▁при",
        "мер"
      ],
      [
        "ши",
        "х▁"
      ],
      [
        "ния▁",
        "и▁"
      ],
      [
        "ют",
        ",▁что▁"
      ],
      [
        "мож",
        "но"
      ],
      [
        "мен",
        "та"
      ],
      [
        "ки▁",
        "и▁"
      ],
      [
        "том",
        "у▁"
      ],
      [
        "▁пред",
        "лага"
      ],
      [
        "▁пере",
        "да"
      ],
      [
        "▁ва",
        "ри"
      ],
      [
        "фи",
        "циаль"
      ],
      [
        "тре",
        "бу"
      ],
      [
        "тре",
        "бова"
      ],
      [
        "боле",
        "е"
      ],
      [
        "ющи",
        "е▁"
      ],
      [
        "би",
        "ра"
      ],
      [
        "ды",
        "й▁"
      ],
      [
        "од",
        "ним▁"
      ],
      [
        "▁пра",
        "кти"
      ],
      [
        "чески",
        "й▁"
      ],
      [
        "ность",
        "ю"
      ],
      [
        "мест",
        "о▁"
      ],
      [
        "жде",
        "ния▁"
      ],
      [
        "еди",
        "н"
      ],
      [
        "▁вз",
        "я"
      ],
      [
        "количе",
        "ство▁"
      ],
      [
        "оди",
        "н▁"
      ],
      [
        "эле",
        "к"
      ],
      [
        "дву",
        "х▁"
      ],
      [
        "глас",
        "но▁"
      ],
      [
        "Некоторы",
        "е▁"
      ],
      [
        "верси",
        "тет"
      ],
      [
        "допол",
        "нитель"
      ],
      [
        "\"",
        "▁и▁"
      ],
      [
        ")",
        ",▁"
      ],
      [
        "1",
        "▁"
      ],
      [
        ";",
        "▁"
      ],
      [
        "I",
        "I"
      ],
      [
        "Д",
        "ля▁"
      ],
      [
        "С",
        "▁"
      ],
      [
        "Ю",
        "ж"
      ],
      [
        "а",
        "б"
      ],
      [
        "г",
        "ре"
      ],
      [
        "д",
        "ва"
      ],
      [
        "е",
        "ё"
      ],
      [
        "е",
        "ще▁"
      ],
      [
        "з",
        "у"
      ],
      [
        "з",
        "я"
      ],
      [
        "к",
        "ту"
      ],
      [
        "л",
        "ы▁"
      ],
      [
        "л",
        ":▁\""
      ],
      [
        "н",
        "к"
      ],
      [
        "о",
        "каза"
      ],
      [
        "п",
        "ло"
      ],
      [
        "т",
        "вер"
      ],
      [
        "ф",
        "изи"
      ],
      [
        "х",
        "ва"
      ],
      [
        "ч",
        "ь"
      ],
      [
        "ш",
        "ко"
      ],
      [
        "э",
        "нер"
      ],
      [
        "э",
        "ффек"
      ],
      [
        "я",
        "за"
      ],
      [
        "▁",
        "у"
      ],
      [
        "▁п",
        "ти"
      ],
      [
        "ст",
        "в▁"
      ],
      [
        "и▁",
        "не"
      ],
      [
        "й",
        "ти▁"
      ],
      [
        "но",
        "."
      ],
      [
        "но",
        "ве"
      ],
      [
        "но",
        "му▁"
      ],
      [
        "но",
        "логи"
      ],
      [
        "ко",
        "го▁"
      ],
      [
        "ро",
        "ди"
      ],
      [
        "ре",
        "ко"
      ],
      [
        "то",
        "й▁"
      ],
      [
        "то",
        "▁время▁"
      ],
      [
        "ны",
        "й▁с"
      ],
      [
        "▁по",
        "л"
      ],
      [
        "▁по",
        "бе"
      ],
      [
        "ли",
        "."
      ],
      [
        "ле",
        "в"
      ],
      [
        "м▁",
        "("
      ],
      [
        "ме",
        "ча"
      ],
      [
        "ме",
        "сте"
      ],
      [
        "де",
        "ся"
      ],
      [
        "де",
        "нь"
      ],
      [
        "бы",
        "ла"
      ],
      [
        "ста",
        "в"
      ],
      [
        "от",
        "сут"
      ],
      [
        "со",
        "стоя"
      ],
      [
        "▁при",
        "чи"
      ],
      [
        "ши",
        "ро"
      ],
      [
        "лю",
        "да"
      ],
      [
        "ния",
        ",▁"
      ],
      [
        "ку",
        "."
      ],
      [
        "мен",
        "я"
      ],
      [
        "ос",
        "нова"
      ],
      [
        "жа",
        "р"
      ],
      [
        "гра",
        "фи"
      ],
      [
        "▁ва",
        "с▁"
      ],
      [
        "▁все",
        "̈▁"
      ],
      [
        "явля",
        "ется"
      ],
      [
        "▁се",
        "вер"
      ],
      [
        "▁воз",
        "ду"
      ],
      [
        "стро",
        "и"
      ],
      [
        "▁го",
        "да"
      ],
      [
        "мно",
        "же"
      ],
      [
        "лы",
        "ж"
      ],
      [
        "пра",
        "вля"
      ],
      [
        "ность",
        "ю▁"
      ],
      [
        "име",
        "ет▁"
      ],
      [
        "ться",
        "."
      ],
      [
        "ск",
        "ую▁"
      ],
      [
        ",▁г",
        "де"
      ],
      [
        "лись",
        "▁в▁"
      ],
      [
        "эти",
        "х▁"
      ],
      [
        "ступ",
        "ле"
      ],
      [
        "зво",
        "ля"
      ],
      [
        "остро",
        "во"
      ],
      [
        "▁путеше",
        "стви"
      ],
      [
        "еще",
        "̈▁"
      ],
      [
        ",▁поэтом",
        "у▁"
      ],
      [
        "зависимо",
        "сти▁"
      ],
      [
        "▁произо",
        "ш"
      ],
      [
        ",",
        "▁под"
      ],
      [
        "o",
        "r"
      ],
      [
        "В",
        "и"
      ],
      [
        "Г",
        "ер"
      ],
      [
        "Е",
        "го▁"
      ],
      [
        "П",
        "е"
      ],
      [
        "П",
        "о▁"
      ],
      [
        "Р",
        "е"
      ],
      [
        "У",
        "▁"
      ],
      [
        "б",
        "лаго"
      ],
      [
        "в",
        ".▁"
      ],
      [
        "г",
        "ля"
      ],
      [
        "з",
        "ы▁"
      ],
      [
        "з",
        "он"
      ],
      [
        "и",
        "мен"
      ],
      [
        "и",
        "гра"
      ],
      [
        "к",
        "ли"
      ],
      [
        "к",
        "ло"
      ],
      [
        "к",
        "то▁"
      ],
      [
        "л",
        "н"
      ],
      [
        "л",
        "ле"
      ],
      [
        "н",
        "ной▁"
      ],
      [
        "о",
        "логи"
      ],
      [
        "с",
        "чита"
      ],
      [
        "т",
        "ри▁"
      ],
      [
        "у",
        "же▁"
      ],
      [
        "у",
        "гро"
      ],
      [
        "ш",
        "ру"
      ],
      [
        "я",
        "х▁"
      ],
      [
        "▁п",
        "ы"
      ],
      [
        "▁п",
        "я"
      ],
      [
        "▁п",
        "ря"
      ],
      [
        "▁в",
        "ет"
      ],
      [
        "▁в",
        "ну"
      ],
      [
        "▁в",
        "нима"
      ],
      [
        "▁в",
        "стре"
      ],
      [
        "▁в",
        "торо"
      ],
      [
        "ни",
        "к▁"
      ],
      [
        "на",
        "ходя"
      ],
      [
        "ро",
        "ят"
      ],
      [
        "ре",
        "ли"
      ],
      [
        "ль",
        "ные▁"
      ],
      [
        "ва",
        "р"
      ],
      [
        "ли",
        "рова"
      ],
      [
        "не",
        "с"
      ],
      [
        "не",
        "по"
      ],
      [
        "за",
        "ня"
      ],
      [
        "за",
        "нима"
      ],
      [
        "та",
        "м▁"
      ],
      [
        "ть",
        "▁в▁"
      ],
      [
        "мо",
        "р"
      ],
      [
        "во",
        "е"
      ],
      [
        "ми",
        "ро"
      ],
      [
        "ми",
        "ну"
      ],
      [
        "бо",
        "га"
      ],
      [
        "ци",
        "ю▁"
      ],
      [
        "ста",
        "вля"
      ],
      [
        "к▁",
        "и▁"
      ],
      [
        "же",
        "н▁"
      ],
      [
        "со",
        "зда"
      ],
      [
        "▁при",
        "ро"
      ],
      [
        "▁при",
        "бли"
      ],
      [
        "чи",
        "с"
      ],
      [
        "па",
        "▁"
      ],
      [
        "ност",
        "и,▁"
      ],
      [
        "ние",
        "▁в▁"
      ],
      [
        "ку",
        "с"
      ],
      [
        "вер",
        "ши"
      ],
      [
        "гра",
        "жда"
      ],
      [
        ",▁по",
        "скольку▁"
      ],
      [
        "▁ва",
        "м▁"
      ],
      [
        "пу",
        "бли"
      ],
      [
        "▁се",
        "ве"
      ],
      [
        "му",
        "жчи"
      ],
      [
        "од",
        "ной▁"
      ],
      [
        "ком",
        "п"
      ],
      [
        "ес",
        "ли"
      ],
      [
        "того",
        ",▁"
      ],
      [
        "▁пер",
        "во"
      ],
      [
        "▁пос",
        "ети"
      ],
      [
        "люде",
        "й,▁"
      ],
      [
        "больши",
        "н"
      ],
      [
        "больши",
        "нство▁"
      ],
      [
        "дер",
        "жа"
      ],
      [
        "оче",
        "нь"
      ],
      [
        "▁предста",
        "вле"
      ],
      [
        "живот",
        "ных"
      ],
      [
        "США",
        "▁"
      ],
      [
        "–▁",
        "это▁"
      ],
      [
        "милли",
        "онов▁"
      ],
      [
        "мень",
        "ше"
      ],
      [
        "мери",
        "кан"
      ],
      [
        "достаточ",
        "но▁"
      ],
      [
        "Ки",
        "та"
      ],
      [
        "▁попу",
        "ляр"
      ],
      [
        "Боль",
        "ши"
      ],
      [
        "Ав",
        "страли"
      ],
      [
        "8",
        "▁"
      ],
      [
        "a",
        "n"
      ],
      [
        "e",
        "s"
      ],
      [
        "r",
        "o"
      ],
      [
        "К",
        "ро"
      ],
      [
        "Н",
        "и"
      ],
      [
        "П",
        "у"
      ],
      [
        "Т",
        "ак"
      ],
      [
        "Я",
        "по"
      ],
      [
        "а",
        "т"
      ],
      [
        "б",
        "ан"
      ],
      [
        "г",
        "и▁"
      ],
      [
        "г",
        "лу"
      ],
      [
        "г",
        "рес"
      ],
      [
        "д",
        "."
      ],
      [
        "д",
        "же"
      ],
      [
        "д",
        "ва▁"
      ],
      [
        "е",
        "вропе"
      ],
      [
        "з",
        "де"
      ],
      [
        "и",
        "де"
      ],
      [
        "л",
        "ся▁в▁"
      ],
      [
        "м",
        "ь"
      ],
      [
        "м",
        "я"
      ],
      [
        "о",
        "гро"
      ],
      [
        "у",
        ",▁"
      ],
      [
        "у",
        "ве"
      ],
      [
        "ч",
        "е▁"
      ],
      [
        "ю",
        "ж"
      ],
      [
        "я",
        "▁по"
      ],
      [
        "ст",
        "ем"
      ],
      [
        "и▁",
        "за"
      ],
      [
        ",▁",
        "у"
      ],
      [
        "е▁",
        "за"
      ],
      [
        "й",
        "▁в"
      ],
      [
        "на",
        "и"
      ]
    ]
  }
}